{
  "version": "1.0",
  "truncation": null,
  "padding": null,
  "added_tokens": [],
  "normalizer": null,
  "pre_tokenizer": null,
  "post_processor": null,
  "decoder": {
    "type": "Sequence",
    "decoders": [
      {
        "type": "ByteFallback"
      },
      {
        "type": "Fuse"
      }
    ]
  },
  "model": {
    "type": "Unigram",
    "unk_id": 59,
    "vocab": [
      [
        "ం",
        12.0
      ],
      [
        "ః",
        12.0
      ],
      [
        "అ",
        12.0
      ],
      [
        "ఆ",
        12.0
      ],
      [
        "ఇ",
        12.0
      ],
      [
        "ఈ",
        12.0
      ],
      [
        "ఉ",
        12.0
      ],
      [
        "ఋ",
        12.0
      ],
      [
        "ఎ",
        12.0
      ],
      [
        "ఏ",
        12.0
      ],
      [
        "ఐ",
        12.0
      ],
      [
        "ఒ",
        12.0
      ],
      [
        "ఓ",
        12.0
      ],
      [
        "ఔ",
        12.0
      ],
      [
        "క",
        12.0
      ],
      [
        "ఖ",
        12.0
      ],
      [
        "గ",
        12.0
      ],
      [
        "ఘ",
        12.0
      ],
      [
        "చ",
        12.0
      ],
      [
        "ఛ",
        12.0
      ],
      [
        "జ",
        12.0
      ],
      [
        "ఞ",
        12.0
      ],
      [
        "ట",
        12.0
      ],
      [
        "ఠ",
        12.0
      ],
      [
        "డ",
        12.0
      ],
      [
        "ఢ",
        12.0
      ],
      [
        "ణ",
        12.0
      ],
      [
        "త",
        12.0
      ],
      [
        "థ",
        12.0
      ],
      [
        "ద",
        12.0
      ],
      [
        "ధ",
        12.0
      ],
      [
        "న",
        12.0
      ],
      [
        "ప",
        12.0
      ],
      [
        "ఫ",
        12.0
      ],
      [
        "బ",
        12.0
      ],
      [
        "భ",
        12.0
      ],
      [
        "మ",
        12.0
      ],
      [
        "య",
        12.0
      ],
      [
        "ర",
        12.0
      ],
      [
        "ల",
        12.0
      ],
      [
        "ళ",
        12.0
      ],
      [
        "వ",
        12.0
      ],
      [
        "శ",
        12.0
      ],
      [
        "ష",
        12.0
      ],
      [
        "స",
        12.0
      ],
      [
        "హ",
        12.0
      ],
      [
        "ా",
        12.0
      ],
      [
        "ి",
        12.0
      ],
      [
        "ీ",
        12.0
      ],
      [
        "ు",
        12.0
      ],
      [
        "ూ",
        12.0
      ],
      [
        "ృ",
        12.0
      ],
      [
        "ె",
        12.0
      ],
      [
        "ే",
        12.0
      ],
      [
        "ై",
        12.0
      ],
      [
        "ొ",
        12.0
      ],
      [
        "ో",
        12.0
      ],
      [
        "ౌ",
        12.0
      ],
      [
        "్",
        12.0
      ],
      [
        "<0x00>",
        63.0
      ],
      [
        "<0x01>",
        63.0
      ],
      [
        "<0x02>",
        63.0
      ],
      [
        "<0x03>",
        63.0
      ],
      [
        "<0x04>",
        63.0
      ],
      [
        "<0x05>",
        63.0
      ],
      [
        "<0x06>",
        63.0
      ],
      [
        "<0x07>",
        63.0
      ],
      [
        "<0x08>",
        63.0
      ],
      [
        "<0x09>",
        63.0
      ],
      [
        "<0x0A>",
        63.0
      ],
      [
        "<0x0B>",
        63.0
      ],
      [
        "<0x0C>",
        63.0
      ],
      [
        "<0x0D>",
        63.0
      ],
      [
        "<0x0E>",
        63.0
      ],
      [
        "<0x0F>",
        63.0
      ],
      [
        "<0x10>",
        63.0
      ],
      [
        "<0x11>",
        63.0
      ],
      [
        "<0x12>",
        63.0
      ],
      [
        "<0x13>",
        63.0
      ],
      [
        "<0x14>",
        63.0
      ],
      [
        "<0x15>",
        63.0
      ],
      [
        "<0x16>",
        63.0
      ],
      [
        "<0x17>",
        63.0
      ],
      [
        "<0x18>",
        63.0
      ],
      [
        "<0x19>",
        63.0
      ],
      [
        "<0x1A>",
        63.0
      ],
      [
        "<0x1B>",
        63.0
      ],
      [
        "<0x1C>",
        63.0
      ],
      [
        "<0x1D>",
        63.0
      ],
      [
        "<0x1E>",
        63.0
      ],
      [
        "<0x1F>",
        63.0
      ],
      [
        "<0x20>",
        63.0
      ],
      [
        "<0x21>",
        63.0
      ],
      [
        "<0x22>",
        63.0
      ],
      [
        "<0x23>",
        63.0
      ],
      [
        "<0x24>",
        63.0
      ],
      [
        "<0x25>",
        63.0
      ],
      [
        "<0x26>",
        63.0
      ],
      [
        "<0x27>",
        63.0
      ],
      [
        "<0x28>",
        63.0
      ],
      [
        "<0x29>",
        63.0
      ],
      [
        "<0x2A>",
        63.0
      ],
      [
        "<0x2B>",
        63.0
      ],
      [
        "<0x2C>",
        63.0
      ],
      [
        "<0x2D>",
        63.0
      ],
      [
        "<0x2E>",
        63.0
      ],
      [
        "<0x2F>",
        63.0
      ],
      [
        "<0x30>",
        63.0
      ],
      [
        "<0x31>",
        63.0
      ],
      [
        "<0x32>",
        63.0
      ],
      [
        "<0x33>",
        63.0
      ],
      [
        "<0x34>",
        63.0
      ],
      [
        "<0x35>",
        63.0
      ],
      [
        "<0x36>",
        63.0
      ],
      [
        "<0x37>",
        63.0
      ],
      [
        "<0x38>",
        63.0
      ],
      [
        "<0x39>",
        63.0
      ],
      [
        "<0x3A>",
        63.0
      ],
      [
        "<0x3B>",
        63.0
      ],
      [
        "<0x3C>",
        63.0
      ],
      [
        "<0x3D>",
        63.0
      ],
      [
        "<0x3E>",
        63.0
      ],
      [
        "<0x3F>",
        63.0
      ],
      [
        "<0x40>",
        63.0
      ],
      [
        "<0x41>",
        63.0
      ],
      [
        "<0x42>",
        63.0
      ],
      [
        "<0x43>",
        63.0
      ],
      [
        "<0x44>",
        63.0
      ],
      [
        "<0x45>",
        63.0
      ],
      [
        "<0x46>",
        63.0
      ],
      [
        "<0x47>",
        63.0
      ],
      [
        "<0x48>",
        63.0
      ],
      [
        "<0x49>",
        63.0
      ],
      [
        "<0x4A>",
        63.0
      ],
      [
        "<0x4B>",
        63.0
      ],
      [
        "<0x4C>",
        63.0
      ],
      [
        "<0x4D>",
        63.0
      ],
      [
        "<0x4E>",
        63.0
      ],
      [
        "<0x4F>",
        63.0
      ],
      [
        "<0x50>",
        63.0
      ],
      [
        "<0x51>",
        63.0
      ],
      [
        "<0x52>",
        63.0
      ],
      [
        "<0x53>",
        63.0
      ],
      [
        "<0x54>",
        63.0
      ],
      [
        "<0x55>",
        63.0
      ],
      [
        "<0x56>",
        63.0
      ],
      [
        "<0x57>",
        63.0
      ],
      [
        "<0x58>",
        63.0
      ],
      [
        "<0x59>",
        63.0
      ],
      [
        "<0x5A>",
        63.0
      ],
      [
        "<0x5B>",
        63.0
      ],
      [
        "<0x5C>",
        63.0
      ],
      [
        "<0x5D>",
        63.0
      ],
      [
        "<0x5E>",
        63.0
      ],
      [
        "<0x5F>",
        63.0
      ],
      [
        "<0x60>",
        63.0
      ],
      [
        "<0x61>",
        63.0
      ],
      [
        "<0x62>",
        63.0
      ],
      [
        "<0x63>",
        63.0
      ],
      [
        "<0x64>",
        63.0
      ],
      [
        "<0x65>",
        63.0
      ],
      [
        "<0x66>",
        63.0
      ],
      [
        "<0x67>",
        63.0
      ],
      [
        "<0x68>",
        63.0
      ],
      [
        "<0x69>",
        63.0
      ],
      [
        "<0x6A>",
        63.0
      ],
      [
        "<0x6B>",
        63.0
      ],
      [
        "<0x6C>",
        63.0
      ],
      [
        "<0x6D>",
        63.0
      ],
      [
        "<0x6E>",
        63.0
      ],
      [
        "<0x6F>",
        63.0
      ],
      [
        "<0x70>",
        63.0
      ],
      [
        "<0x71>",
        63.0
      ],
      [
        "<0x72>",
        63.0
      ],
      [
        "<0x73>",
        63.0
      ],
      [
        "<0x74>",
        63.0
      ],
      [
        "<0x75>",
        63.0
      ],
      [
        "<0x76>",
        63.0
      ],
      [
        "<0x77>",
        63.0
      ],
      [
        "<0x78>",
        63.0
      ],
      [
        "<0x79>",
        63.0
      ],
      [
        "<0x7A>",
        63.0
      ],
      [
        "<0x7B>",
        63.0
      ],
      [
        "<0x7C>",
        63.0
      ],
      [
        "<0x7D>",
        63.0
      ],
      [
        "<0x7E>",
        63.0
      ],
      [
        "<0x7F>",
        63.0
      ],
      [
        "<0x80>",
        63.0
      ],
      [
        "<0x81>",
        63.0
      ],
      [
        "<0x82>",
        63.0
      ],
      [
        "<0x83>",
        63.0
      ],
      [
        "<0x84>",
        63.0
      ],
      [
        "<0x85>",
        63.0
      ],
      [
        "<0x86>",
        63.0
      ],
      [
        "<0x87>",
        63.0
      ],
      [
        "<0x88>",
        63.0
      ],
      [
        "<0x89>",
        63.0
      ],
      [
        "<0x8A>",
        63.0
      ],
      [
        "<0x8B>",
        63.0
      ],
      [
        "<0x8C>",
        63.0
      ],
      [
        "<0x8D>",
        63.0
      ],
      [
        "<0x8E>",
        63.0
      ],
      [
        "<0x8F>",
        63.0
      ],
      [
        "<0x90>",
        63.0
      ],
      [
        "<0x91>",
        63.0
      ],
      [
        "<0x92>",
        63.0
      ],
      [
        "<0x93>",
        63.0
      ],
      [
        "<0x94>",
        63.0
      ],
      [
        "<0x95>",
        63.0
      ],
      [
        "<0x96>",
        63.0
      ],
      [
        "<0x97>",
        63.0
      ],
      [
        "<0x98>",
        63.0
      ],
      [
        "<0x99>",
        63.0
      ],
      [
        "<0x9A>",
        63.0
      ],
      [
        "<0x9B>",
        63.0
      ],
      [
        "<0x9C>",
        63.0
      ],
      [
        "<0x9D>",
        63.0
      ],
      [
        "<0x9E>",
        63.0
      ],
      [
        "<0x9F>",
        63.0
      ],
      [
        "<0xA0>",
        63.0
      ],
      [
        "<0xA1>",
        63.0
      ],
      [
        "<0xA2>",
        63.0
      ],
      [
        "<0xA3>",
        63.0
      ],
      [
        "<0xA4>",
        63.0
      ],
      [
        "<0xA5>",
        63.0
      ],
      [
        "<0xA6>",
        63.0
      ],
      [
        "<0xA7>",
        63.0
      ],
      [
        "<0xA8>",
        63.0
      ],
      [
        "<0xA9>",
        63.0
      ],
      [
        "<0xAA>",
        63.0
      ],
      [
        "<0xAB>",
        63.0
      ],
      [
        "<0xAC>",
        63.0
      ],
      [
        "<0xAD>",
        63.0
      ],
      [
        "<0xAE>",
        63.0
      ],
      [
        "<0xAF>",
        63.0
      ],
      [
        "<0xB0>",
        63.0
      ],
      [
        "<0xB1>",
        63.0
      ],
      [
        "<0xB2>",
        63.0
      ],
      [
        "<0xB3>",
        63.0
      ],
      [
        "<0xB4>",
        63.0
      ],
      [
        "<0xB5>",
        63.0
      ],
      [
        "<0xB6>",
        63.0
      ],
      [
        "<0xB7>",
        63.0
      ],
      [
        "<0xB8>",
        63.0
      ],
      [
        "<0xB9>",
        63.0
      ],
      [
        "<0xBA>",
        63.0
      ],
      [
        "<0xBB>",
        63.0
      ],
      [
        "<0xBC>",
        63.0
      ],
      [
        "<0xBD>",
        63.0
      ],
      [
        "<0xBE>",
        63.0
      ],
      [
        "<0xBF>",
        63.0
      ],
      [
        "<0xC0>",
        63.0
      ],
      [
        "<0xC1>",
        63.0
      ],
      [
        "<0xC2>",
        63.0
      ],
      [
        "<0xC3>",
        63.0
      ],
      [
        "<0xC4>",
        63.0
      ],
      [
        "<0xC5>",
        63.0
      ],
      [
        "<0xC6>",
        63.0
      ],
      [
        "<0xC7>",
        63.0
      ],
      [
        "<0xC8>",
        63.0
      ],
      [
        "<0xC9>",
        63.0
      ],
      [
        "<0xCA>",
        63.0
      ],
      [
        "<0xCB>",
        63.0
      ],
      [
        "<0xCC>",
        63.0
      ],
      [
        "<0xCD>",
        63.0
      ],
      [
        "<0xCE>",
        63.0
      ],
      [
        "<0xCF>",
        63.0
      ],
      [
        "<0xD0>",
        63.0
      ],
      [
        "<0xD1>",
        63.0
      ],
      [
        "<0xD2>",
        63.0
      ],
      [
        "<0xD3>",
        63.0
      ],
      [
        "<0xD4>",
        63.0
      ],
      [
        "<0xD5>",
        63.0
      ],
      [
        "<0xD6>",
        63.0
      ],
      [
        "<0xD7>",
        63.0
      ],
      [
        "<0xD8>",
        63.0
      ],
      [
        "<0xD9>",
        63.0
      ],
      [
        "<0xDA>",
        63.0
      ],
      [
        "<0xDB>",
        63.0
      ],
      [
        "<0xDC>",
        63.0
      ],
      [
        "<0xDD>",
        63.0
      ],
      [
        "<0xDE>",
        63.0
      ],
      [
        "<0xDF>",
        63.0
      ],
      [
        "<0xE0>",
        63.0
      ],
      [
        "<0xE1>",
        63.0
      ],
      [
        "<0xE2>",
        63.0
      ],
      [
        "<0xE3>",
        63.0
      ],
      [
        "<0xE4>",
        63.0
      ],
      [
        "<0xE5>",
        63.0
      ],
      [
        "<0xE6>",
        63.0
      ],
      [
        "<0xE7>",
        63.0
      ],
      [
        "<0xE8>",
        63.0
      ],
      [
        "<0xE9>",
        63.0
      ],
      [
        "<0xEA>",
        63.0
      ],
      [
        "<0xEB>",
        63.0
      ],
      [
        "<0xEC>",
        63.0
      ],
      [
        "<0xED>",
        63.0
      ],
      [
        "<0xEE>",
        63.0
      ],
      [
        "<0xEF>",
        63.0
      ],
      [
        "<0xF0>",
        63.0
      ],
      [
        "<0xF1>",
        63.0
      ],
      [
        "<0xF2>",
        63.0
      ],
      [
        "<0xF3>",
        63.0
      ],
      [
        "<0xF4>",
        63.0
      ],
      [
        "<0xF5>",
        63.0
      ],
      [
        "<0xF6>",
        63.0
      ],
      [
        "<0xF7>",
        63.0
      ],
      [
        "<0xF8>",
        63.0
      ],
      [
        "<0xF9>",
        63.0
      ],
      [
        "<0xFA>",
        63.0
      ],
      [
        "<0xFB>",
        63.0
      ],
      [
        "<0xFC>",
        63.0
      ],
      [
        "<0xFD>",
        63.0
      ],
      [
        "<0xFE>",
        63.0
      ],
      [
        "<0xFF>",
        63.0
      ],
      [
        "</w>",
        40.0
      ],
      [
        "లో",
        20.0
      ],
      [
        "the",
        29.0
      ],
      [
        "भार",
        29.0
      ],
      [
        "and",
        28.0
      ],
      [
        "और",
        18.0
      ],
      [
        "ਵਿੱਚ",
        39.0
      ],
      [
        "of",
        17.0
      ],
      [
        "भारत",
        37.0
      ],
      [
        "ਭਾਰ",
        28.0
      ],
      [
        "in",
        16.0
      ],
      [
        "पर",
        16.0
      ],
      [
        "ని",
        16.0
      ],
      [
        "India",
        45.0
      ],
      [
        "कर",
        15.0
      ],
      [
        "ਭਾਰਤ",
        37.0
      ],
      [
        "గా",
        15.0
      ],
      [
        "to",
        14.0
      ],
      [
        "इस",
        14.0
      ],
      [
        "a",
        3.0
      ],
      [
        "ਅਤੇ",
        26.0
      ],
      [
        "सभ्य",
        33.0
      ],
      [
        "is",
        12.0
      ],
      [
        "सभ्यता",
        52.0
      ],
      [
        "ਇੱਕ",
        25.0
      ],
      [
        "The",
        21.0
      ],
      [
        "ారు",
        22.0
      ],
      [
        "तीय",
        21.0
      ],
      [
        "by",
        10.0
      ],
      [
        "ਇਸ",
        14.0
      ],
      [
        "भारतीय",
        50.0
      ],
      [
        "Indian",
        49.0
      ],
      [
        "ింది",
        30.0
      ],
      [
        "तथा",
        19.0
      ],
      [
        "'s",
        8.0
      ],
      [
        "ਪੂਰ",
        23.0
      ],
      [
        "एक",
        8.0
      ],
      [
        "as",
        7.0
      ],
      [
        "లు",
        8.0
      ],
      [
        "ਨਾਲ",
        22.0
      ],
      [
        "was",
        16.0
      ],
      [
        "तक",
        7.0
      ],
      [
        "ంది",
        17.0
      ],
      [
        "with",
        25.0
      ],
      [
        "कार",
        16.0
      ],
      [
        "ਰਾਜ",
        21.0
      ],
      [
        "కు",
        6.0
      ],
      [
        "ing",
        14.0
      ],
      [
        "नाम",
        15.0
      ],
      [
        "ਤਰ",
        10.0
      ],
      [
        "ను",
        5.0
      ],
      [
        "s",
        -7.0
      ],
      [
        "किया",
        24.0
      ],
      [
        "ంగా",
        14.0
      ],
      [
        "on",
        2.0
      ],
      [
        "बाद",
        13.0
      ],
      [
        "ਹਨ",
        9.0
      ],
      [
        "has",
        11.0
      ],
      [
        "సామ్రాజ్యం",
        83.0
      ],
      [
        "राज",
        12.0
      ],
      [
        "In",
        0.0
      ],
      [
        "ਪ੍ਰ",
        18.0
      ],
      [
        "తో",
        2.0
      ],
      [
        "गया",
        11.0
      ],
      [
        "from",
        19.0
      ],
      [
        "देश",
        10.0
      ],
      [
        "ਕਰ",
        7.0
      ],
      [
        "an",
        -2.0
      ],
      [
        "पूर्व",
        29.0
      ],
      [
        "or",
        -3.0
      ],
      [
        "ਸਨ",
        6.0
      ],
      [
        "ానికి",
        29.0
      ],
      [
        "राज्य",
        28.0
      ],
      [
        "which",
        26.0
      ],
      [
        "सम",
        -3.0
      ],
      [
        "for",
        5.0
      ],
      [
        "ਕਾਰ",
        15.0
      ],
      [
        "ాలు",
        7.0
      ],
      [
        "काल",
        6.0
      ],
      [
        "its",
        4.0
      ],
      [
        "ਧਰ",
        4.0
      ],
      [
        "తరువాత",
        36.0
      ],
      [
        "जन",
        -5.0
      ],
      [
        "at",
        -7.0
      ],
      [
        "i",
        -18.0
      ],
      [
        "हुआ",
        4.0
      ],
      [
        "నుండి",
        25.0
      ],
      [
        "ਗਿਆ",
        13.0
      ],
      [
        "were",
        11.0
      ],
      [
        "यह",
        -7.0
      ],
      [
        "భారతదేశంలో",
        74.0
      ],
      [
        "ਭਾਰਤੀ",
        32.0
      ],
      [
        "are",
        0.0
      ],
      [
        "सर",
        -8.0
      ],
      [
        "ాన్ని",
        23.0
      ],
      [
        "th",
        -11.0
      ],
      [
        "दक्षि",
        21.0
      ],
      [
        "ది",
        -8.0
      ],
      [
        "ਉੱਤੇ",
        21.0
      ],
      [
        "ed",
        -12.0
      ],
      [
        "जिस",
        0.0
      ],
      [
        "మధ్య",
        11.0
      ],
      [
        "ਇਆ",
        0.0
      ],
      [
        "t",
        -23.0
      ],
      [
        "दक्षिण",
        29.0
      ],
      [
        "into",
        6.0
      ],
      [
        "शास",
        -2.0
      ],
      [
        "ਸਤਾ",
        9.0
      ],
      [
        "భారత",
        9.0
      ],
      [
        "c",
        -25.0
      ],
      [
        "मान",
        -3.0
      ],
      [
        "తెలంగాణ",
        38.0
      ],
      [
        "al",
        -16.0
      ],
      [
        "ਇਹ",
        -2.0
      ],
      [
        "सब",
        -14.0
      ],
      [
        "Section",
        33.0
      ],
      [
        "सबसे",
        5.0
      ],
      [
        "ਬਾਅ",
        7.0
      ],
      [
        "Level",
        12.0
      ],
      [
        "పూ",
        -14.0
      ],
      [
        "अप",
        -16.0
      ],
      [
        "it",
        -19.0
      ],
      [
        "ము",
        -15.0
      ],
      [
        "ਬਾਅਦ",
        16.0
      ],
      [
        "रूप",
        -7.0
      ],
      [
        "es",
        -20.0
      ],
      [
        "ఉంది",
        4.0
      ],
      [
        "अधि",
        -8.0
      ],
      [
        "y",
        -31.0
      ],
      [
        "ਦੱਖ",
        5.0
      ],
      [
        "భారతీయ",
        23.0
      ],
      [
        "साथ",
        -9.0
      ],
      [
        "d",
        -32.0
      ],
      [
        "భారతదేశ",
        32.0
      ],
      [
        "ਸਰ",
        -6.0
      ],
      [
        "ic",
        -23.0
      ],
      [
        "वर्ष",
        0.0
      ],
      [
        "world",
        6.0
      ],
      [
        "महा",
        -11.0
      ],
      [
        "ਪੂਰਵ",
        13.0
      ],
      [
        "ఉత్తర",
        10.0
      ],
      [
        "er",
        -25.0
      ],
      [
        "चीन",
        -12.0
      ],
      [
        "ਦਰ",
        -8.0
      ],
      [
        "దక్షిణ",
        19.0
      ],
      [
        "be",
        -26.0
      ],
      [
        "ईसा",
        -13.0
      ],
      [
        "వరకు",
        -2.0
      ],
      [
        "p",
        -37.0
      ],
      [
        "हुए",
        -14.0
      ],
      [
        "ਦੀਆਂ",
        11.0
      ],
      [
        "first",
        2.0
      ],
      [
        "ఇద",
        -23.0
      ],
      [
        "युग",
        -15.0
      ],
      [
        "b",
        -39.0
      ],
      [
        "ਜਿਸ",
        0.0
      ],
      [
        "भाषा",
        -6.0
      ],
      [
        "government",
        50.0
      ],
      [
        "बहु",
        -17.0
      ],
      [
        "ਧਰਮ",
        -1.0
      ],
      [
        "ly",
        -31.0
      ],
      [
        "పు",
        -26.0
      ],
      [
        "समय",
        -18.0
      ],
      [
        "had",
        -22.0
      ],
      [
        "ਕੀਤਾ",
        8.0
      ],
      [
        "డు",
        -27.0
      ],
      [
        "शासन",
        -9.0
      ],
      [
        "during",
        7.0
      ],
      [
        "కి",
        -28.0
      ],
      [
        "तिहा",
        -10.0
      ],
      [
        "e",
        -44.0
      ],
      [
        "ਦੇਸ਼",
        7.0
      ],
      [
        "క్రీ",
        -9.0
      ],
      [
        "उत्त",
        -11.0
      ],
      [
        "en",
        -35.0
      ],
      [
        "ਸਤਾਨ",
        6.0
      ],
      [
        "ాయి",
        -20.0
      ],
      [
        "मनु",
        -22.0
      ],
      [
        "became",
        4.0
      ],
      [
        "century",
        13.0
      ],
      [
        "हुई",
        -23.0
      ],
      [
        "ంలో",
        -21.0
      ],
      [
        "ਪ੍ਰਾ",
        5.0
      ],
      [
        "but",
        -28.0
      ],
      [
        "जाति",
        -14.0
      ],
      [
        "ఉన్న",
        -12.0
      ],
      [
        "ਹੋਇਆ",
        4.0
      ],
      [
        "m",
        -49.0
      ],
      [
        "दिया",
        -15.0
      ],
      [
        "అభివృద్ధి",
        37.0
      ],
      [
        "been",
        -20.0
      ],
      [
        "जाता",
        -16.0
      ],
      [
        "రు",
        -34.0
      ],
      [
        "ਸਥਾ",
        -7.0
      ],
      [
        "largest",
        9.0
      ],
      [
        "धान",
        -27.0
      ],
      [
        "ాడు",
        -25.0
      ],
      [
        "ਹਾਸ",
        -8.0
      ],
      [
        "also",
        -22.0
      ],
      [
        "इन",
        -38.0
      ],
      [
        "have",
        -23.0
      ],
      [
        "प्राचीन",
        11.0
      ],
      [
        "ਪਾਰ",
        -9.0
      ],
      [
        "శతాబ్దం",
        13.0
      ],
      [
        "most",
        -24.0
      ],
      [
        "लय",
        -40.0
      ],
      [
        "మొదటి",
        -8.0
      ],
      [
        "over",
        -25.0
      ],
      [
        "ਆਪ",
        -20.0
      ],
      [
        "बना",
        -31.0
      ],
      [
        "million",
        4.0
      ],
      [
        "इतिहा",
        -12.0
      ],
      [
        "ਗਰ",
        -21.0
      ],
      [
        "after",
        -17.0
      ],
      [
        "ులు",
        -30.0
      ],
      [
        "इतिहास",
        -3.0
      ],
      [
        "such",
        -28.0
      ],
      [
        "ఒక",
        -41.0
      ],
      [
        "ਤਰੀ",
        -12.0
      ],
      [
        "धर्म",
        -24.0
      ],
      [
        "l",
        -59.0
      ],
      [
        "ఉన్నాయి",
        8.0
      ],
      [
        "सार",
        -35.0
      ],
      [
        "system",
        -10.0
      ],
      [
        "ਪਰ",
        -23.0
      ],
      [
        "పాలన",
        -23.0
      ],
      [
        "पह",
        -46.0
      ],
      [
        "Congress",
        9.0
      ],
      [
        "ਤਕ",
        -24.0
      ],
      [
        "art",
        -42.0
      ],
      [
        "प्रदेश",
        -7.0
      ],
      [
        "స్",
        -45.0
      ],
      [
        "that",
        -33.0
      ],
      [
        "मध्य",
        -28.0
      ],
      [
        "ਭਿਅ",
        -15.0
      ],
      [
        "జిల్లా",
        -6.0
      ],
      [
        "South",
        -24.0
      ],
      [
        "निक",
        -39.0
      ],
      [
        "ਭਿਅਤਾ",
        4.0
      ],
      [
        "వారి",
        -27.0
      ],
      [
        "years",
        -25.0
      ],
      [
        "कह",
        -50.0
      ],
      [
        "లను",
        -38.0
      ],
      [
        "st",
        -56.0
      ],
      [
        "रिक",
        -41.0
      ],
      [
        "ਤੱਕ",
        -17.0
      ],
      [
        "ar",
        -57.0
      ],
      [
        "రాష్ట్ర",
        1.0
      ],
      [
        "यन",
        -52.0
      ],
      [
        "modern",
        -18.0
      ],
      [
        "ਲਈ",
        -28.0
      ],
      [
        "భారతదేశం",
        10.0
      ],
      [
        "देशों",
        -23.0
      ],
      [
        "more",
        -39.0
      ],
      [
        "కూడ",
        -41.0
      ],
      [
        "उत्तर",
        -24.0
      ],
      [
        "ਵਰ",
        -29.0
      ],
      [
        "A",
        -70.0
      ],
      [
        "వారు",
        -32.0
      ],
      [
        "इसी",
        -45.0
      ],
      [
        "k",
        -71.0
      ],
      [
        "ਚੀਨ",
        -20.0
      ],
      [
        "ిన",
        -53.0
      ],
      [
        "अनु",
        -46.0
      ],
      [
        "g",
        -72.0
      ],
      [
        "హిందూ",
        -24.0
      ],
      [
        "विक",
        -47.0
      ],
      [
        "n",
        -73.0
      ],
      [
        "ਜਨ",
        -31.0
      ],
      [
        "కాలంలో",
        -15.0
      ],
      [
        "सित",
        -48.0
      ],
      [
        "two",
        -54.0
      ],
      [
        "ਈਸ",
        -32.0
      ],
      [
        "అనే",
        -46.0
      ],
      [
        "राज्यों",
        -9.0
      ],
      [
        "f",
        -75.0
      ],
      [
        "ive",
        -56.0
      ],
      [
        "उप",
        -60.0
      ],
      [
        "జాతీయ",
        -27.0
      ],
      [
        "ਪਤ",
        -33.0
      ],
      [
        "both",
        -47.0
      ],
      [
        "विश्व",
        -31.0
      ],
      [
        "మంది",
        -38.0
      ],
      [
        "ਕਾਲ",
        -24.0
      ],
      [
        "prime",
        -38.0
      ],
      [
        "स्तान",
        -32.0
      ],
      [
        "జనాభా",
        -29.0
      ],
      [
        "BCE",
        -59.0
      ],
      [
        "लग",
        -63.0
      ],
      [
        "న్",
        -60.0
      ],
      [
        "ਇਤਿ",
        -25.0
      ],
      [
        "under",
        -40.0
      ],
      [
        "नहीं",
        -44.0
      ],
      [
        "బడింది",
        -21.0
      ],
      [
        "ਖਿਆ",
        -26.0
      ],
      [
        "Asia",
        -51.0
      ],
      [
        "सरकार",
        -35.0
      ],
      [
        "P",
        -82.0
      ],
      [
        "शिया",
        -46.0
      ],
      [
        "ਬਹੁ",
        -27.0
      ],
      [
        "di",
        -73.0
      ],
      [
        "लिए",
        -57.0
      ],
      [
        "రాజవంశం",
        -14.0
      ],
      [
        "caste",
        -44.0
      ],
      [
        "ਲਿਆ",
        -28.0
      ],
      [
        "अव",
        -68.0
      ],
      [
        "తూర్పు",
        -25.0
      ],
      [
        "British",
        -25.0
      ],
      [
        "उस",
        -69.0
      ],
      [
        "ਸ਼ਾਸਨ",
        -9.0
      ],
      [
        "Empire",
        -36.0
      ],
      [
        "పెద్ద",
        -36.0
      ],
      [
        "अंग्रे",
        -30.0
      ],
      [
        "their",
        -47.0
      ],
      [
        "పా",
        -67.0
      ],
      [
        "ਇਤਿਹਾਸ",
        0.0
      ],
      [
        "तिक",
        -61.0
      ],
      [
        "this",
        -58.0
      ],
      [
        "వి",
        -68.0
      ],
      [
        "क्षेत्र",
        -22.0
      ],
      [
        "all",
        -69.0
      ],
      [
        "ਵਲੋਂ",
        -21.0
      ],
      [
        "ిక",
        -69.0
      ],
      [
        "भूमि",
        -53.0
      ],
      [
        "ation",
        -50.0
      ],
      [
        "సా",
        -70.0
      ],
      [
        "ਪਹਿ",
        -32.0
      ],
      [
        "re",
        -81.0
      ],
      [
        "हिन्दी",
        -34.0
      ],
      [
        "population",
        -2.0
      ],
      [
        "वंश",
        -65.0
      ],
      [
        "ਸਭਿਅਤਾ",
        -3.0
      ],
      [
        "ent",
        -73.0
      ],
      [
        "कई",
        -76.0
      ],
      [
        "ਸ਼ਟ",
        -34.0
      ],
      [
        "ల్",
        -73.0
      ],
      [
        "form",
        -64.0
      ],
      [
        "अपने",
        -57.0
      ],
      [
        "ప్రపంచ",
        -34.0
      ],
      [
        "ions",
        -65.0
      ],
      [
        "इला",
        -68.0
      ],
      [
        "ਨ੍ਹਾਂ",
        -15.0
      ],
      [
        "minister",
        -26.0
      ],
      [
        "ఇతర",
        -65.0
      ],
      [
        "संस्कृ",
        -39.0
      ],
      [
        "language",
        -27.0
      ],
      [
        "ਦੱਖਣ",
        -26.0
      ],
      [
        "ఆయన",
        -66.0
      ],
      [
        "साम्रा",
        -40.0
      ],
      [
        "between",
        -38.0
      ],
      [
        "కాలం",
        -57.0
      ],
      [
        "उन",
        -81.0
      ],
      [
        "ਪਾਕਿ",
        -27.0
      ],
      [
        "Pakistan",
        -29.0
      ],
      [
        "ట్",
        -78.0
      ],
      [
        "सेना",
        -62.0
      ],
      [
        "large",
        -60.0
      ],
      [
        "ਰੂਪ",
        -38.0
      ],
      [
        "పేరు",
        -59.0
      ],
      [
        "अन्य",
        -63.0
      ],
      [
        "un",
        -91.0
      ],
      [
        "మైన",
        -70.0
      ],
      [
        "पुरा",
        -64.0
      ],
      [
        "per",
        -82.0
      ],
      [
        "ਸਦੀ",
        -39.0
      ],
      [
        "మూడ",
        -71.0
      ],
      [
        "मिल",
        -75.0
      ],
      [
        "began",
        -63.0
      ],
      [
        "ਰਾਸ਼ਟ",
        -20.0
      ],
      [
        "ప్ప",
        -72.0
      ],
      [
        "सद",
        -86.0
      ],
      [
        "western",
        -44.0
      ],
      [
        "T",
        -105.0
      ],
      [
        "पुत्र",
        -57.0
      ],
      [
        "ਈਸਵੀ",
        -31.0
      ],
      [
        "part",
        -76.0
      ],
      [
        "एशिया",
        -58.0
      ],
      [
        "ాలను",
        -64.0
      ],
      [
        "ਸਭ",
        -52.0
      ],
      [
        "many",
        -77.0
      ],
      [
        "शेष",
        -79.0
      ],
      [
        "ప్రాంత",
        -45.0
      ],
      [
        "economic",
        -38.0
      ],
      [
        "बहुत",
        -70.0
      ],
      [
        "చరిత్ర",
        -46.0
      ],
      [
        "ਪਾਕਿਸਤਾਨ",
        7.0
      ],
      [
        "dance",
        -69.0
      ],
      [
        "निर्मा",
        -51.0
      ],
      [
        "ాల",
        -87.0
      ],
      [
        "ਸ਼ੁਰੂ",
        -24.0
      ],
      [
        "It",
        -100.0
      ],
      [
        "द्वारा",
        -52.0
      ],
      [
        "సామ్రాజ్య",
        -18.0
      ],
      [
        "o",
        -111.0
      ],
      [
        "प्राप्त",
        -43.0
      ],
      [
        "ਕਈ",
        -55.0
      ],
      [
        "రాజ్యం",
        -49.0
      ],
      [
        "ion",
        -92.0
      ],
      [
        "गण",
        -94.0
      ],
      [
        "ప్రాంతాల",
        -30.0
      ],
      [
        "northern",
        -43.0
      ],
      [
        "ਸਮੇਂ",
        -36.0
      ],
      [
        "पाकि",
        -75.0
      ],
      [
        "j",
        -114.0
      ],
      [
        "पाकिस्तान",
        -26.0
      ],
      [
        "ਰਿਆ",
        -47.0
      ],
      [
        "later",
        -75.0
      ],
      [
        "భాష",
        -82.0
      ],
      [
        "इसके",
        -77.0
      ],
      [
        "ra",
        -106.0
      ],
      [
        "రైలు",
        -73.0
      ],
      [
        "ਸਾਲ",
        -48.0
      ],
      [
        "शता",
        -88.0
      ],
      [
        "led",
        -97.0
      ],
      [
        "చాలా",
        -74.0
      ],
      [
        "करने",
        -79.0
      ],
      [
        "ate",
        -98.0
      ],
      [
        "ਕੀਤੀ",
        -39.0
      ],
      [
        "ఉపఖండంలో",
        -35.0
      ],
      [
        "मुख",
        -90.0
      ],
      [
        "sh",
        -109.0
      ],
      [
        "రెండు",
        -66.0
      ],
      [
        "ਕਸ਼",
        -50.0
      ],
      [
        "urban",
        -80.0
      ],
      [
        "तंत्र",
        -71.0
      ],
      [
        "period",
        -71.0
      ],
      [
        "जिसमें",
        -62.0
      ],
      [
        "ਮਾਨ",
        -51.0
      ],
      [
        "దేశాల",
        -68.0
      ],
      [
        "subcontinent",
        -12.0
      ],
      [
        "कुछ",
        -93.0
      ],
      [
        "ਬਣਾ",
        -52.0
      ],
      [
        "దేశ",
        -89.0
      ],
      [
        "C",
        -123.0
      ],
      [
        "राजा",
        -84.0
      ],
      [
        "వంట",
        -90.0
      ],
      [
        "power",
        -84.0
      ],
      [
        "बंध",
        -95.0
      ],
      [
        "ਲਤ",
        -63.0
      ],
      [
        "south",
        -85.0
      ],
      [
        "ుల",
        -101.0
      ],
      [
        "पश्चि",
        -76.0
      ],
      [
        "up",
        -116.0
      ],
      [
        "ਆਰ",
        -64.0
      ],
      [
        "ుడు",
        -92.0
      ],
      [
        "समा",
        -97.0
      ],
      [
        "CE",
        -117.0
      ],
      [
        "मिला",
        -88.0
      ],
      [
        "ਗਲ",
        -65.0
      ],
      [
        "than",
        -98.0
      ],
      [
        "ముఖ్యమైన",
        -44.0
      ],
      [
        "शताब्दी",
        -59.0
      ],
      [
        "including",
        -49.0
      ],
      [
        "ਜਾਂਦਾ",
        -36.0
      ],
      [
        "నాటికి",
        -65.0
      ],
      [
        "प्रमुख",
        -70.0
      ],
      [
        "not",
        -110.0
      ],
      [
        "रहा",
        -101.0
      ],
      [
        "le",
        -121.0
      ],
      [
        "ਪਾਰਟੀ",
        -37.0
      ],
      [
        "స్థాపించ",
        -47.0
      ],
      [
        "होता",
        -92.0
      ],
      [
        "land",
        -102.0
      ],
      [
        "ਉੱਤਰ",
        -48.0
      ],
      [
        "చెందిన",
        -68.0
      ],
      [
        "षाण",
        -103.0
      ],
      [
        "After",
        -93.0
      ],
      [
        "By",
        -124.0
      ],
      [
        "अधिक",
        -94.0
      ],
      [
        "దేశం",
        -89.0
      ],
      [
        "ਨਿਕ",
        -59.0
      ],
      [
        "non",
        -115.0
      ],
      [
        "हथि",
        -105.0
      ],
      [
        "సిక్కు",
        -70.0
      ],
      [
        "ਕਤ",
        -70.0
      ],
      [
        "pre",
        -116.0
      ],
      [
        "हथिया",
        -86.0
      ],
      [
        "నే",
        -111.0
      ],
      [
        "em",
        -127.0
      ],
      [
        "द्वीप",
        -87.0
      ],
      [
        "ల్ల",
        -102.0
      ],
      [
        "ਹੋਈ",
        -61.0
      ],
      [
        "os",
        -128.0
      ],
      [
        "गर",
        -118.0
      ],
      [
        "లలో",
        -103.0
      ],
      [
        "ਗਈ",
        -72.0
      ],
      [
        "among",
        -99.0
      ],
      [
        "स्वतंत्र",
        -59.0
      ],
      [
        "చెంద",
        -94.0
      ],
      [
        "economy",
        -80.0
      ],
      [
        "करो",
        -110.0
      ],
      [
        "ਦੇਸ਼ਾਂ",
        -33.0
      ],
      [
        "life",
        -111.0
      ],
      [
        "गई",
        -121.0
      ],
      [
        "సమయం",
        -96.0
      ],
      [
        "increased",
        -62.0
      ],
      [
        "ਪ੍ਰਾਚੀਨ",
        -24.0
      ],
      [
        "अनुसार",
        -82.0
      ],
      [
        "రెండ",
        -97.0
      ],
      [
        "since",
        -103.0
      ],
      [
        "पहले",
        -103.0
      ],
      [
        "ਭਾਸ਼ਾ",
        -45.0
      ],
      [
        "rate",
        -114.0
      ],
      [
        "పాలా",
        -98.0
      ],
      [
        "पूर्ण",
        -94.0
      ],
      [
        "mar",
        -125.0
      ],
      [
        "నాటి",
        -99.0
      ],
      [
        "ਨਹੀਂ",
        -56.0
      ],
      [
        "भग",
        -125.0
      ],
      [
        "classical",
        -66.0
      ],
      [
        "ప్రాంతం",
        -70.0
      ],
      [
        "ताम्र",
        -96.0
      ],
      [
        "new",
        -127.0
      ],
      [
        "ਮੱਧ",
        -67.0
      ],
      [
        "ప్రధాన",
        -81.0
      ],
      [
        "परि",
        -117.0
      ],
      [
        "Hindu",
        -108.0
      ],
      [
        "భావిస్తున్న",
        -32.0
      ],
      [
        "ਬਦੀ",
        -68.0
      ],
      [
        "north",
        -109.0
      ],
      [
        "सिन्धु",
        -88.0
      ],
      [
        "బ్రిటిష",
        -73.0
      ],
      [
        "rule",
        -120.0
      ],
      [
        "कहते",
        -109.0
      ],
      [
        "ਕਤੀ",
        -69.0
      ],
      [
        "మొత్త",
        -94.0
      ],
      [
        "ad",
        -141.0
      ],
      [
        "सुमे",
        -110.0
      ],
      [
        "ਹੋਏ",
        -70.0
      ],
      [
        "బెంగాలు",
        -75.0
      ],
      [
        "people",
        -102.0
      ],
      [
        "पर्व",
        -111.0
      ],
      [
        "పశ్చిమ",
        -86.0
      ],
      [
        "v",
        -153.0
      ],
      [
        "चार",
        -122.0
      ],
      [
        "ਗਰੇ",
        -71.0
      ],
      [
        "end",
        -134.0
      ],
      [
        "తెలుగు",
        -87.0
      ],
      [
        "साम्राज्य",
        -63.0
      ],
      [
        "r",
        -155.0
      ],
      [
        "ਨਾਮ",
        -72.0
      ],
      [
        "కా",
        -128.0
      ],
      [
        "विज",
        -124.0
      ],
      [
        "state",
        -116.0
      ],
      [
        "ైన",
        -129.0
      ],
      [
        "व्यव",
        -115.0
      ],
      [
        "ਉਸ",
        -83.0
      ],
      [
        "ers",
        -137.0
      ],
      [
        "राष्ट्र",
        -86.0
      ],
      [
        "species",
        -98.0
      ],
      [
        "ਗਣ",
        -84.0
      ],
      [
        "రాజ",
        -121.0
      ],
      [
        "केंद्र",
        -97.0
      ],
      [
        "ch",
        -149.0
      ],
      [
        "న్న",
        -122.0
      ],
      [
        "रत",
        -138.0
      ],
      [
        "them",
        -130.0
      ],
      [
        "ਦੱਖਣੀ",
        -55.0
      ],
      [
        "కేంద్ర",
        -93.0
      ],
      [
        "पाषाण",
        -109.0
      ],
      [
        "se",
        -151.0
      ],
      [
        "ਸੰਸ",
        -76.0
      ],
      [
        "చిన్న",
        -104.0
      ],
      [
        "आर्य",
        -120.0
      ],
      [
        "social",
        -112.0
      ],
      [
        "ine",
        -143.0
      ],
      [
        "बीच",
        -131.0
      ],
      [
        "ర్",
        -135.0
      ],
      [
        "ਕ੍ਰਿ",
        -67.0
      ],
      [
        "long",
        -134.0
      ],
      [
        "क्रम",
        -122.0
      ],
      [
        "పాలించ",
        -96.0
      ],
      [
        "ਅਨ",
        -88.0
      ],
      [
        "used",
        -135.0
      ],
      [
        "कारण",
        -123.0
      ],
      [
        "్య",
        -137.0
      ],
      [
        "Ch",
        -156.0
      ],
      [
        "कृषि",
        -124.0
      ],
      [
        "ద్ద",
        -128.0
      ],
      [
        "ਹਿੰਦੂ",
        -59.0
      ],
      [
        "general",
        -107.0
      ],
      [
        "बड़ी",
        -125.0
      ],
      [
        "మొఘల",
        -119.0
      ],
      [
        "ਦਿੱਤਾ",
        -60.0
      ],
      [
        "number",
        -118.0
      ],
      [
        "जाती",
        -126.0
      ],
      [
        "ంత",
        -140.0
      ],
      [
        "US",
        -159.0
      ],
      [
        "दश",
        -147.0
      ],
      [
        "ਸਾਮ",
        -81.0
      ],
      [
        "కురు",
        -121.0
      ],
      [
        "nuclear",
        -110.0
      ],
      [
        "लोक",
        -138.0
      ],
      [
        "మిలియన్ల",
        -82.0
      ],
      [
        "region",
        -121.0
      ],
      [
        "ਰਾਜਾਂ",
        -62.0
      ],
      [
        "अन्त",
        -129.0
      ],
      [
        "గొ",
        -143.0
      ],
      [
        "one",
        -152.0
      ],
      [
        "देव",
        -140.0
      ],
      [
        "ਵਿਚ",
        -83.0
      ],
      [
        "id",
        -163.0
      ],
      [
        "అతి",
        -134.0
      ],
      [
        "लगभग",
        -131.0
      ],
      [
        "Mughal",
        -124.0
      ],
      [
        "ఆధునిక",
        -105.0
      ],
      [
        "ਰਤ",
        -94.0
      ],
      [
        "निर्माण",
        -102.0
      ],
      [
        "u",
        -175.0
      ],
      [
        "మహా",
        -136.0
      ],
      [
        "मन",
        -153.0
      ],
      [
        "Punjab",
        -126.0
      ],
      [
        "ਕਸ਼ਮੀ",
        -65.0
      ],
      [
        "రాజు",
        -127.0
      ],
      [
        "तर",
        -154.0
      ],
      [
        "Indo",
        -147.0
      ],
      [
        "ముస్లిం",
        -98.0
      ],
      [
        "ਸਮ",
        -96.0
      ],
      [
        "ur",
        -168.0
      ],
      [
        "विका",
        -135.0
      ],
      [
        "రవ",
        -149.0
      ],
      [
        "w",
        -179.0
      ],
      [
        "संघ",
        -146.0
      ],
      [
        "ਅੰਗਰੇ",
        -67.0
      ],
      [
        "ప్రస్తుత",
        -90.0
      ],
      [
        "ts",
        -170.0
      ],
      [
        "विधान",
        -127.0
      ],
      [
        "ਕਾਂਗਰ",
        -68.0
      ],
      [
        "పాత్ర",
        -121.0
      ],
      [
        "ment",
        -151.0
      ],
      [
        "शक्ति",
        -128.0
      ],
      [
        "దేశంలో",
        -112.0
      ],
      [
        "Sanskrit",
        -112.0
      ],
      [
        "चुना",
        -139.0
      ],
      [
        "ਜ਼ਾਦੀ",
        -69.0
      ],
      [
        "ical",
        -153.0
      ],
      [
        "నది",
        -143.0
      ],
      [
        "प्रसि",
        -130.0
      ],
      [
        "China",
        -144.0
      ],
      [
        "ਵੱਲ",
        -90.0
      ],
      [
        "ప్రభుత్వం",
        -84.0
      ],
      [
        "माइ",
        -151.0
      ],
      [
        "dis",
        -165.0
      ],
      [
        "మార్గాల",
        -105.0
      ],
      [
        "माइट",
        -142.0
      ],
      [
        "ਉਪ",
        -101.0
      ],
      [
        "caused",
        -136.0
      ],
      [
        "ించారు",
        -116.0
      ],
      [
        "मैदा",
        -143.0
      ],
      [
        "river",
        -147.0
      ],
      [
        "ਦੀਪ",
        -92.0
      ],
      [
        "स्थाप",
        -134.0
      ],
      [
        "country",
        -128.0
      ],
      [
        "సరిహద్దు",
        -98.0
      ],
      [
        "व्यवस्था",
        -105.0
      ],
      [
        "ide",
        -169.0
      ],
      [
        "ਸਮਾ",
        -93.0
      ],
      [
        "ప్పటికీ",
        -109.0
      ],
      [
        "करोड़",
        -136.0
      ],
      [
        "her",
        -170.0
      ],
      [
        "ਸਹਿ",
        -94.0
      ],
      [
        "మార",
        -150.0
      ],
      [
        "बढ़",
        -157.0
      ],
      [
        "served",
        -141.0
      ],
      [
        "millennium",
        -102.0
      ],
      [
        "प्रति",
        -138.0
      ],
      [
        "నా",
        -161.0
      ],
      [
        "ਰਾਸ਼ਟਰ",
        -65.0
      ],
      [
        "languages",
        -113.0
      ],
      [
        "गए",
        -169.0
      ],
      [
        "యుగ",
        -152.0
      ],
      [
        "ਹਮ",
        -106.0
      ],
      [
        "Bengal",
        -144.0
      ],
      [
        "तीस",
        -160.0
      ],
      [
        "ముఖ్య",
        -133.0
      ],
      [
        "B",
        -195.0
      ],
      [
        "प्रथ",
        -151.0
      ],
      [
        "సం",
        -164.0
      ],
      [
        "ਵੈਦਿ",
        -87.0
      ],
      [
        "who",
        -176.0
      ],
      [
        "प्रथम",
        -142.0
      ],
      [
        "ਵੈਦਿਕ",
        -78.0
      ],
      [
        "h",
        -197.0
      ],
      [
        "हर",
        -173.0
      ],
      [
        "పరి",
        -156.0
      ],
      [
        "some",
        -168.0
      ],
      [
        "विकसित",
        -134.0
      ],
      [
        "ਸ਼ਤਾ",
        -89.0
      ],
      [
        "యుద్ధం",
        -127.0
      ],
      [
        "ated",
        -169.0
      ],
      [
        "वैदि",
        -155.0
      ],
      [
        "త్య",
        -158.0
      ],
      [
        "centuries",
        -120.0
      ],
      [
        "ਸਰਕਾਰ",
        -80.0
      ],
      [
        "वैदिक",
        -146.0
      ],
      [
        "ాణా",
        -159.0
      ],
      [
        "major",
        -161.0
      ],
      [
        "स्थान",
        -147.0
      ],
      [
        "ਲੋਕ",
        -101.0
      ],
      [
        "ul",
        -192.0
      ],
      [
        "చాళుక్య",
        -120.0
      ],
      [
        "उन्हें",
        -138.0
      ],
      [
        "culture",
        -143.0
      ],
      [
        "ఇండియా",
        -131.0
      ],
      [
        "ਪੱਛ",
        -102.0
      ],
      [
        "भाषाओं",
        -139.0
      ],
      [
        "N",
        -204.0
      ],
      [
        "అధికారిక",
        -112.0
      ],
      [
        "भाई",
        -170.0
      ],
      [
        "east",
        -175.0
      ],
      [
        "ਅਰ",
        -113.0
      ],
      [
        "వ్యవస్థ",
        -123.0
      ],
      [
        "ष्ट्रीय",
        -131.0
      ],
      [
        "through",
        -146.0
      ],
      [
        "ఉద్యమం",
        -134.0
      ],
      [
        "ਆਦਿ",
        -104.0
      ],
      [
        "Indus",
        -167.0
      ],
      [
        "संविधान",
        -132.0
      ],
      [
        "కొన్ని",
        -135.0
      ],
      [
        "E",
        -208.0
      ],
      [
        "प्रधान",
        -143.0
      ],
      [
        "ਸ਼ਨ",
        -105.0
      ],
      [
        "విశ్వవిద్యాలయం",
        -56.0
      ],
      [
        "F",
        -209.0
      ],
      [
        "मंत्री",
        -144.0
      ],
      [
        "ਕਰਨ",
        -106.0
      ],
      [
        "శక్తి",
        -147.0
      ],
      [
        "ap",
        -200.0
      ],
      [
        "आर्थि",
        -155.0
      ],
      [
        "ఇక్కడ",
        -148.0
      ],
      [
        "no",
        -201.0
      ],
      [
        "आर्थिक",
        -146.0
      ],
      [
        "ਜੀਵ",
        -107.0
      ],
      [
        "age",
        -192.0
      ],
      [
        "కొత్త",
        -149.0
      ],
      [
        "बर",
        -187.0
      ],
      [
        "ies",
        -193.0
      ],
      [
        "ਮਿਲ",
        -108.0
      ],
      [
        "तट",
        -188.0
      ],
      [
        "military",
        -144.0
      ],
      [
        "స్థానంలో",
        -121.0
      ],
      [
        "पति",
        -179.0
      ],
      [
        "ਜੋੜ",
        -109.0
      ],
      [
        "res",
        -195.0
      ],
      [
        "प्रिय",
        -160.0
      ],
      [
        "ter",
        -196.0
      ],
      [
        "ਭਗ",
        -120.0
      ],
      [
        "వేద",
        -173.0
      ],
      [
        "प्रसिद्ध",
        -131.0
      ],
      [
        "majority",
        -147.0
      ],
      [
        "ప్రాంతాలు",
        -114.0
      ],
      [
        "सरस्व",
        -162.0
      ],
      [
        "ics",
        -198.0
      ],
      [
        "ਹਾਲਾਂ",
        -91.0
      ],
      [
        "తన",
        -185.0
      ],
      [
        "सरस्वती",
        -143.0
      ],
      [
        "rural",
        -179.0
      ],
      [
        "ਹਾਲਾਂਕਿ",
        -72.0
      ],
      [
        "సంస్కృతి",
        -126.0
      ],
      [
        "इलामाइट",
        -144.0
      ],
      [
        "billion",
        -160.0
      ],
      [
        "music",
        -181.0
      ],
      [
        "गणराज्य",
        -145.0
      ],
      [
        "అయిన",
        -167.0
      ],
      [
        "ਪਰਮਾ",
        -103.0
      ],
      [
        "election",
        -152.0
      ],
      [
        "जब",
        -196.0
      ],
      [
        "చక్రవర్త",
        -128.0
      ],
      [
        "ਆਦਾ",
        -114.0
      ],
      [
        "S",
        -223.0
      ],
      [
        "अर",
        -197.0
      ],
      [
        "వాణిజ్య",
        -139.0
      ],
      [
        "East",
        -194.0
      ],
      [
        "लीन",
        -188.0
      ],
      [
        "రాజ్యాలు",
        -130.0
      ],
      [
        "ਸ਼ਤਾਬਦੀ",
        -75.0
      ],
      [
        "Delhi",
        -185.0
      ],
      [
        "बन",
        -199.0
      ],
      [
        "ఇండ",
        -181.0
      ],
      [
        "ਫਲ",
        -126.0
      ],
      [
        "early",
        -186.0
      ],
      [
        "नदी",
        -190.0
      ],
      [
        "కాల",
        -182.0
      ],
      [
        "areas",
        -187.0
      ],
      [
        "मत",
        -201.0
      ],
      [
        "ਕਾਂਗਰਸ",
        -87.0
      ],
      [
        "తీస",
        -183.0
      ],
      [
        "time",
        -198.0
      ],
      [
        "आदि",
        -192.0
      ],
      [
        "im",
        -219.0
      ],
      [
        "ਸੰਘ",
        -118.0
      ],
      [
        "आधु",
        -193.0
      ],
      [
        "ిత",
        -195.0
      ],
      [
        "political",
        -150.0
      ],
      [
        "आधुनिक",
        -164.0
      ],
      [
        "ਅਗ",
        -129.0
      ],
      [
        "religious",
        -151.0
      ],
      [
        "ఆసియా",
        -166.0
      ],
      [
        "मनुष्य",
        -165.0
      ],
      [
        "out",
        -212.0
      ],
      [
        "ప్రజల",
        -167.0
      ],
      [
        "ਪੂਰਣ",
        -110.0
      ],
      [
        "नव",
        -206.0
      ],
      [
        "World",
        -193.0
      ],
      [
        "ఎక్కువ",
        -158.0
      ],
      [
        "माना",
        -187.0
      ],
      [
        "war",
        -214.0
      ],
      [
        "ਪੁੱਤਰ",
        -101.0
      ],
      [
        "మహబూబ్నగర్",
        -119.0
      ],
      [
        "लोगों",
        -178.0
      ],
      [
        "central",
        -175.0
      ],
      [
        "రాజకీయ",
        -160.0
      ],
      [
        "ਬਾਦੀ",
        -112.0
      ],
      [
        "made",
        -206.0
      ],
      [
        "नेतृ",
        -189.0
      ],
      [
        "బ్రిటీషు",
        -141.0
      ],
      [
        "able",
        -207.0
      ],
      [
        "नेतृत्व",
        -160.0
      ],
      [
        "ਮਹਾ",
        -123.0
      ],
      [
        "మద్య",
        -182.0
      ],
      [
        "emerged",
        -178.0
      ],
      [
        "भाग",
        -201.0
      ],
      [
        "ਪਹਿਲਾਂ",
        -94.0
      ],
      [
        "తొల",
        -193.0
      ],
      [
        "Company",
        -179.0
      ],
      [
        "काम",
        -202.0
      ],
      [
        "బెంగాల్",
        -154.0
      ],
      [
        "ity",
        -220.0
      ],
      [
        "राष्ट्रीय",
        -143.0
      ],
      [
        "ਮਹਾਂ",
        -115.0
      ],
      [
        "ro",
        -231.0
      ],
      [
        "నాగరికత",
        -155.0
      ],
      [
        "ग्रेस",
        -184.0
      ],
      [
        "women",
        -202.0
      ],
      [
        "ਸੰਸਕ੍ਰਿ",
        -86.0
      ],
      [
        "చేరుకు",
        -166.0
      ],
      [
        "युद्ध",
        -185.0
      ],
      [
        "human",
        -203.0
      ],
      [
        "దారి",
        -187.0
      ],
      [
        "दशक",
        -206.0
      ],
      [
        "ਉੱਤਰੀ",
        -107.0
      ],
      [
        "co",
        -234.0
      ],
      [
        "ఉండే",
        -188.0
      ],
      [
        "चुनावों",
        -167.0
      ],
      [
        "ied",
        -225.0
      ],
      [
        "ਜੈਨ",
        -128.0
      ],
      [
        "మహారాజ",
        -169.0
      ],
      [
        "योग",
        -208.0
      ],
      [
        "following",
        -166.0
      ],
      [
        "యుగం",
        -190.0
      ],
      [
        "गल",
        -219.0
      ],
      [
        "Indians",
        -187.0
      ],
      [
        "ਗਏ",
        -139.0
      ],
      [
        "వీరు",
        -191.0
      ],
      [
        "दृष्टि",
        -180.0
      ],
      [
        "Hinduism",
        -178.0
      ],
      [
        "ਸਤ",
        -140.0
      ],
      [
        "శ్చ",
        -202.0
      ],
      [
        "संख्या",
        -181.0
      ],
      [
        "include",
        -189.0
      ],
      [
        "sub",
        -230.0
      ],
      [
        "पश्चिम",
        -182.0
      ],
      [
        "యుద్ధంలో",
        -153.0
      ],
      [
        "ਦੁਆ",
        -131.0
      ],
      [
        "third",
        -211.0
      ],
      [
        "रहे",
        -213.0
      ],
      [
        "మత",
        -214.0
      ],
      [
        "ਦੁਆਰਾ",
        -112.0
      ],
      [
        "growth",
        -202.0
      ],
      [
        "प्रार",
        -194.0
      ],
      [
        "ంట",
        -215.0
      ],
      [
        "fl",
        -243.0
      ],
      [
        "स्थापना",
        -175.0
      ],
      [
        "సైనిక",
        -186.0
      ],
      [
        "ਸ਼ਾਲੀ",
        -113.0
      ],
      [
        "party",
        -214.0
      ],
      [
        "संस्कृति",
        -166.0
      ],
      [
        "పాల",
        -207.0
      ],
      [
        "ਲਗ",
        -144.0
      ],
      [
        "states",
        -205.0
      ],
      [
        "धीरे",
        -207.0
      ],
      [
        "ప్రాంతాలలో",
        -138.0
      ],
      [
        "Muslim",
        -206.0
      ],
      [
        "लन",
        -228.0
      ],
      [
        "ਕਸ਼ਮੀਰ",
        -105.0
      ],
      [
        "ప్ర",
        -209.0
      ],
      [
        "R",
        -257.0
      ],
      [
        "जिन",
        -219.0
      ],
      [
        "న్ని",
        -200.0
      ],
      [
        "ago",
        -238.0
      ],
      [
        "ਜਿਨ੍ਹਾਂ",
        -96.0
      ],
      [
        "वर्त",
        -210.0
      ],
      [
        "చివరి",
        -191.0
      ],
      [
        "am",
        -249.0
      ],
      [
        "स्वतंत्रता",
        -151.0
      ],
      [
        "ਤੀਆਂ",
        -127.0
      ],
      [
        "there",
        -220.0
      ],
      [
        "మరణ",
        -212.0
      ],
      [
        "विकास",
        -202.0
      ],
      [
        "V",
        -261.0
      ],
      [
        "అన",
        -223.0
      ],
      [
        "ਭਾਗ",
        -138.0
      ],
      [
        "स्तर",
        -213.0
      ],
      [
        "they",
        -232.0
      ],
      [
        "ొట్ట",
        -204.0
      ],
      [
        "सैन्य",
        -204.0
      ],
      [
        "west",
        -233.0
      ],
      [
        "ਰਹੇ",
        -139.0
      ],
      [
        "భూభాగ",
        -195.0
      ],
      [
        "फल",
        -235.0
      ],
      [
        "Gandhi",
        -214.0
      ],
      [
        "విస్తరించింద",
        -126.0
      ],
      [
        "ਸ਼ਕਤੀ",
        -120.0
      ],
      [
        "Central",
        -205.0
      ],
      [
        "जल",
        -236.0
      ],
      [
        "ట్ట",
        -217.0
      ],
      [
        "ag",
        -256.0
      ],
      [
        "स्थानों",
        -187.0
      ],
      [
        "ਸਾਰ",
        -141.0
      ],
      [
        "క్",
        -228.0
      ],
      [
        "regions",
        -207.0
      ],
      [
        "कॉंग्रेस",
        -178.0
      ],
      [
        "ਉਣ",
        -152.0
      ],
      [
        "ాటు",
        -219.0
      ],
      [
        "control",
        -208.0
      ],
      [
        "कार्य",
        -209.0
      ],
      [
        "స్త",
        -220.0
      ],
      [
        "ations",
        -219.0
      ],
      [
        "कुल",
        -230.0
      ],
      [
        "ਪਰਮਾਣੁ",
        -113.0
      ],
      [
        "based",
        -230.0
      ],
      [
        "యం",
        -231.0
      ],
      [
        "लोग",
        -231.0
      ],
      [
        "European",
        -201.0
      ],
      [
        "ਤਵ",
        -154.0
      ],
      [
        "జి",
        -232.0
      ],
      [
        "जनजाति",
        -202.0
      ],
      [
        "ary",
        -252.0
      ],
      [
        "లకు",
        -223.0
      ],
      [
        "मिया",
        -223.0
      ],
      [
        "ਗਣਰਾਜ",
        -125.0
      ],
      [
        "second",
        -223.0
      ],
      [
        "కొ",
        -234.0
      ],
      [
        "प्रोटो",
        -204.0
      ],
      [
        "high",
        -244.0
      ],
      [
        "ਵੱਧ",
        -146.0
      ],
      [
        "అల",
        -235.0
      ],
      [
        "उर",
        -245.0
      ],
      [
        "av",
        -265.0
      ],
      [
        "శతాబ్దాల",
        -176.0
      ],
      [
        "पर्वत",
        -216.0
      ],
      [
        "United",
        -226.0
      ],
      [
        "ਭਿੰਨ",
        -137.0
      ],
      [
        "చేస",
        -227.0
      ],
      [
        "अरब",
        -237.0
      ],
      [
        "ancient",
        -217.0
      ],
      [
        "ਸਥਿ",
        -148.0
      ],
      [
        "ప్రాంతంలో",
        -168.0
      ],
      [
        "पार",
        -238.0
      ],
      [
        "Ganges",
        -228.0
      ],
      [
        "ered",
        -249.0
      ],
      [
        "लिया",
        -229.0
      ],
      [
        "ప్రభుత్వ",
        -179.0
      ],
      [
        "ਈਸਾ",
        -149.0
      ],
      [
        "constitution",
        -170.0
      ],
      [
        "ब्रिटि",
        -210.0
      ],
      [
        "పె",
        -240.0
      ],
      [
        "ਪੁਰਾ",
        -140.0
      ],
      [
        "Its",
        -261.0
      ],
      [
        "ब्रिटिश",
        -201.0
      ],
      [
        "రాజ్యాల",
        -191.0
      ],
      [
        "Nehru",
        -242.0
      ],
      [
        "अर्थ",
        -232.0
      ],
      [
        "ధీనం",
        -222.0
      ],
      [
        "ਤਮ",
        -161.0
      ],
      [
        "There",
        -243.0
      ],
      [
        "सक",
        -253.0
      ],
      [
        "రాజ్య",
        -213.0
      ],
      [
        "ਲਤਨ",
        -152.0
      ],
      [
        "ors",
        -264.0
      ],
      [
        "परमा",
        -234.0
      ],
      [
        "పై",
        -244.0
      ],
      [
        "especially",
        -195.0
      ],
      [
        "परमाणु",
        -215.0
      ],
      [
        "ਬ੍ਰਿ",
        -143.0
      ],
      [
        "ించిన",
        -215.0
      ],
      [
        "local",
        -246.0
      ],
      [
        "परा",
        -246.0
      ],
      [
        "గుప్త",
        -216.0
      ],
      [
        "year",
        -257.0
      ],
      [
        "ਲੀਆਂ",
        -144.0
      ],
      [
        "लित",
        -247.0
      ],
      [
        "జాబితా",
        -207.0
      ],
      [
        "As",
        -278.0
      ],
      [
        "मह",
        -258.0
      ],
      [
        "ਰਿਹਾ",
        -145.0
      ],
      [
        "our",
        -269.0
      ],
      [
        "తర్వాత",
        -208.0
      ],
      [
        "हरी",
        -249.0
      ],
      [
        "grew",
        -260.0
      ],
      [
        "ప్రసిద్ధ",
        -189.0
      ],
      [
        "ਆਮ",
        -166.0
      ],
      [
        "दोनों",
        -230.0
      ],
      [
        "Constitution",
        -181.0
      ],
      [
        "రాష్ట్రకూట",
        -170.0
      ],
      [
        "स्थापि",
        -221.0
      ],
      [
        "ty",
        -282.0
      ],
      [
        "ਮਤ",
        -167.0
      ],
      [
        "విస్తరణ",
        -201.0
      ],
      [
        "स्थापित",
        -212.0
      ],
      [
        "census",
        -243.0
      ],
      [
        "సముద్ర",
        -212.0
      ],
      [
        "ਪ੍ਰਾਪਤ",
        -128.0
      ],
      [
        "me",
        -284.0
      ],
      [
        "ओर",
        -263.0
      ],
      [
        "చోళుడు",
        -213.0
      ],
      [
        "ative",
        -255.0
      ],
      [
        "बार",
        -254.0
      ],
      [
        "ਵੰਸ਼",
        -149.0
      ],
      [
        "గణ",
        -254.0
      ],
      [
        "diversity",
        -216.0
      ],
      [
        "सफल",
        -255.0
      ],
      [
        "ਵਿਚਕਾਰ",
        -130.0
      ],
      [
        "దాడి",
        -235.0
      ],
      [
        "literacy",
        -227.0
      ],
      [
        "अंग्रेजी",
        -206.0
      ],
      [
        "వాతా",
        -236.0
      ],
      [
        "religions",
        -218.0
      ],
      [
        "लिये",
        -247.0
      ],
      [
        "ਜਦੋਂ",
        -151.0
      ],
      [
        "English",
        -239.0
      ],
      [
        "ఇవి",
        -247.0
      ],
      [
        "प्रधानमंत्री",
        -168.0
      ],
      [
        "fast",
        -270.0
      ],
      [
        "ਸਾਰਾ",
        -152.0
      ],
      [
        "ంచి",
        -248.0
      ],
      [
        "गठ",
        -269.0
      ],
      [
        "rates",
        -261.0
      ],
      [
        "స్వా",
        -239.0
      ],
      [
        "साल",
        -260.0
      ],
      [
        "ਬੰਧ",
        -163.0
      ],
      [
        "parliamentary",
        -182.0
      ],
      [
        "సుమారు",
        -220.0
      ],
      [
        "वर्षों",
        -231.0
      ],
      [
        "Hindi",
        -263.0
      ],
      [
        "ਅਜ਼ਾਦੀ",
        -134.0
      ],
      [
        "హిందువులు",
        -191.0
      ],
      [
        "न्याया",
        -232.0
      ],
      [
        "BJP",
        -284.0
      ],
      [
        "ఒకటి",
        -242.0
      ],
      [
        "अभि",
        -263.0
      ],
      [
        "L",
        -305.0
      ],
      [
        "ਵਾਈ",
        -165.0
      ],
      [
        "వార",
        -253.0
      ],
      [
        "अमे",
        -264.0
      ],
      [
        "well",
        -276.0
      ],
      [
        "ਕਾਰਨ",
        -156.0
      ],
      [
        "రాజులు",
        -224.0
      ],
      [
        "लर",
        -275.0
      ],
      [
        "other",
        -267.0
      ],
      [
        "el",
        -298.0
      ],
      [
        "अत्य",
        -256.0
      ],
      [
        "ట్ల",
        -255.0
      ],
      [
        "ਸਿਆ",
        -167.0
      ],
      [
        "During",
        -259.0
      ],
      [
        "पुरात",
        -247.0
      ],
      [
        "ఉన్నారు",
        -216.0
      ],
      [
        "ਠਜੋੜ",
        -158.0
      ],
      [
        "ian",
        -290.0
      ],
      [
        "सुमेरू",
        -238.0
      ],
      [
        "క్ష",
        -257.0
      ],
      [
        "southern",
        -241.0
      ],
      [
        "प्रलय",
        -249.0
      ],
      [
        "లుగు",
        -248.0
      ],
      [
        "ਗੂਗਲ",
        -159.0
      ],
      [
        "movement",
        -242.0
      ],
      [
        "हिन्दू",
        -240.0
      ],
      [
        "మధ్యకాలం",
        -209.0
      ],
      [
        "ਪੁਸ",
        -170.0
      ],
      [
        "Buddhism",
        -243.0
      ],
      [
        "एवं",
        -271.0
      ],
      [
        "ప్రారంభ",
        -220.0
      ],
      [
        "est",
        -294.0
      ],
      [
        "समाज",
        -262.0
      ],
      [
        "ਪੁਸਤਕ",
        -151.0
      ],
      [
        "మతం",
        -261.0
      ],
      [
        "eastern",
        -255.0
      ],
      [
        "लगा",
        -273.0
      ],
      [
        "రా",
        -272.0
      ],
      [
        "found",
        -276.0
      ],
      [
        "ਅਧਿ",
        -172.0
      ],
      [
        "पंजा",
        -264.0
      ],
      [
        "కలిగి",
        -243.0
      ],
      [
        "day",
        -297.0
      ],
      [
        "डिया",
        -265.0
      ],
      [
        "ਆਪਣੀ",
        -163.0
      ],
      [
        "Western",
        -258.0
      ],
      [
        "ాగే",
        -264.0
      ],
      [
        "दर",
        -286.0
      ],
      [
        "ant",
        -299.0
      ],
      [
        "లీ",
        -275.0
      ],
      [
        "ਪੱਛਮ",
        -164.0
      ],
      [
        "गति",
        -277.0
      ],
      [
        "ol",
        -310.0
      ],
      [
        "పో",
        -276.0
      ],
      [
        "साम",
        -278.0
      ],
      [
        "ac",
        -311.0
      ],
      [
        "ਦਰੀ",
        -175.0
      ],
      [
        "जीव",
        -279.0
      ],
      [
        "ally",
        -292.0
      ],
      [
        "చేసుకున",
        -228.0
      ],
      [
        "ਆਧੁ",
        -176.0
      ],
      [
        "il",
        -313.0
      ],
      [
        "परं",
        -280.0
      ],
      [
        "తా",
        -279.0
      ],
      [
        "off",
        -304.0
      ],
      [
        "महत्व",
        -261.0
      ],
      [
        "ਆਧੁਨਿਕ",
        -147.0
      ],
      [
        "వాణిజ్యం",
        -220.0
      ],
      [
        "ā",
        -325.0
      ],
      [
        "तम",
        -292.0
      ],
      [
        "ਮਹਾਂਦੀਪ",
        -138.0
      ],
      [
        "సంస్కృత",
        -231.0
      ],
      [
        "tr",
        -316.0
      ],
      [
        "अवशेष",
        -263.0
      ],
      [
        "ండ",
        -282.0
      ],
      [
        "ure",
        -307.0
      ],
      [
        "दय",
        -294.0
      ],
      [
        "ਸ਼ੁਰੂਆ",
        -149.0
      ],
      [
        "All",
        -308.0
      ],
      [
        "ఆఫ్",
        -273.0
      ],
      [
        "अपना",
        -275.0
      ],
      [
        "ist",
        -309.0
      ],
      [
        "ਕਾਲੀ",
        -170.0
      ],
      [
        "ఏర్ప",
        -264.0
      ],
      [
        "न्होंने",
        -246.0
      ],
      [
        "ge",
        -320.0
      ],
      [
        "బౌద్ధ",
        -255.0
      ],
      [
        "क्षेत्री",
        -237.0
      ],
      [
        "ਆਪਣੇ",
        -171.0
      ],
      [
        "sp",
        -321.0
      ],
      [
        "చిహ్నం",
        -246.0
      ],
      [
        "क्षेत्रीय",
        -228.0
      ],
      [
        "According",
        -252.0
      ],
      [
        "ਸਾਮਰਾਜ",
        -152.0
      ],
      [
        "భారత్",
        -257.0
      ],
      [
        "सह",
        -299.0
      ],
      [
        "National",
        -263.0
      ],
      [
        "గంగ",
        -278.0
      ],
      [
        "युक्त",
        -270.0
      ],
      [
        "Act",
        -314.0
      ],
      [
        "ਵਾਲੇ",
        -173.0
      ],
      [
        "रक्षा",
        -271.0
      ],
      [
        "These",
        -295.0
      ],
      [
        "ਸੱਤਾ",
        -174.0
      ],
      [
        "కల",
        -290.0
      ],
      [
        "तन",
        -302.0
      ],
      [
        "Buddhist",
        -266.0
      ],
      [
        "Tamil",
        -297.0
      ],
      [
        "वास्त",
        -273.0
      ],
      [
        "యి",
        -291.0
      ],
      [
        "ਗਿਣ",
        -185.0
      ],
      [
        "if",
        -328.0
      ],
      [
        "सदी",
        -294.0
      ],
      [
        "నాయక",
        -272.0
      ],
      [
        "ਗਿਣਤੀ",
        -166.0
      ],
      [
        "ism",
        -319.0
      ],
      [
        "जाते",
        -285.0
      ],
      [
        "బడ్డాయి",
        -243.0
      ],
      [
        "mid",
        -320.0
      ],
      [
        "मुख्य",
        -276.0
      ],
      [
        "గ్రామ",
        -264.0
      ],
      [
        "ਵੰਡ",
        -187.0
      ],
      [
        "five",
        -311.0
      ],
      [
        "सरका",
        -287.0
      ],
      [
        "్లో",
        -285.0
      ],
      [
        "ਲਗਭਗ",
        -178.0
      ],
      [
        "education",
        -262.0
      ],
      [
        "बने",
        -298.0
      ],
      [
        "వ్యవసాయ",
        -246.0
      ],
      [
        "su",
        -333.0
      ],
      [
        "आई",
        -309.0
      ],
      [
        "ਮਾਨਤਾ",
        -169.0
      ],
      [
        "der",
        -324.0
      ],
      [
        "सभा",
        -300.0
      ],
      [
        "దక్షిణాన",
        -238.0
      ],
      [
        "ess",
        -325.0
      ],
      [
        "ਫੌਜੀ",
        -180.0
      ],
      [
        "रिया",
        -291.0
      ],
      [
        "తమ",
        -299.0
      ],
      [
        "ta",
        -336.0
      ],
      [
        "मिले",
        -292.0
      ],
      [
        "ਖਰ",
        -201.0
      ],
      [
        "become",
        -297.0
      ],
      [
        "చె",
        -300.0
      ],
      [
        "आर्यों",
        -273.0
      ],
      [
        "often",
        -308.0
      ],
      [
        "ఐరోపా",
        -271.0
      ],
      [
        "ਇਸਦੇ",
        -182.0
      ],
      [
        "ताम्रयुग",
        -254.0
      ],
      [
        "regional",
        -279.0
      ],
      [
        "ప్రకారం",
        -252.0
      ],
      [
        "पोटा",
        -295.0
      ],
      [
        "men",
        -330.0
      ],
      [
        "ਹੋਰ",
        -193.0
      ],
      [
        "సాంస్కృతిక",
        -223.0
      ],
      [
        "पोटामिया",
        -256.0
      ],
      [
        "whose",
        -311.0
      ],
      [
        "వాయవ్య",
        -264.0
      ],
      [
        "ਬਤ",
        -204.0
      ],
      [
        "federal",
        -292.0
      ],
      [
        "चाक्षु",
        -277.0
      ],
      [
        "కామరూప",
        -265.0
      ],
      [
        "cities",
        -303.0
      ],
      [
        "चाक्षुष",
        -268.0
      ],
      [
        "ਵਿੱਚੋਂ",
        -165.0
      ],
      [
        "స్వాతంత్ర్య",
        -216.0
      ],
      [
        "sultanate",
        -274.0
      ],
      [
        "मन्यु",
        -289.0
      ],
      [
        "ਸਫਲ",
        -196.0
      ],
      [
        "వ్యాపించ",
        -247.0
      ],
      [
        "set",
        -335.0
      ],
      [
        "अत्यरा",
        -280.0
      ],
      [
        "పార్టీ",
        -268.0
      ],
      [
        "ments",
        -316.0
      ],
      [
        "आधि",
        -311.0
      ],
      [
        "ਸਵ",
        -207.0
      ],
      [
        "Andaman",
        -297.0
      ],
      [
        "పాకిస్థాన్",
        -229.0
      ],
      [
        "स्थित",
        -292.0
      ],
      [
        "low",
        -338.0
      ],
      [
        "ਧਾਨ",
        -198.0
      ],
      [
        "వరకూ",
        -290.0
      ],
      [
        "महाद्वीप",
        -263.0
      ],
      [
        "ically",
        -309.0
      ],
      [
        "కారణంగా",
        -261.0
      ],
      [
        "जनसंख्या",
        -264.0
      ],
      [
        "ਰੀਆਂ",
        -189.0
      ],
      [
        "created",
        -300.0
      ],
      [
        "కన్నడ",
        -282.0
      ],
      [
        "हिमा",
        -305.0
      ],
      [
        "diverse",
        -301.0
      ],
      [
        "ਜਪਾ",
        -200.0
      ],
      [
        "అధిక",
        -293.0
      ],
      [
        "संस्कृत",
        -276.0
      ],
      [
        "ial",
        -342.0
      ],
      [
        "కొంత",
        -294.0
      ],
      [
        "करण",
        -317.0
      ],
      [
        "ite",
        -343.0
      ],
      [
        "ਚੋਣਾਂ",
        -181.0
      ],
      [
        "చైనా",
        -295.0
      ],
      [
        "गंगा",
        -308.0
      ],
      [
        "elections",
        -284.0
      ],
      [
        "ਸ਼ੀਆ",
        -192.0
      ],
      [
        "ఎన్న",
        -296.0
      ],
      [
        "चल",
        -329.0
      ],
      [
        "dec",
        -345.0
      ],
      [
        "gener",
        -326.0
      ],
      [
        "पंजाब",
        -300.0
      ],
      [
        "హైదరాబాదు",
        -247.0
      ],
      [
        "ਦੁਨੀ",
        -193.0
      ],
      [
        "union",
        -327.0
      ],
      [
        "स्तार",
        -301.0
      ],
      [
        "చేశారు",
        -278.0
      ],
      [
        "ਇੰਡੀ",
        -194.0
      ],
      [
        "won",
        -348.0
      ],
      [
        "बद",
        -332.0
      ],
      [
        "డి",
        -319.0
      ],
      [
        "official",
        -299.0
      ],
      [
        "अपनी",
        -313.0
      ],
      [
        "శాఖ",
        -310.0
      ],
      [
        "ਰੀਕਾ",
        -195.0
      ],
      [
        "longer",
        -320.0
      ],
      [
        "शुरू",
        -314.0
      ],
      [
        "ేశ్వర",
        -291.0
      ],
      [
        "ਸਿਤ",
        -206.0
      ],
      [
        "Among",
        -331.0
      ],
      [
        "शाली",
        -315.0
      ],
      [
        "మీద",
        -312.0
      ],
      [
        "popular",
        -312.0
      ],
      [
        "धार",
        -326.0
      ],
      [
        "ਸੰਸਕ੍ਰਿਤ",
        -157.0
      ],
      [
        "ప్రత్యేక",
        -263.0
      ],
      [
        "traditional",
        -273.0
      ],
      [
        "भूमिका",
        -297.0
      ],
      [
        "రంజ",
        -314.0
      ],
      [
        "air",
        -354.0
      ],
      [
        "ਭਾਸ਼ਾਵਾਂ",
        -158.0
      ],
      [
        "बड़े",
        -318.0
      ],
      [
        "వీటి",
        -305.0
      ],
      [
        "forms",
        -335.0
      ],
      [
        "विदे",
        -319.0
      ],
      [
        "ਬਦ",
        -219.0
      ],
      [
        "term",
        -346.0
      ],
      [
        "పోషించ",
        -286.0
      ],
      [
        "घाटी",
        -320.0
      ],
      [
        "republic",
        -307.0
      ],
      [
        "రాజధాని",
        -277.0
      ],
      [
        "ਹਿਤ",
        -210.0
      ],
      [
        "महत्वपूर्ण",
        -261.0
      ],
      [
        "Himalayas",
        -298.0
      ],
      [
        "నూ",
        -328.0
      ],
      [
        "मानव",
        -322.0
      ],
      [
        "widely",
        -329.0
      ],
      [
        "ਕਬ",
        -221.0
      ],
      [
        "ాబాదు",
        -299.0
      ],
      [
        "पास",
        -333.0
      ],
      [
        "growing",
        -320.0
      ],
      [
        "వై",
        -330.0
      ],
      [
        "ਵਜੋਂ",
        -202.0
      ],
      [
        "styles",
        -331.0
      ],
      [
        "भिन्न",
        -314.0
      ],
      [
        "అను",
        -321.0
      ],
      [
        "forest",
        -332.0
      ],
      [
        "प्रकार",
        -305.0
      ],
      [
        "ਸੰਯੁ",
        -203.0
      ],
      [
        "సైన్య",
        -302.0
      ],
      [
        "body",
        -353.0
      ],
      [
        "छोड़",
        -326.0
      ],
      [
        "ਸੰਯੁਕਤ",
        -184.0
      ],
      [
        "లక్షల",
        -303.0
      ],
      [
        "GDP",
        -364.0
      ],
      [
        "लेख",
        -337.0
      ],
      [
        "ఉత్పత్తి",
        -274.0
      ],
      [
        "I",
        -385.0
      ],
      [
        "संबंध",
        -318.0
      ],
      [
        "ਚਾਰ",
        -215.0
      ],
      [
        "D",
        -386.0
      ],
      [
        "इन्हीं",
        -309.0
      ],
      [
        "empire",
        -337.0
      ],
      [
        "ਆਰਥਿ",
        -206.0
      ],
      [
        "నిర్మించ",
        -276.0
      ],
      [
        "कोई",
        -340.0
      ],
      [
        "until",
        -348.0
      ],
      [
        "ించి",
        -317.0
      ],
      [
        "उनकी",
        -331.0
      ],
      [
        "ਆਰਥਿਕ",
        -197.0
      ],
      [
        "us",
        -379.0
      ],
      [
        "ప్",
        -338.0
      ],
      [
        "राजधा",
        -322.0
      ],
      [
        "This",
        -360.0
      ],
      [
        "ਵਾਦੀ",
        -208.0
      ],
      [
        "పండు",
        -319.0
      ],
      [
        "राजधानी",
        -303.0
      ],
      [
        "known",
        -351.0
      ],
      [
        "చిహ్న",
        -310.0
      ],
      [
        "शासित",
        -324.0
      ],
      [
        "around",
        -342.0
      ],
      [
        "ਵਧ",
        -229.0
      ],
      [
        "వ్యాపార",
        -291.0
      ],
      [
        "व्यापार",
        -305.0
      ],
      [
        "kingdoms",
        -323.0
      ],
      [
        "ਰਹੀ",
        -220.0
      ],
      [
        "మీ",
        -342.0
      ],
      [
        "वर्ण",
        -336.0
      ],
      [
        "he",
        -384.0
      ],
      [
        "three",
        -355.0
      ],
      [
        "वल",
        -357.0
      ],
      [
        "లి",
        -343.0
      ],
      [
        "ਹਥਿ",
        -221.0
      ],
      [
        "Kashmir",
        -336.0
      ],
      [
        "टक",
        -358.0
      ],
      [
        "ాన",
        -344.0
      ],
      [
        "ਵਾਦ",
        -222.0
      ],
      [
        "rise",
        -367.0
      ],
      [
        "जहाँ",
        -339.0
      ],
      [
        "ప్రా",
        -325.0
      ],
      [
        "along",
        -358.0
      ],
      [
        "पत्थ",
        -340.0
      ],
      [
        "చేయ",
        -336.0
      ],
      [
        "ਇਹਨਾਂ",
        -203.0
      ],
      [
        "ence",
        -369.0
      ],
      [
        "पत्थर",
        -331.0
      ],
      [
        "గత",
        -347.0
      ],
      [
        "ਉਤ",
        -234.0
      ],
      [
        "now",
        -380.0
      ],
      [
        "रह",
        -362.0
      ],
      [
        "ఆది",
        -338.0
      ],
      [
        "ya",
        -391.0
      ],
      [
        "बंधन",
        -343.0
      ],
      [
        "ਰਿਕ",
        -225.0
      ],
      [
        "తమైన",
        -329.0
      ],
      [
        "Southeast",
        -322.0
      ],
      [
        "केन्द्र",
        -314.0
      ],
      [
        "తి",
        -350.0
      ],
      [
        "last",
        -373.0
      ],
      [
        "ਜਿਸਦਾ",
        -206.0
      ],
      [
        "वास्तविक",
        -305.0
      ],
      [
        "్లు",
        -341.0
      ],
      [
        "Although",
        -334.0
      ],
      [
        "अब",
        -366.0
      ],
      [
        "ਹੁੰਦਾ",
        -207.0
      ],
      [
        "Persian",
        -345.0
      ],
      [
        "త్",
        -352.0
      ],
      [
        "हथियारों",
        -307.0
      ],
      [
        "om",
        -396.0
      ],
      [
        "నీ",
        -353.0
      ],
      [
        "ਘੱਟ",
        -228.0
      ],
      [
        "मैसो",
        -348.0
      ],
      [
        "ri",
        -397.0
      ],
      [
        "ిక్",
        -344.0
      ],
      [
        "मैसोपोटामिया",
        -269.0
      ],
      [
        "ised",
        -378.0
      ],
      [
        "ਣਿਆ",
        -229.0
      ],
      [
        "प्रियव्र",
        -310.0
      ],
      [
        "formed",
        -359.0
      ],
      [
        "విదేశ",
        -326.0
      ],
      [
        "ਵਿਕਾ",
        -220.0
      ],
      [
        "earliest",
        -340.0
      ],
      [
        "प्रियव्रत",
        -301.0
      ],
      [
        "ెడ్",
        -347.0
      ],
      [
        "als",
        -391.0
      ],
      [
        "अत्यराति",
        -312.0
      ],
      [
        "ਵਿਕਾਸ",
        -211.0
      ],
      [
        "ుతూ",
        -348.0
      ],
      [
        "place",
        -372.0
      ],
      [
        "तपो",
        -363.0
      ],
      [
        "ਯੋਗ",
        -232.0
      ],
      [
        "సమ",
        -359.0
      ],
      [
        "Jainism",
        -353.0
      ],
      [
        "गूगल",
        -354.0
      ],
      [
        "తీర",
        -350.0
      ],
      [
        "developed",
        -334.0
      ],
      [
        "पुस्त",
        -345.0
      ],
      [
        "ਨਹਿ",
        -233.0
      ],
      [
        "far",
        -395.0
      ],
      [
        "య్య",
        -351.0
      ],
      [
        "पुस्तक",
        -336.0
      ],
      [
        "style",
        -376.0
      ],
      [
        "ਸ਼ਾਸ",
        -224.0
      ],
      [
        "ంటి",
        -352.0
      ],
      [
        "आधिका",
        -347.0
      ],
      [
        "ians",
        -387.0
      ],
      [
        "స్థాన",
        -333.0
      ],
      [
        "आधिकारिक",
        -318.0
      ],
      [
        "ਇਨ੍ਹਾਂ",
        -205.0
      ],
      [
        "ating",
        -378.0
      ],
      [
        "చే",
        -364.0
      ],
      [
        "न्तर",
        -359.0
      ],
      [
        "States",
        -369.0
      ],
      [
        "ਸ਼ਕਤੀਸ਼ਾਲੀ",
        -166.0
      ],
      [
        "మరణించార",
        -305.0
      ],
      [
        "उपमहाद्वीप",
        -300.0
      ],
      [
        "times",
        -380.0
      ],
      [
        "సంవత్సరాల",
        -296.0
      ],
      [
        "बड़ा",
        -361.0
      ],
      [
        "pl",
        -411.0
      ],
      [
        "ਵਪਾਰ",
        -227.0
      ],
      [
        "ుగా",
        -357.0
      ],
      [
        "हिमालय",
        -342.0
      ],
      [
        "ore",
        -402.0
      ],
      [
        "ਲੜਾ",
        -238.0
      ],
      [
        "డానికి",
        -328.0
      ],
      [
        "चना",
        -373.0
      ],
      [
        "ings",
        -393.0
      ],
      [
        "ai",
        -414.0
      ],
      [
        "राजनी",
        -354.0
      ],
      [
        "దు",
        -369.0
      ],
      [
        "ਅਗਵਾਈ",
        -219.0
      ],
      [
        "back",
        -395.0
      ],
      [
        "गुप्त",
        -355.0
      ],
      [
        "ీయ",
        -370.0
      ],
      [
        "ਨਿਰ",
        -240.0
      ],
      [
        "further",
        -366.0
      ],
      [
        "दिल्ली",
        -346.0
      ],
      [
        "ముస్లింల",
        -311.0
      ],
      [
        "isation",
        -367.0
      ],
      [
        "वाली",
        -367.0
      ],
      [
        "బౌద్ధమతం",
        -312.0
      ],
      [
        "ਜਿਆਦਾ",
        -221.0
      ],
      [
        "ati",
        -408.0
      ],
      [
        "विस्तार",
        -338.0
      ],
      [
        "ప్రారంభమై",
        -303.0
      ],
      [
        "ਪੂਰਵੀ",
        -222.0
      ],
      [
        "however",
        -369.0
      ],
      [
        "प्रभा",
        -359.0
      ],
      [
        "వచ్చు",
        -344.0
      ],
      [
        "left",
        -400.0
      ],
      [
        "जाना",
        -370.0
      ],
      [
        "ਭਾਜਪਾ",
        -223.0
      ],
      [
        "యాలు",
        -355.0
      ],
      [
        "middle",
        -381.0
      ],
      [
        "शुरु",
        -371.0
      ],
      [
        "ేంద్ర",
        -346.0
      ],
      [
        "ig",
        -422.0
      ],
      [
        "ਮੰਨਿ",
        -234.0
      ],
      [
        "सेवा",
        -372.0
      ],
      [
        "ప్రముఖ",
        -337.0
      ],
      [
        "four",
        -403.0
      ],
      [
        "परंपरा",
        -353.0
      ],
      [
        "ਮੰਨਿਆ",
        -225.0
      ],
      [
        "leading",
        -374.0
      ],
      [
        "ఉప",
        -378.0
      ],
      [
        "वरी",
        -384.0
      ],
      [
        "changes",
        -375.0
      ],
      [
        "కాశ్మీర",
        -329.0
      ],
      [
        "ਹਰ",
        -256.0
      ],
      [
        "भरत",
        -385.0
      ],
      [
        "mon",
        -416.0
      ],
      [
        "భౌగోళిక",
        -330.0
      ],
      [
        "जिसका",
        -366.0
      ],
      [
        "ance",
        -407.0
      ],
      [
        "ਰੱਖਿਆ",
        -227.0
      ],
      [
        "మెదక్",
        -351.0
      ],
      [
        "ईरा",
        -387.0
      ],
      [
        "ry",
        -428.0
      ],
      [
        "రహదారులు",
        -322.0
      ],
      [
        "ਆਰੀਆਂ",
        -228.0
      ],
      [
        "court",
        -399.0
      ],
      [
        "वर्तमान",
        -348.0
      ],
      [
        "సాంఘిక",
        -343.0
      ],
      [
        "though",
        -390.0
      ],
      [
        "अफ्री",
        -369.0
      ],
      [
        "ਲੇਖ",
        -249.0
      ],
      [
        "వకతక",
        -364.0
      ],
      [
        "car",
        -421.0
      ],
      [
        "अफ्रीका",
        -350.0
      ],
      [
        "ਅਧਿਕਾਰ",
        -220.0
      ],
      [
        "శ్రమణ",
        -355.0
      ],
      [
        "ped",
        -422.0
      ],
      [
        "करना",
        -381.0
      ],
      [
        "నర్మద",
        -356.0
      ],
      [
        "gar",
        -423.0
      ],
      [
        "यहाँ",
        -382.0
      ],
      [
        "ਤੌਰ",
        -251.0
      ],
      [
        "ines",
        -414.0
      ],
      [
        "నిజామాబాదు",
        -307.0
      ],
      [
        "वर्ग",
        -383.0
      ],
      [
        "thought",
        -385.0
      ],
      [
        "ਏਸ਼ੀਆ",
        -232.0
      ],
      [
        "కుమారుడు",
        -328.0
      ],
      [
        "अलग",
        -394.0
      ],
      [
        "held",
        -416.0
      ],
      [
        "వలస",
        -379.0
      ],
      [
        "स्वरूप",
        -365.0
      ],
      [
        "ਆਬਾਦੀ",
        -233.0
      ],
      [
        "vast",
        -417.0
      ],
      [
        "పరమైన",
        -360.0
      ],
      [
        "कहला",
        -386.0
      ],
      [
        "plain",
        -408.0
      ],
      [
        "ਤੰਤਰ",
        -244.0
      ],
      [
        "మాట్లాడే",
        -331.0
      ],
      [
        "तमिल",
        -387.0
      ],
      [
        "ely",
        -429.0
      ],
      [
        "సూర",
        -382.0
      ],
      [
        "साहि",
        -388.0
      ],
      [
        "ants",
        -420.0
      ],
      [
        "ਹਿੰਦ",
        -245.0
      ],
      [
        "కుషాన్",
        -353.0
      ],
      [
        "साहित्य",
        -359.0
      ],
      [
        "atic",
        -421.0
      ],
      [
        "ਹੱਦ",
        -256.0
      ],
      [
        "రోడ్డు",
        -354.0
      ],
      [
        "सांस्कृ",
        -360.0
      ],
      [
        "ives",
        -422.0
      ],
      [
        "ction",
        -413.0
      ],
      [
        "सांस्कृतिक",
        -331.0
      ],
      [
        "దేవతల",
        -365.0
      ],
      [
        "ਇੰਡੋ",
        -247.0
      ],
      [
        "pay",
        -434.0
      ],
      [
        "उसे",
        -402.0
      ],
      [
        "మౌర్య",
        -366.0
      ],
      [
        "ਸੰਖਿਆ",
        -238.0
      ],
      [
        "executive",
        -375.0
      ],
      [
        "उसके",
        -393.0
      ],
      [
        "దక్కను",
        -357.0
      ],
      [
        "lower",
        -416.0
      ],
      [
        "सामा",
        -394.0
      ],
      [
        "విశ్వ",
        -368.0
      ],
      [
        "ਇੰਡੀਆ",
        -239.0
      ],
      [
        "bi",
        -447.0
      ],
      [
        "लगे",
        -405.0
      ],
      [
        "పరిపాలన",
        -349.0
      ],
      [
        "ਵੱਖ",
        -260.0
      ],
      [
        "figures",
        -398.0
      ],
      [
        "पहली",
        -396.0
      ],
      [
        "ఉపనిషత్తులు",
        -310.0
      ],
      [
        "influenced",
        -369.0
      ],
      [
        "पुर्त",
        -387.0
      ],
      [
        "ਬਹੁਤ",
        -251.0
      ],
      [
        "దక్షిణాసియా",
        -311.0
      ],
      [
        "sculpture",
        -380.0
      ],
      [
        "पुर्तगा",
        -368.0
      ],
      [
        "పాటు",
        -382.0
      ],
      [
        "families",
        -391.0
      ],
      [
        "ਹੌਲੀ",
        -252.0
      ],
      [
        "गांधी",
        -389.0
      ],
      [
        "జైనమతం",
        -363.0
      ],
      [
        "istic",
        -422.0
      ],
      [
        "अग",
        -420.0
      ],
      [
        "ਘਾਟੀ",
        -253.0
      ],
      [
        "industry",
        -393.0
      ],
      [
        "ద్వీప",
        -374.0
      ],
      [
        "हालाँ",
        -391.0
      ],
      [
        "operation",
        -384.0
      ],
      [
        "వచ్చింది",
        -345.0
      ],
      [
        "ਵਿਕ",
        -264.0
      ],
      [
        "हालाँकि",
        -372.0
      ],
      [
        "rich",
        -435.0
      ],
      [
        "ఏక",
        -406.0
      ],
      [
        "संयुक्त",
        -373.0
      ],
      [
        "market",
        -416.0
      ],
      [
        "ਵਿਕਸਿਤ",
        -235.0
      ],
      [
        "పాలకులు",
        -357.0
      ],
      [
        "प्लेट",
        -394.0
      ],
      [
        "painting",
        -397.0
      ],
      [
        "ਪ੍ਰਮਾ",
        -246.0
      ],
      [
        "rock",
        -438.0
      ],
      [
        "पहा",
        -415.0
      ],
      [
        "శైలి",
        -389.0
      ],
      [
        "courts",
        -419.0
      ],
      [
        "नदि",
        -416.0
      ],
      [
        "ਵੇਦ",
        -267.0
      ],
      [
        "పంట",
        -400.0
      ],
      [
        "technology",
        -380.0
      ],
      [
        "पूर्वी",
        -387.0
      ],
      [
        "ਰਾਜਨੀ",
        -248.0
      ],
      [
        "సింగు",
        -381.0
      ],
      [
        "traditions",
        -381.0
      ],
      [
        "वायु",
        -408.0
      ],
      [
        "ొక్క",
        -392.0
      ],
      [
        "endangered",
        -382.0
      ],
      [
        "होती",
        -409.0
      ],
      [
        "ਯੁੱਗ",
        -259.0
      ],
      [
        "worn",
        -443.0
      ],
      [
        "వాహ",
        -403.0
      ],
      [
        "पार्टी",
        -390.0
      ],
      [
        "peninsular",
        -384.0
      ],
      [
        "ਧਾਰ",
        -270.0
      ],
      [
        "ప్రభావ",
        -374.0
      ],
      [
        "भाज",
        -421.0
      ],
      [
        "coalition",
        -395.0
      ],
      [
        "కంట",
        -405.0
      ],
      [
        "भाजपा",
        -402.0
      ],
      [
        "ਕਾਰਜ",
        -261.0
      ],
      [
        "dances",
        -426.0
      ],
      [
        "చిత్ర",
        -386.0
      ],
      [
        "गठबंधन",
        -393.0
      ],
      [
        "cooked",
        -427.0
      ],
      [
        "ਰੰਭ",
        -272.0
      ],
      [
        "ఢిల్లీ",
        -377.0
      ],
      [
        "कहा",
        -424.0
      ],
      [
        "his",
        -458.0
      ],
      [
        "దా",
        -418.0
      ],
      [
        "दूस",
        -425.0
      ],
      [
        "M",
        -479.0
      ],
      [
        "ਲਾਮ",
        -273.0
      ],
      [
        "రాష్ట్రంలో",
        -339.0
      ],
      [
        "इसका",
        -416.0
      ],
      [
        "Africa",
        -430.0
      ],
      [
        "ਪੰਜਾ",
        -264.0
      ],
      [
        "రాజవంశాలు",
        -350.0
      ],
      [
        "निभाई",
        -407.0
      ],
      [
        "Sea",
        -461.0
      ],
      [
        "K",
        -482.0
      ],
      [
        "हथियार",
        -398.0
      ],
      [
        "క్రీడ",
        -391.0
      ],
      [
        "ਮੁਗਲ",
        -265.0
      ],
      [
        "established",
        -383.0
      ],
      [
        "शन",
        -439.0
      ],
      [
        "లేదు",
        -402.0
      ],
      [
        "ਬ੍ਰਿਟਿ",
        -246.0
      ],
      [
        "War",
        -464.0
      ],
      [
        "अम",
        -440.0
      ],
      [
        "ిత్",
        -413.0
      ],
      [
        "called",
        -435.0
      ],
      [
        "शाखा",
        -421.0
      ],
      [
        "క్రీడల",
        -384.0
      ],
      [
        "ਬ੍ਰਿਟਿਸ਼",
        -227.0
      ],
      [
        "However",
        -426.0
      ],
      [
        "विदेशी",
        -402.0
      ],
      [
        "రుకు",
        -405.0
      ],
      [
        "ਬਸ",
        -288.0
      ],
      [
        "history",
        -427.0
      ],
      [
        "ईसापूर्व",
        -383.0
      ],
      [
        "వేదాల",
        -396.0
      ],
      [
        "coast",
        -448.0
      ],
      [
        "जबकि",
        -424.0
      ],
      [
        "ਹਰੀ",
        -279.0
      ],
      [
        "చేసుకున్న",
        -357.0
      ],
      [
        "ans",
        -469.0
      ],
      [
        "सम्पू",
        -415.0
      ],
      [
        "అంట",
        -418.0
      ],
      [
        "An",
        -480.0
      ],
      [
        "ਮੁੱਖ",
        -270.0
      ],
      [
        "सम्पूर्ण",
        -386.0
      ],
      [
        "సు",
        -429.0
      ],
      [
        "when",
        -461.0
      ],
      [
        "बौद्ध",
        -417.0
      ],
      [
        "ਬਣ",
        -291.0
      ],
      [
        "important",
        -412.0
      ],
      [
        "సైన్యం",
        -390.0
      ],
      [
        "मौर्य",
        -418.0
      ],
      [
        "ak",
        -483.0
      ],
      [
        "సంపద",
        -411.0
      ],
      [
        "ਵੱਡੇ",
        -272.0
      ],
      [
        "विस्तृ",
        -409.0
      ],
      [
        "violence",
        -424.0
      ],
      [
        "చెంది",
        -402.0
      ],
      [
        "विस्तृत",
        -400.0
      ],
      [
        "about",
        -455.0
      ],
      [
        "ਹੋਣ",
        -283.0
      ],
      [
        "స్ట",
        -423.0
      ],
      [
        "शील",
        -441.0
      ],
      [
        "great",
        -456.0
      ],
      [
        "ఇందు",
        -414.0
      ],
      [
        "ਅਤ",
        -294.0
      ],
      [
        "West",
        -467.0
      ],
      [
        "सल्त",
        -432.0
      ],
      [
        "చేసిన",
        -405.0
      ],
      [
        "took",
        -468.0
      ],
      [
        "सल्तन",
        -423.0
      ],
      [
        "ਸਮਰ",
        -285.0
      ],
      [
        "చేసి",
        -416.0
      ],
      [
        "Singh",
        -459.0
      ],
      [
        "सल्तनत",
        -414.0
      ],
      [
        "ਸਮਰਥ",
        -276.0
      ],
      [
        "జాలు",
        -417.0
      ],
      [
        "global",
        -450.0
      ],
      [
        "कालीन",
        -425.0
      ],
      [
        "పతన",
        -428.0
      ],
      [
        "pro",
        -481.0
      ],
      [
        "वादी",
        -436.0
      ],
      [
        "ਸਮਰਥਨ",
        -267.0
      ],
      [
        "ana",
        -482.0
      ],
      [
        "యు",
        -439.0
      ],
      [
        "द्योगि",
        -417.0
      ],
      [
        "inter",
        -463.0
      ],
      [
        "ਹਿੰਦੁ",
        -268.0
      ],
      [
        "వాస",
        -430.0
      ],
      [
        "वाद",
        -448.0
      ],
      [
        "significant",
        -404.0
      ],
      [
        "వరణ",
        -431.0
      ],
      [
        "लेकर",
        -439.0
      ],
      [
        "ਹਿੰਦੁਸਤਾਨ",
        -229.0
      ],
      [
        "z",
        -505.0
      ],
      [
        "ుగు",
        -432.0
      ],
      [
        "षभ",
        -460.0
      ],
      [
        "ach",
        -486.0
      ],
      [
        "ਰਿਸ਼",
        -280.0
      ],
      [
        "లోయ",
        -433.0
      ],
      [
        "भारतवर्ष",
        -401.0
      ],
      [
        "estimated",
        -427.0
      ],
      [
        "సామ్రాజ్యాల",
        -354.0
      ],
      [
        "अने",
        -452.0
      ],
      [
        "before",
        -458.0
      ],
      [
        "ਵਤ",
        -301.0
      ],
      [
        "రి",
        -445.0
      ],
      [
        "आज",
        -463.0
      ],
      [
        "ex",
        -499.0
      ],
      [
        "ਆਰਿਆ",
        -282.0
      ],
      [
        "ఆర్",
        -436.0
      ],
      [
        "अभी",
        -454.0
      ],
      [
        "so",
        -500.0
      ],
      [
        "et",
        -501.0
      ],
      [
        "विभिन्न",
        -415.0
      ],
      [
        "ఉండి",
        -427.0
      ],
      [
        "ਵਰਤ",
        -293.0
      ],
      [
        "ise",
        -492.0
      ],
      [
        "प्रारम्भ",
        -406.0
      ],
      [
        "మార్గ",
        -418.0
      ],
      [
        "ਅਜ",
        -304.0
      ],
      [
        "support",
        -453.0
      ],
      [
        "छोटे",
        -447.0
      ],
      [
        "ాలలో",
        -429.0
      ],
      [
        "within",
        -464.0
      ],
      [
        "पद",
        -468.0
      ],
      [
        "శతాబ్ద",
        -410.0
      ],
      [
        "ਅਜਨਾ",
        -285.0
      ],
      [
        "Valley",
        -465.0
      ],
      [
        "आया",
        -459.0
      ],
      [
        "పిలువబడ",
        -401.0
      ],
      [
        "ਅਜਨਾਭ",
        -276.0
      ],
      [
        "ph",
        -506.0
      ],
      [
        "छोड़कर",
        -430.0
      ],
      [
        "లా",
        -452.0
      ],
      [
        "direct",
        -467.0
      ],
      [
        "दर्श",
        -451.0
      ],
      [
        "ਰਾਜਵੰਸ਼",
        -257.0
      ],
      [
        "శాతవాహన",
        -403.0
      ],
      [
        "January",
        -458.0
      ],
      [
        "आक्रम",
        -442.0
      ],
      [
        "హిమాలయ",
        -414.0
      ],
      [
        "approximately",
        -399.0
      ],
      [
        "ਸਾਹਿਤ",
        -278.0
      ],
      [
        "हरा",
        -463.0
      ],
      [
        "సాధించ",
        -415.0
      ],
      [
        "plate",
        -480.0
      ],
      [
        "कारी",
        -454.0
      ],
      [
        "ਕੇਂਦਰੀ",
        -269.0
      ],
      [
        "ain",
        -501.0
      ],
      [
        "ాదా",
        -446.0
      ],
      [
        "यूरो",
        -455.0
      ],
      [
        "ot",
        -512.0
      ],
      [
        "సాహిత్య",
        -407.0
      ],
      [
        "ਹਿੱਸਾ",
        -280.0
      ],
      [
        "पीय",
        -466.0
      ],
      [
        "Con",
        -503.0
      ],
      [
        "ర్మ",
        -448.0
      ],
      [
        "शांति",
        -447.0
      ],
      [
        "Union",
        -484.0
      ],
      [
        "ਅਧੀ",
        -301.0
      ],
      [
        "ంద",
        -459.0
      ],
      [
        "फिर",
        -468.0
      ],
      [
        "composed",
        -455.0
      ],
      [
        "పరిపాలించ",
        -390.0
      ],
      [
        "ਅਧੀਨ",
        -292.0
      ],
      [
        "development",
        -426.0
      ],
      [
        "आन्दो",
        -449.0
      ],
      [
        "పి",
        -461.0
      ],
      [
        "Asian",
        -487.0
      ],
      [
        "संघर्ष",
        -440.0
      ],
      [
        "ਕਰਣ",
        -303.0
      ],
      [
        "ాన్",
        -452.0
      ],
      [
        "ds",
        -518.0
      ],
      [
        "चला",
        -471.0
      ],
      [
        "ਲੜਾਈ",
        -294.0
      ],
      [
        "ేవల",
        -453.0
      ],
      [
        "directly",
        -459.0
      ],
      [
        "केवल",
        -462.0
      ],
      [
        "దీ",
        -464.0
      ],
      [
        "ou",
        -520.0
      ],
      [
        "पड़ो",
        -463.0
      ],
      [
        "ਦੁਨੀਆ",
        -285.0
      ],
      [
        "ect",
        -511.0
      ],
      [
        "ల్లో",
        -445.0
      ],
      [
        "पड़ोसी",
        -444.0
      ],
      [
        "aw",
        -522.0
      ],
      [
        "ਚਲ",
        -316.0
      ],
      [
        "మాన్",
        -446.0
      ],
      [
        "जिसके",
        -455.0
      ],
      [
        "ice",
        -513.0
      ],
      [
        "అధికార",
        -427.0
      ],
      [
        "मैदान",
        -456.0
      ],
      [
        "ਅੰਦੋ",
        -297.0
      ],
      [
        "can",
        -514.0
      ],
      [
        "ధి",
        -468.0
      ],
      [
        "संसार",
        -457.0
      ],
      [
        "ali",
        -515.0
      ],
      [
        "ਅੰਦੋਲ",
        -288.0
      ],
      [
        "तीन",
        -478.0
      ],
      [
        "territories",
        -436.0
      ],
      [
        "విస్తరించ",
        -400.0
      ],
      [
        "सत",
        -489.0
      ],
      [
        "elected",
        -477.0
      ],
      [
        "ਰਸ਼",
        -309.0
      ],
      [
        "ుతు",
        -461.0
      ],
      [
        "वर्णन",
        -460.0
      ],
      [
        "iv",
        -528.0
      ],
      [
        "ਗਾਂਧੀ",
        -290.0
      ],
      [
        "రీ",
        -472.0
      ],
      [
        "संसद",
        -471.0
      ],
      [
        "lands",
        -499.0
      ],
      [
        "went",
        -510.0
      ],
      [
        "बहुमत",
        -462.0
      ],
      [
        "పద",
        -473.0
      ],
      [
        "ਬਣਾਉਣ",
        -291.0
      ],
      [
        "continued",
        -461.0
      ],
      [
        "राजनै",
        -463.0
      ],
      [
        "ున్నారు",
        -424.0
      ],
      [
        "ਮਰ",
        -322.0
      ],
      [
        "leader",
        -492.0
      ],
      [
        "राजनैतिक",
        -434.0
      ],
      [
        "లిక",
        -465.0
      ],
      [
        "influence",
        -463.0
      ],
      [
        "पालि",
        -475.0
      ],
      [
        "ార",
        -476.0
      ],
      [
        "ਵੱਡੀ",
        -303.0
      ],
      [
        "Many",
        -514.0
      ],
      [
        "पालिका",
        -456.0
      ],
      [
        "జన",
        -477.0
      ],
      [
        "ਤਵਪੂਰਣ",
        -284.0
      ],
      [
        "down",
        -515.0
      ],
      [
        "अधिकार",
        -457.0
      ],
      [
        "కళ",
        -478.0
      ],
      [
        "ani",
        -526.0
      ],
      [
        "अमेरि",
        -468.0
      ],
      [
        "ਪਾਰਟੀਆਂ",
        -275.0
      ],
      [
        "కం",
        -479.0
      ],
      [
        "resulting",
        -467.0
      ],
      [
        "यान",
        -489.0
      ],
      [
        "వె",
        -480.0
      ],
      [
        "sc",
        -538.0
      ],
      [
        "ਗੱਠਜੋੜ",
        -286.0
      ],
      [
        "शत",
        -500.0
      ],
      [
        "ప్రదేశ్",
        -431.0
      ],
      [
        "decades",
        -489.0
      ],
      [
        "डॉलर",
        -481.0
      ],
      [
        "ਸਾਲਾਂ",
        -297.0
      ],
      [
        "different",
        -470.0
      ],
      [
        "లక్ష",
        -462.0
      ],
      [
        "जना",
        -492.0
      ],
      [
        "foreign",
        -491.0
      ],
      [
        "లతో",
        -473.0
      ],
      [
        "ਸਮੱ",
        -318.0
      ],
      [
        "नीचे",
        -483.0
      ],
      [
        "tropical",
        -482.0
      ],
      [
        "అతన",
        -474.0
      ],
      [
        "कर्ज",
        -484.0
      ],
      [
        "x",
        -553.0
      ],
      [
        "ਸਾਦ",
        -319.0
      ],
      [
        "డం",
        -485.0
      ],
      [
        "लियन",
        -485.0
      ],
      [
        "ne",
        -544.0
      ],
      [
        "గల",
        -486.0
      ],
      [
        "ਪੁਰ",
        -320.0
      ],
      [
        "ory",
        -535.0
      ],
      [
        "नपा",
        -496.0
      ],
      [
        "ింగ్",
        -467.0
      ],
      [
        "show",
        -526.0
      ],
      [
        "जान",
        -497.0
      ],
      [
        "ਫੌਜ",
        -321.0
      ],
      [
        "మా",
        -488.0
      ],
      [
        "ling",
        -527.0
      ],
      [
        "सना",
        -498.0
      ],
      [
        "ਦਾਨ",
        -322.0
      ],
      [
        "అయి",
        -479.0
      ],
      [
        "rights",
        -508.0
      ],
      [
        "सनातन",
        -479.0
      ],
      [
        "చాళుక్యుల",
        -420.0
      ],
      [
        "ending",
        -509.0
      ],
      [
        "पुरातत्व",
        -450.0
      ],
      [
        "ਅਮ",
        -333.0
      ],
      [
        "reduced",
        -500.0
      ],
      [
        "కూ",
        -491.0
      ],
      [
        "धातु",
        -491.0
      ],
      [
        "eight",
        -521.0
      ],
      [
        "ਵਾਨ",
        -324.0
      ],
      [
        "ాలుగా",
        -462.0
      ],
      [
        "चिन्ह",
        -482.0
      ],
      [
        "tax",
        -542.0
      ],
      [
        "రాష్ట్రాల",
        -423.0
      ],
      [
        "महाराज",
        -473.0
      ],
      [
        "ਵਰਸ਼",
        -315.0
      ],
      [
        "wars",
        -533.0
      ],
      [
        "వచ్చ",
        -474.0
      ],
      [
        "अंग्रेज़ी",
        -444.0
      ],
      [
        "lay",
        -544.0
      ],
      [
        "ਲੇਖਕ",
        -316.0
      ],
      [
        "మొదలై",
        -465.0
      ],
      [
        "इंडो",
        -495.0
      ],
      [
        "recorded",
        -495.0
      ],
      [
        "ఉద్యమాల",
        -446.0
      ],
      [
        "जैन",
        -506.0
      ],
      [
        "agricultural",
        -456.0
      ],
      [
        "ਰਕ",
        -337.0
      ],
      [
        "సంబంధాల",
        -447.0
      ],
      [
        "होते",
        -497.0
      ],
      [
        "oldest",
        -517.0
      ],
      [
        "ਵਾਲਾ",
        -318.0
      ],
      [
        "సింధ",
        -478.0
      ],
      [
        "राजनीतिक",
        -458.0
      ],
      [
        "commercial",
        -478.0
      ],
      [
        "sl",
        -559.0
      ],
      [
        "भरा",
        -509.0
      ],
      [
        "ਅਰਬ",
        -329.0
      ],
      [
        "ially",
        -530.0
      ],
      [
        "इस्ला",
        -490.0
      ],
      [
        "రైళ్ల",
        -470.0
      ],
      [
        "ਲੱਗ",
        -330.0
      ],
      [
        "ety",
        -551.0
      ],
      [
        "पश्चिमी",
        -471.0
      ],
      [
        "కర్ణాటక",
        -451.0
      ],
      [
        "public",
        -522.0
      ],
      [
        "उत्तरी",
        -482.0
      ],
      [
        "చూడండి",
        -462.0
      ],
      [
        "ਕਿਹਾ",
        -321.0
      ],
      [
        "che",
        -553.0
      ],
      [
        "इंडिया",
        -483.0
      ],
      [
        "మహాసముద్ర",
        -433.0
      ],
      [
        "ਮਨੁੱ",
        -322.0
      ],
      [
        "right",
        -534.0
      ],
      [
        "अर्थव्यवस्था",
        -424.0
      ],
      [
        "వారసత్వ",
        -454.0
      ],
      [
        "external",
        -505.0
      ],
      [
        "बदल",
        -515.0
      ],
      [
        "ਉਹ",
        -343.0
      ],
      [
        "వెబ్సైట",
        -455.0
      ],
      [
        "slow",
        -546.0
      ],
      [
        "प्रभाव",
        -486.0
      ],
      [
        "సర్వీసు",
        -456.0
      ],
      [
        "agriculture",
        -477.0
      ],
      [
        "ਖੇਤਰ",
        -324.0
      ],
      [
        "विभा",
        -507.0
      ],
      [
        "సాంకేతిక",
        -447.0
      ],
      [
        "mathematics",
        -478.0
      ],
      [
        "जिन्हें",
        -478.0
      ],
      [
        "ਦੂਜੇ",
        -325.0
      ],
      [
        "elites",
        -529.0
      ],
      [
        "స్వచ్ఛ",
        -468.0
      ],
      [
        "शुरुआ",
        -499.0
      ],
      [
        "line",
        -550.0
      ],
      [
        "డచ్చి",
        -479.0
      ],
      [
        "ਜੀਵਨ",
        -326.0
      ],
      [
        "इसकी",
        -510.0
      ],
      [
        "Plateau",
        -521.0
      ],
      [
        "జమ్మూ",
        -480.0
      ],
      [
        "प्रौद्योगि",
        -451.0
      ],
      [
        "ef",
        -572.0
      ],
      [
        "ਸਿੰਧੂ",
        -317.0
      ],
      [
        "ఆర్థిక",
        -471.0
      ],
      [
        "प्रौद्योगिकी",
        -432.0
      ],
      [
        "lo",
        -573.0
      ],
      [
        "భక్తి",
        -482.0
      ],
      [
        "ਪ੍ਰਮਾਣ",
        -308.0
      ],
      [
        "str",
        -564.0
      ],
      [
        "कम",
        -533.0
      ],
      [
        "తెలియ",
        -483.0
      ],
      [
        "Mo",
        -575.0
      ],
      [
        "विवाद",
        -504.0
      ],
      [
        "ਲੋਕਾਂ",
        -319.0
      ],
      [
        "మరాఠ",
        -494.0
      ],
      [
        "med",
        -566.0
      ],
      [
        "कश्मी",
        -505.0
      ],
      [
        "ਸ਼ੁਰੂਆਤੀ",
        -290.0
      ],
      [
        "ఉండటం",
        -485.0
      ],
      [
        "ks",
        -577.0
      ],
      [
        "कश्मीर",
        -496.0
      ],
      [
        "మిగి",
        -496.0
      ],
      [
        "ho",
        -578.0
      ],
      [
        "सहि",
        -527.0
      ],
      [
        "ਵਿੜ",
        -341.0
      ],
      [
        "eth",
        -569.0
      ],
      [
        "కలిసి",
        -487.0
      ],
      [
        "किए",
        -528.0
      ],
      [
        "Bh",
        -580.0
      ],
      [
        "ਬੁੱਧ",
        -332.0
      ],
      [
        "క్షీణ",
        -488.0
      ],
      [
        "सिंधु",
        -509.0
      ],
      [
        "ological",
        -521.0
      ],
      [
        "వరంగల్",
        -479.0
      ],
      [
        "वत",
        -540.0
      ],
      [
        "ਰੀਆ",
        -343.0
      ],
      [
        "head",
        -562.0
      ],
      [
        "ప్రాచుర్య",
        -450.0
      ],
      [
        "वंशज",
        -521.0
      ],
      [
        "just",
        -563.0
      ],
      [
        "ਵਿਸ਼",
        -334.0
      ],
      [
        "పట్టణీకరణ",
        -451.0
      ],
      [
        "ऋषभ",
        -532.0
      ],
      [
        "process",
        -534.0
      ],
      [
        "పూర్తి",
        -482.0
      ],
      [
        "हिन्दु",
        -503.0
      ],
      [
        "fundamental",
        -495.0
      ],
      [
        "ਸੰਗ",
        -345.0
      ],
      [
        "ఇనుప",
        -503.0
      ],
      [
        "ईरान",
        -524.0
      ],
      [
        "constitutional",
        -466.0
      ],
      [
        "ਮਿਕ",
        -346.0
      ],
      [
        "అనుసరించ",
        -464.0
      ],
      [
        "प्रच",
        -525.0
      ],
      [
        "features",
        -527.0
      ],
      [
        "single",
        -548.0
      ],
      [
        "अनेक",
        -526.0
      ],
      [
        "నేపాల",
        -495.0
      ],
      [
        "ਭਿਆ",
        -347.0
      ],
      [
        "numbers",
        -539.0
      ],
      [
        "पहुँ",
        -527.0
      ],
      [
        "గోవా",
        -506.0
      ],
      [
        "ਮੁਸ",
        -348.0
      ],
      [
        "iving",
        -560.0
      ],
      [
        "प्राचीनतम",
        -478.0
      ],
      [
        "పశ్చిమాన",
        -467.0
      ],
      [
        "upper",
        -561.0
      ],
      [
        "जीवन",
        -529.0
      ],
      [
        "నాథ",
        -518.0
      ],
      [
        "ਦਿੱਲੀ",
        -329.0
      ],
      [
        "indigenous",
        -512.0
      ],
      [
        "प्रमा",
        -520.0
      ],
      [
        "అయినప్పటికీ",
        -439.0
      ],
      [
        "ਸਲਤਨ",
        -340.0
      ],
      [
        "Their",
        -563.0
      ],
      [
        "लना",
        -541.0
      ],
      [
        "ఆధిపత్యం",
        -470.0
      ],
      [
        "bal",
        -584.0
      ],
      [
        "हन",
        -552.0
      ],
      [
        "ਸਲਤਨਤ",
        -331.0
      ],
      [
        "భద్ర",
        -511.0
      ],
      [
        "parliament",
        -515.0
      ],
      [
        "उत्पा",
        -523.0
      ],
      [
        "ీసు",
        -522.0
      ],
      [
        "ured",
        -576.0
      ],
      [
        "ਸਿਰ",
        -352.0
      ],
      [
        "उत्पाद",
        -514.0
      ],
      [
        "పండుగలు",
        -483.0
      ],
      [
        "serv",
        -577.0
      ],
      [
        "उदय",
        -545.0
      ],
      [
        "ਪੰਜਾਬ",
        -333.0
      ],
      [
        "every",
        -568.0
      ],
      [
        "నమోదు",
        -504.0
      ],
      [
        "रित",
        -546.0
      ],
      [
        "member",
        -559.0
      ],
      [
        "జైన",
        -525.0
      ],
      [
        "ਵਿਰੋ",
        -344.0
      ],
      [
        "किन्तु",
        -517.0
      ],
      [
        "extant",
        -560.0
      ],
      [
        "కదంబాలు",
        -486.0
      ],
      [
        "सवी",
        -548.0
      ],
      [
        "Ancient",
        -551.0
      ],
      [
        "ਸਿੱਖ",
        -345.0
      ],
      [
        "సాగు",
        -517.0
      ],
      [
        "आर",
        -559.0
      ],
      [
        "inf",
        -592.0
      ],
      [
        "సిస్త",
        -508.0
      ],
      [
        "ਦਿੱਤੀ",
        -336.0
      ],
      [
        "renew",
        -573.0
      ],
      [
        "आक्रमण",
        -520.0
      ],
      [
        "ప్రతి",
        -509.0
      ],
      [
        "Dravidian",
        -534.0
      ],
      [
        "परिणा",
        -531.0
      ],
      [
        "ਮਜ਼",
        -357.0
      ],
      [
        "ద్వార",
        -510.0
      ],
      [
        "aren",
        -585.0
      ],
      [
        "परिणाम",
        -522.0
      ],
      [
        "ਮਜ਼ਬੂ",
        -338.0
      ],
      [
        "దేవాలయం",
        -491.0
      ],
      [
        "pr",
        -606.0
      ],
      [
        "परिणामस्वरूप",
        -463.0
      ],
      [
        "ఉండగా",
        -512.0
      ],
      [
        "ign",
        -597.0
      ],
      [
        "राजवंश",
        -524.0
      ],
      [
        "ਤਕਨੀ",
        -349.0
      ],
      [
        "national",
        -548.0
      ],
      [
        "దినాలు",
        -503.0
      ],
      [
        "पाँच",
        -545.0
      ],
      [
        "itary",
        -579.0
      ],
      [
        "ਹੋਈਆਂ",
        -340.0
      ],
      [
        "గుర్తించ",
        -484.0
      ],
      [
        "उसने",
        -546.0
      ],
      [
        "band",
        -590.0
      ],
      [
        "పాక్",
        -525.0
      ],
      [
        "प्रया",
        -537.0
      ],
      [
        "ਸਮਾਜ",
        -351.0
      ],
      [
        "below",
        -581.0
      ],
      [
        "ఆలయం",
        -526.0
      ],
      [
        "प्रयास",
        -528.0
      ],
      [
        "conducted",
        -542.0
      ],
      [
        "ਕਾਬ",
        -362.0
      ],
      [
        "అవశేషాలు",
        -487.0
      ],
      [
        "बनाने",
        -539.0
      ],
      [
        "enacted",
        -563.0
      ],
      [
        "కవి",
        -538.0
      ],
      [
        "टन",
        -570.0
      ],
      [
        "greater",
        -564.0
      ],
      [
        "ਕੇਂਦਰ",
        -343.0
      ],
      [
        "జనపదాల",
        -509.0
      ],
      [
        "किये",
        -551.0
      ],
      [
        "meat",
        -595.0
      ],
      [
        "ਹਥਿਆਰ",
        -344.0
      ],
      [
        "శ్రీ",
        -530.0
      ],
      [
        "यूरोपीय",
        -522.0
      ],
      [
        "ets",
        -606.0
      ],
      [
        "ob",
        -617.0
      ],
      [
        "टना",
        -563.0
      ],
      [
        "గురు",
        -531.0
      ],
      [
        "ਗੁਆਂ",
        -355.0
      ],
      [
        "secular",
        -568.0
      ],
      [
        "यक",
        -574.0
      ],
      [
        "బాదామి",
        -512.0
      ],
      [
        "ਗੁਆਂਢੀ",
        -336.0
      ],
      [
        "Bharat",
        -579.0
      ],
      [
        "अधिकां",
        -535.0
      ],
      [
        "పల్లవులు",
        -493.0
      ],
      [
        "Pro",
        -610.0
      ],
      [
        "अधिकांश",
        -526.0
      ],
      [
        "ప్రపంచంలోన",
        -474.0
      ],
      [
        "ਵਿਵਾਦ",
        -347.0
      ],
      [
        "animal",
        -581.0
      ],
      [
        "आन्दोलन",
        -527.0
      ],
      [
        "నిలిచి",
        -515.0
      ],
      [
        "ਸ਼ੀਲ",
        -358.0
      ],
      [
        "crust",
        -592.0
      ],
      [
        "सामाजि",
        -538.0
      ],
      [
        "వేర్",
        -536.0
      ],
      [
        "Ghats",
        -593.0
      ],
      [
        "सामाजिक",
        -529.0
      ],
      [
        "ਪਤੀ",
        -369.0
      ],
      [
        "వులు",
        -537.0
      ],
      [
        "bir",
        -614.0
      ],
      [
        "सिंह",
        -560.0
      ],
      [
        "డూ",
        -558.0
      ],
      [
        "occup",
        -595.0
      ],
      [
        "ਅੰਗਰੇਜੀ",
        -330.0
      ],
      [
        "जनवरी",
        -551.0
      ],
      [
        "స్మార",
        -529.0
      ],
      [
        "ste",
        -616.0
      ],
      [
        "निर",
        -572.0
      ],
      [
        "ਦੇਵ",
        -371.0
      ],
      [
        "Plate",
        -597.0
      ],
      [
        "ఆగ",
        -560.0
      ],
      [
        "इसे",
        -573.0
      ],
      [
        "surv",
        -608.0
      ],
      [
        "చేసారు",
        -521.0
      ],
      [
        "ਇਲਾ",
        -372.0
      ],
      [
        "सूची",
        -564.0
      ],
      [
        "suppl",
        -599.0
      ],
      [
        "పతక",
        -552.0
      ],
      [
        "बनी",
        -575.0
      ],
      [
        "traditionally",
        -520.0
      ],
      [
        "ਪ੍ਰਦੇਸ਼",
        -333.0
      ],
      [
        "కేంద్రం",
        -513.0
      ],
      [
        "जलो",
        -576.0
      ],
      [
        "ining",
        -601.0
      ],
      [
        "కాలములో",
        -514.0
      ],
      [
        "ਬਸਤੀਆਂ",
        -344.0
      ],
      [
        "Nuclear",
        -582.0
      ],
      [
        "जलोढ़",
        -557.0
      ],
      [
        "నగరాలు",
        -525.0
      ],
      [
        "exports",
        -583.0
      ],
      [
        "बाढ़",
        -568.0
      ],
      [
        "ਸਹਿਤ",
        -365.0
      ],
      [
        "జరుపుకు",
        -516.0
      ],
      [
        "pharmaceutical",
        -514.0
      ],
      [
        "निम्न",
        -559.0
      ],
      [
        "ਵਿਦ",
        -376.0
      ],
      [
        "సాధించి",
        -517.0
      ],
      [
        "reasing",
        -585.0
      ],
      [
        "ऋतु",
        -580.0
      ],
      [
        "సిక్కులు",
        -508.0
      ],
      [
        "cooking",
        -586.0
      ],
      [
        "परन्तु",
        -551.0
      ],
      [
        "ਰੀਬ",
        -377.0
      ],
      [
        "dramas",
        -597.0
      ],
      [
        "స్థాయి",
        -529.0
      ],
      [
        "करता",
        -572.0
      ],
      [
        "sari",
        -618.0
      ],
      [
        "ਵਿਸ਼ੇ",
        -358.0
      ],
      [
        "ఉంట",
        -560.0
      ],
      [
        "हम",
        -593.0
      ],
      [
        "waist",
        -609.0
      ],
      [
        "డంలో",
        -551.0
      ],
      [
        "अप्रै",
        -564.0
      ],
      [
        "ਸ਼ਿਆ",
        -369.0
      ],
      [
        "commonly",
        -580.0
      ],
      [
        "స్థావరాలు",
        -502.0
      ],
      [
        "अप्रैल",
        -555.0
      ],
      [
        "wear",
        -621.0
      ],
      [
        "ਸਥਾਪਤ",
        -360.0
      ],
      [
        "ాల్లో",
        -543.0
      ],
      [
        "जीत",
        -586.0
      ],
      [
        "trade",
        -612.0
      ],
      [
        "కో",
        -574.0
      ],
      [
        "बाहरी",
        -567.0
      ],
      [
        "mi",
        -643.0
      ],
      [
        "ਅਰੰਭ",
        -371.0
      ],
      [
        "రాష్ట్రాలు",
        -495.0
      ],
      [
        "समर्थ",
        -568.0
      ],
      [
        "these",
        -614.0
      ],
      [
        "ਅਨੇ",
        -382.0
      ],
      [
        "పాలించి",
        -526.0
      ],
      [
        "समर्थन",
        -559.0
      ],
      [
        "being",
        -615.0
      ],
      [
        "independence",
        -546.0
      ],
      [
        "किसी",
        -580.0
      ],
      [
        "క్రీస్తు",
        -517.0
      ],
      [
        "ਪਹਿਲੀ",
        -363.0
      ],
      [
        "North",
        -617.0
      ],
      [
        "एन",
        -601.0
      ],
      [
        "పట్టణాలు",
        -518.0
      ],
      [
        "ਅੰਦੋਲਨ",
        -354.0
      ],
      [
        "reached",
        -598.0
      ],
      [
        "सहयोग",
        -572.0
      ],
      [
        "కొనసాగ",
        -539.0
      ],
      [
        "Sikh",
        -629.0
      ],
      [
        "जरा",
        -593.0
      ],
      [
        "భాషలు",
        -550.0
      ],
      [
        "ਵਰੀ",
        -385.0
      ],
      [
        "came",
        -630.0
      ],
      [
        "दान",
        -594.0
      ],
      [
        "శా",
        -581.0
      ],
      [
        "ਪਿਆ",
        -386.0
      ],
      [
        "spread",
        -611.0
      ],
      [
        "सर्वो",
        -575.0
      ],
      [
        "ణలో",
        -572.0
      ],
      [
        "across",
        -612.0
      ],
      [
        "सर्वोच्च",
        -546.0
      ],
      [
        "ਖੇਤਰੀ",
        -367.0
      ],
      [
        "ప్రకటించ",
        -523.0
      ],
      [
        "Arabian",
        -603.0
      ],
      [
        "न्यायालय",
        -547.0
      ],
      [
        "క్కన",
        -564.0
      ],
      [
        "ala",
        -644.0
      ],
      [
        "ਕਾਲੀਨ",
        -368.0
      ],
      [
        "रखा",
        -598.0
      ],
      [
        "దిక",
        -575.0
      ],
      [
        "ir",
        -655.0
      ],
      [
        "पुर",
        -599.0
      ],
      [
        "ਮੰਤਰੀ",
        -369.0
      ],
      [
        "much",
        -636.0
      ],
      [
        "హర్షుడ",
        -546.0
      ],
      [
        "अला",
        -600.0
      ],
      [
        "parts",
        -627.0
      ],
      [
        "ముందు",
        -557.0
      ],
      [
        "ਬਰ",
        -400.0
      ],
      [
        "अलावा",
        -581.0
      ],
      [
        "op",
        -658.0
      ],
      [
        "लाख",
        -602.0
      ],
      [
        "then",
        -639.0
      ],
      [
        "ਆਰਥ",
        -391.0
      ],
      [
        "ఆక్రమించ",
        -529.0
      ],
      [
        "यर",
        -613.0
      ],
      [
        "Gupta",
        -630.0
      ],
      [
        "భాషలో",
        -560.0
      ],
      [
        "ਆਰਥਕ",
        -382.0
      ],
      [
        "ia",
        -661.0
      ],
      [
        "प्रतिशत",
        -564.0
      ],
      [
        "అవ",
        -591.0
      ],
      [
        "present",
        -612.0
      ],
      [
        "विजय",
        -595.0
      ],
      [
        "ਸ਼ਤ",
        -393.0
      ],
      [
        "అం",
        -592.0
      ],
      [
        "would",
        -633.0
      ],
      [
        "उद्यो",
        -586.0
      ],
      [
        "ਥਲ",
        -404.0
      ],
      [
        "లోన",
        -583.0
      ],
      [
        "architecture",
        -564.0
      ],
      [
        "उद्योग",
        -577.0
      ],
      [
        "భాగ",
        -584.0
      ],
      [
        "con",
        -655.0
      ],
      [
        "नग",
        -618.0
      ],
      [
        "ਜਵਾ",
        -395.0
      ],
      [
        "hi",
        -666.0
      ],
      [
        "పోషించా",
        -545.0
      ],
      [
        "अमरी",
        -599.0
      ],
      [
        "ang",
        -657.0
      ],
      [
        "ਰਹਿੰ",
        -386.0
      ],
      [
        "ఓడించ",
        -566.0
      ],
      [
        "पाश्चा",
        -580.0
      ],
      [
        "cultural",
        -608.0
      ],
      [
        "ఇం",
        -597.0
      ],
      [
        "पाश्चात्य",
        -551.0
      ],
      [
        "ਕੁਲ",
        -397.0
      ],
      [
        "society",
        -619.0
      ],
      [
        "తిర",
        -588.0
      ],
      [
        "सम्य",
        -602.0
      ],
      [
        "W",
        -680.0
      ],
      [
        "ਵਾਰ",
        -398.0
      ],
      [
        "ించడం",
        -569.0
      ],
      [
        "सम्यता",
        -583.0
      ],
      [
        "partition",
        -601.0
      ],
      [
        "ప్రారంభించ",
        -520.0
      ],
      [
        "सप्त",
        -604.0
      ],
      [
        "colonial",
        -612.0
      ],
      [
        "ਨਹਿਰੂ",
        -379.0
      ],
      [
        "ిగా",
        -591.0
      ],
      [
        "सप्तसिन्धु",
        -545.0
      ],
      [
        "area",
        -653.0
      ],
      [
        "ਮਿਲਿਆ",
        -380.0
      ],
      [
        "దీని",
        -582.0
      ],
      [
        "दाई",
        -616.0
      ],
      [
        "od",
        -674.0
      ],
      [
        "small",
        -645.0
      ],
      [
        "काँसे",
        -597.0
      ],
      [
        "ామ",
        -603.0
      ],
      [
        "ਬਾਹਰੀ",
        -381.0
      ],
      [
        "era",
        -666.0
      ],
      [
        "प्रजा",
        -598.0
      ],
      [
        "ుచు",
        -594.0
      ],
      [
        "ਹੁਣ",
        -402.0
      ],
      [
        "Sri",
        -667.0
      ],
      [
        "प्रजापति",
        -569.0
      ],
      [
        "ఆధ్",
        -595.0
      ],
      [
        "Y",
        -688.0
      ],
      [
        "मन्व",
        -610.0
      ],
      [
        "మైదానం",
        -566.0
      ],
      [
        "ਅਨੁ",
        -403.0
      ],
      [
        "ab",
        -679.0
      ],
      [
        "मन्वन्तर",
        -571.0
      ],
      [
        "అయ్య",
        -587.0
      ],
      [
        "ਸੰਬੰਧ",
        -384.0
      ],
      [
        "ates",
        -660.0
      ],
      [
        "पर्शि",
        -602.0
      ],
      [
        "శిల్ప",
        -578.0
      ],
      [
        "way",
        -671.0
      ],
      [
        "जानन्त",
        -593.0
      ],
      [
        "ਸਰਸਵ",
        -395.0
      ],
      [
        "ంగ్",
        -599.0
      ],
      [
        "less",
        -662.0
      ],
      [
        "जानन्तपति",
        -564.0
      ],
      [
        "కనుగొన్న",
        -550.0
      ],
      [
        "administration",
        -563.0
      ],
      [
        "ਸਰਸਵਤੀ",
        -376.0
      ],
      [
        "तपोरत",
        -605.0
      ],
      [
        "గి",
        -611.0
      ],
      [
        "marked",
        -644.0
      ],
      [
        "लेखक",
        -616.0
      ],
      [
        "ਰਾਜਾ",
        -397.0
      ],
      [
        "Deccan",
        -645.0
      ],
      [
        "తెలంగాణా",
        -552.0
      ],
      [
        "लिक",
        -627.0
      ],
      [
        "mammals",
        -636.0
      ],
      [
        "సంప్రదాయ",
        -553.0
      ],
      [
        "ਆਈ",
        -418.0
      ],
      [
        "सागर",
        -618.0
      ],
      [
        "work",
        -667.0
      ],
      [
        "జరిగ",
        -594.0
      ],
      [
        "माल",
        -629.0
      ],
      [
        "Maurya",
        -648.0
      ],
      [
        "ਗਾਲ",
        -409.0
      ],
      [
        "ంచ",
        -615.0
      ],
      [
        "सीमा",
        -620.0
      ],
      [
        "Bay",
        -679.0
      ],
      [
        "మారి",
        -596.0
      ],
      [
        "ਸਾਂਝੀ",
        -390.0
      ],
      [
        "endemic",
        -640.0
      ],
      [
        "बंगा",
        -621.0
      ],
      [
        "ఉద్యమ",
        -587.0
      ],
      [
        "mo",
        -691.0
      ],
      [
        "फैली",
        -622.0
      ],
      [
        "ਮਾਰ",
        -411.0
      ],
      [
        "సౌకర్యాల",
        -558.0
      ],
      [
        "ep",
        -692.0
      ],
      [
        "रचना",
        -623.0
      ],
      [
        "ਲਦੀ",
        -412.0
      ],
      [
        "నగర",
        -609.0
      ],
      [
        "qu",
        -693.0
      ],
      [
        "प्रारम्भि",
        -574.0
      ],
      [
        "పేర్ల",
        -590.0
      ],
      [
        "ous",
        -684.0
      ],
      [
        "प्रारम्भिक",
        -565.0
      ],
      [
        "ਵਿਗਿਆ",
        -393.0
      ],
      [
        "ha",
        -695.0
      ],
      [
        "ండా",
        -611.0
      ],
      [
        "साम्राज्यों",
        -556.0
      ],
      [
        "vers",
        -676.0
      ],
      [
        "ਆਏ",
        -424.0
      ],
      [
        "చుగ",
        -612.0
      ],
      [
        "जन्म",
        -627.0
      ],
      [
        "use",
        -687.0
      ],
      [
        "రాలు",
        -603.0
      ],
      [
        "मुस्लि",
        -608.0
      ],
      [
        "ਲੰਬੇ",
        -405.0
      ],
      [
        "average",
        -648.0
      ],
      [
        "మాత్ర",
        -594.0
      ],
      [
        "मध्यकालीन",
        -579.0
      ],
      [
        "Modern",
        -659.0
      ],
      [
        "ਲਿਆਂ",
        -406.0
      ],
      [
        "నడిపించ",
        -575.0
      ],
      [
        "बनाई",
        -630.0
      ],
      [
        "Early",
        -670.0
      ],
      [
        "సమా",
        -616.0
      ],
      [
        "निवे",
        -631.0
      ],
      [
        "king",
        -681.0
      ],
      [
        "ਭਿੰਨਤਾ",
        -387.0
      ],
      [
        "ట్టి",
        -607.0
      ],
      [
        "समाप्त",
        -612.0
      ],
      [
        "due",
        -692.0
      ],
      [
        "ਸਥਾਨ",
        -408.0
      ],
      [
        "దే",
        -628.0
      ],
      [
        "संघी",
        -633.0
      ],
      [
        "played",
        -663.0
      ],
      [
        "port",
        -684.0
      ],
      [
        "संघीय",
        -624.0
      ],
      [
        "నిర్మాణ",
        -579.0
      ],
      [
        "ਨਦੀ",
        -419.0
      ],
      [
        "po",
        -705.0
      ],
      [
        "बढ़कर",
        -625.0
      ],
      [
        "ుడి",
        -620.0
      ],
      [
        "ਰਪੀ",
        -420.0
      ],
      [
        "Sh",
        -706.0
      ],
      [
        "क्षर",
        -636.0
      ],
      [
        "్డాయి",
        -601.0
      ],
      [
        "fall",
        -687.0
      ],
      [
        "पुरु",
        -637.0
      ],
      [
        "ెం",
        -632.0
      ],
      [
        "ਅੱਜ",
        -421.0
      ],
      [
        "very",
        -688.0
      ],
      [
        "एव",
        -658.0
      ],
      [
        "ిపిస్త",
        -593.0
      ],
      [
        "ਰਿਗ",
        -422.0
      ],
      [
        "loss",
        -689.0
      ],
      [
        "नीय",
        -649.0
      ],
      [
        "జ్",
        -634.0
      ],
      [
        "religion",
        -650.0
      ],
      [
        "संगी",
        -640.0
      ],
      [
        "ਰਿਗਵੇਦ",
        -393.0
      ],
      [
        "ర్యంలో",
        -595.0
      ],
      [
        "wide",
        -691.0
      ],
      [
        "संगीत",
        -631.0
      ],
      [
        "తర",
        -636.0
      ],
      [
        "Islamic",
        -662.0
      ],
      [
        "ਤਰਾਂ",
        -414.0
      ],
      [
        "विशेष",
        -632.0
      ],
      [
        "ధిక",
        -627.0
      ],
      [
        "Indonesia",
        -643.0
      ],
      [
        "रख",
        -663.0
      ],
      [
        "ਭਰੀ",
        -425.0
      ],
      [
        "ver",
        -704.0
      ],
      [
        "కరువు",
        -608.0
      ],
      [
        "वाला",
        -644.0
      ],
      [
        "main",
        -695.0
      ],
      [
        "మన",
        -639.0
      ],
      [
        "ਮੌਰੀਆ",
        -406.0
      ],
      [
        "षण",
        -665.0
      ],
      [
        "Europe",
        -676.0
      ],
      [
        "ించ",
        -630.0
      ],
      [
        "गत",
        -666.0
      ],
      [
        "ages",
        -697.0
      ],
      [
        "ਜਨਮ",
        -427.0
      ],
      [
        "నగరాల",
        -611.0
      ],
      [
        "देखा",
        -647.0
      ],
      [
        "ual",
        -708.0
      ],
      [
        "ియా",
        -632.0
      ],
      [
        "ਚਨਾ",
        -428.0
      ],
      [
        "flow",
        -699.0
      ],
      [
        "जंग",
        -658.0
      ],
      [
        "ణులు",
        -623.0
      ],
      [
        "gave",
        -700.0
      ],
      [
        "निवा",
        -649.0
      ],
      [
        "ਤਮਕ",
        -429.0
      ],
      [
        "యూ",
        -644.0
      ],
      [
        "those",
        -691.0
      ],
      [
        "प्रमाण",
        -630.0
      ],
      [
        "ਵਾਸ",
        -430.0
      ],
      [
        "మ్మ",
        -635.0
      ],
      [
        "ports",
        -692.0
      ],
      [
        "बस्ति",
        -641.0
      ],
      [
        "ండి",
        -636.0
      ],
      [
        "Islands",
        -673.0
      ],
      [
        "गढ़",
        -662.0
      ],
      [
        "ਪ੍ਰਣਾ",
        -411.0
      ],
      [
        "Ashoka",
        -684.0
      ],
      [
        "చక్రవర్తుల",
        -567.0
      ],
      [
        "शहरी",
        -653.0
      ],
      [
        "basin",
        -695.0
      ],
      [
        "ਪ੍ਰਣਾਲੀ",
        -392.0
      ],
      [
        "పర",
        -648.0
      ],
      [
        "जैसे",
        -654.0
      ],
      [
        "written",
        -676.0
      ],
      [
        "బహ",
        -649.0
      ],
      [
        "आस",
        -675.0
      ],
      [
        "ਧਾਰਮਿਕ",
        -403.0
      ],
      [
        "near",
        -707.0
      ],
      [
        "आसपास",
        -646.0
      ],
      [
        "com",
        -718.0
      ],
      [
        "ਇਸਲਾਮ",
        -414.0
      ],
      [
        "మై",
        -651.0
      ],
      [
        "आग",
        -677.0
      ],
      [
        "ber",
        -719.0
      ],
      [
        "భాగం",
        -632.0
      ],
      [
        "आगमन",
        -658.0
      ],
      [
        "Ar",
        -730.0
      ],
      [
        "ਚੱਲ",
        -435.0
      ],
      [
        "న్నాయి",
        -613.0
      ],
      [
        "परी",
        -669.0
      ],
      [
        "poverty",
        -681.0
      ],
      [
        "ਸਥਾਈ",
        -426.0
      ],
      [
        "చెందినవ",
        -604.0
      ],
      [
        "उनके",
        -660.0
      ],
      [
        "Constituent",
        -642.0
      ],
      [
        "Assembly",
        -673.0
      ],
      [
        "आक",
        -681.0
      ],
      [
        "వ్యాపారుల",
        -585.0
      ],
      [
        "ਵਿਰੋਧ",
        -417.0
      ],
      [
        "Greek",
        -704.0
      ],
      [
        "राजाओं",
        -642.0
      ],
      [
        "రాజవంశ",
        -616.0
      ],
      [
        "ਸਤਾਰ",
        -428.0
      ],
      [
        "margins",
        -685.0
      ],
      [
        "उच्च",
        -663.0
      ],
      [
        "చోళ",
        -647.0
      ],
      [
        "min",
        -726.0
      ],
      [
        "क्योंकि",
        -634.0
      ],
      [
        "త్త",
        -648.0
      ],
      [
        "ਤਕਨੀਕੀ",
        -409.0
      ],
      [
        "gr",
        -737.0
      ],
      [
        "अशो",
        -675.0
      ],
      [
        "ితి",
        -649.0
      ],
      [
        "ਪੱਖ",
        -440.0
      ],
      [
        "li",
        -738.0
      ],
      [
        "अशोक",
        -666.0
      ],
      [
        "ార్ల",
        -640.0
      ],
      [
        "ail",
        -729.0
      ],
      [
        "ईसवी",
        -667.0
      ],
      [
        "ਪ੍ਰਭਾ",
        -421.0
      ],
      [
        "డా",
        -661.0
      ],
      [
        "Jain",
        -720.0
      ],
      [
        "आगे",
        -678.0
      ],
      [
        "టా",
        -662.0
      ],
      [
        "gra",
        -731.0
      ],
      [
        "ਡਿਆ",
        -442.0
      ],
      [
        "दर्शन",
        -659.0
      ],
      [
        "కులు",
        -643.0
      ],
      [
        "today",
        -712.0
      ],
      [
        "हार",
        -680.0
      ],
      [
        "ਜਿਵੇਂ",
        -423.0
      ],
      [
        "exchange",
        -683.0
      ],
      [
        "బడిన",
        -644.0
      ],
      [
        "पड़ा",
        -671.0
      ],
      [
        "example",
        -694.0
      ],
      [
        "కోస",
        -655.0
      ],
      [
        "ਸਾਨ",
        -444.0
      ],
      [
        "मूल",
        -682.0
      ],
      [
        "range",
        -715.0
      ],
      [
        "రాజా",
        -646.0
      ],
      [
        "तुलना",
        -663.0
      ],
      [
        "aries",
        -716.0
      ],
      [
        "ਰਾਨ",
        -445.0
      ],
      [
        "రియ",
        -657.0
      ],
      [
        "होने",
        -674.0
      ],
      [
        "gradually",
        -677.0
      ],
      [
        "కన",
        -668.0
      ],
      [
        "ਮੁਕਾਬ",
        -426.0
      ],
      [
        "Aryan",
        -718.0
      ],
      [
        "बनाया",
        -665.0
      ],
      [
        "మరి",
        -659.0
      ],
      [
        "texts",
        -719.0
      ],
      [
        "विय",
        -686.0
      ],
      [
        "ਮੁਕਾਬਲਤਨ",
        -397.0
      ],
      [
        "సైనికుల",
        -620.0
      ],
      [
        "urbanisation",
        -650.0
      ],
      [
        "वियत",
        -677.0
      ],
      [
        "ਉਨ੍ਹਾਂ",
        -418.0
      ],
      [
        "రాస",
        -661.0
      ],
      [
        "ill",
        -741.0
      ],
      [
        "मध्यकाल",
        -648.0
      ],
      [
        "హర్ష",
        -652.0
      ],
      [
        "oc",
        -752.0
      ],
      [
        "फ्रांस",
        -659.0
      ],
      [
        "ਧਰਤੀ",
        -439.0
      ],
      [
        "pe",
        -753.0
      ],
      [
        "యుద్ధ",
        -643.0
      ],
      [
        "आए",
        -700.0
      ],
      [
        "red",
        -744.0
      ],
      [
        "ਅੰਗਰੇਜ਼ੀ",
        -400.0
      ],
      [
        "సంవత్సర",
        -624.0
      ],
      [
        "विद्रो",
        -661.0
      ],
      [
        "amp",
        -745.0
      ],
      [
        "రాతి",
        -655.0
      ],
      [
        "विद्रोह",
        -652.0
      ],
      [
        "ਰਿਸ਼ਭ",
        -431.0
      ],
      [
        "ari",
        -746.0
      ],
      [
        "ండ్",
        -666.0
      ],
      [
        "आप",
        -703.0
      ],
      [
        "group",
        -727.0
      ],
      [
        "ਪ੍ਰਚੱ",
        -432.0
      ],
      [
        "వర",
        -677.0
      ],
      [
        "इसमें",
        -674.0
      ],
      [
        "den",
        -748.0
      ],
      [
        "మిక",
        -668.0
      ],
      [
        "जनता",
        -685.0
      ],
      [
        "For",
        -749.0
      ],
      [
        "ਪ੍ਰਚੱਲਤ",
        -413.0
      ],
      [
        "సంఖ్య",
        -649.0
      ],
      [
        "माता",
        -686.0
      ],
      [
        "income",
        -720.0
      ],
      [
        "ਜ਼ਿਆਦਾ",
        -424.0
      ],
      [
        "ంబ",
        -680.0
      ],
      [
        "स्वत",
        -687.0
      ],
      [
        "status",
        -721.0
      ],
      [
        "another",
        -712.0
      ],
      [
        "स्वतन्त्र",
        -638.0
      ],
      [
        "భారతీయుల",
        -621.0
      ],
      [
        "ਅਕ",
        -465.0
      ],
      [
        "could",
        -733.0
      ],
      [
        "त्रण",
        -689.0
      ],
      [
        "చింది",
        -652.0
      ],
      [
        "ਇਲਾਵਾ",
        -436.0
      ],
      [
        "latter",
        -724.0
      ],
      [
        "दार",
        -700.0
      ],
      [
        "తెలంగాణలోన",
        -603.0
      ],
      [
        "action",
        -725.0
      ],
      [
        "निरपे",
        -681.0
      ],
      [
        "తమిళ",
        -664.0
      ],
      [
        "ਸੱਭਿਅਤਾ",
        -417.0
      ],
      [
        "northwest",
        -696.0
      ],
      [
        "निरपेक्ष",
        -652.0
      ],
      [
        "ణుల",
        -675.0
      ],
      [
        "ਸਰੋ",
        -458.0
      ],
      [
        "birth",
        -737.0
      ],
      [
        "तांत्रि",
        -663.0
      ],
      [
        "బుద్ధ",
        -656.0
      ],
      [
        "total",
        -738.0
      ],
      [
        "तांत्रिक",
        -654.0
      ],
      [
        "ਸਰੋਤ",
        -449.0
      ],
      [
        "చారు",
        -667.0
      ],
      [
        "ham",
        -759.0
      ],
      [
        "घोष",
        -705.0
      ],
      [
        "తం",
        -688.0
      ],
      [
        "cultures",
        -710.0
      ],
      [
        "ਗੰਗਾ",
        -450.0
      ],
      [
        "घोषणा",
        -686.0
      ],
      [
        "లుగా",
        -669.0
      ],
      [
        "having",
        -731.0
      ],
      [
        "रही",
        -707.0
      ],
      [
        "ਇਤ",
        -471.0
      ],
      [
        "rivers",
        -732.0
      ],
      [
        "सदस्य",
        -688.0
      ],
      [
        "summer",
        -733.0
      ],
      [
        "పొ",
        -691.0
      ],
      [
        "ਜਿਸਦੇ",
        -442.0
      ],
      [
        "जाने",
        -699.0
      ],
      [
        "ection",
        -734.0
      ],
      [
        "కదంబ",
        -672.0
      ],
      [
        "फुट",
        -710.0
      ],
      [
        "rel",
        -765.0
      ],
      [
        "ਅਸ਼ੋ",
        -453.0
      ],
      [
        "బై",
        -693.0
      ],
      [
        "नदियाँ",
        -681.0
      ],
      [
        "ome",
        -766.0
      ],
      [
        "కుషా",
        -674.0
      ],
      [
        "ਅਸ਼ੋਕ",
        -444.0
      ],
      [
        "exp",
        -767.0
      ],
      [
        "करती",
        -702.0
      ],
      [
        "ీకరణ",
        -675.0
      ],
      [
        "Pr",
        -778.0
      ],
      [
        "जलवायु",
        -683.0
      ],
      [
        "ਏਸ਼ਿਆ",
        -445.0
      ],
      [
        "విధ",
        -686.0
      ],
      [
        "trans",
        -749.0
      ],
      [
        "त्मक",
        -704.0
      ],
      [
        "ਸਮਾਂ",
        -456.0
      ],
      [
        "అరబ్",
        -677.0
      ],
      [
        "own",
        -770.0
      ],
      [
        "जून",
        -715.0
      ],
      [
        "రైల్వే",
        -658.0
      ],
      [
        "app",
        -771.0
      ],
      [
        "मानसू",
        -696.0
      ],
      [
        "ਗੁਪਤ",
        -457.0
      ],
      [
        "ves",
        -772.0
      ],
      [
        "పరిగణి",
        -659.0
      ],
      [
        "मानसून",
        -687.0
      ],
      [
        "ung",
        -773.0
      ],
      [
        "ਆਸ",
        -478.0
      ],
      [
        "అంతర్జాతీయ",
        -620.0
      ],
      [
        "तिथि",
        -708.0
      ],
      [
        "Dev",
        -774.0
      ],
      [
        "ఉదాహరణ",
        -661.0
      ],
      [
        "पार्टि",
        -689.0
      ],
      [
        "ਤਮਿਲ",
        -459.0
      ],
      [
        "sometimes",
        -715.0
      ],
      [
        "యూరోపియన",
        -642.0
      ],
      [
        "शुरुआत",
        -690.0
      ],
      [
        "Bangladesh",
        -706.0
      ],
      [
        "ਆਪਣਾ",
        -460.0
      ],
      [
        "అధిగమించ",
        -643.0
      ],
      [
        "नर",
        -731.0
      ],
      [
        "assert",
        -747.0
      ],
      [
        "ఆగ్నేయ",
        -664.0
      ],
      [
        "सरकारें",
        -682.0
      ],
      [
        "others",
        -748.0
      ],
      [
        "ਬਾਕੀ",
        -461.0
      ],
      [
        "ఆగ్నేయాసియా",
        -615.0
      ],
      [
        "परिष",
        -713.0
      ],
      [
        "goods",
        -759.0
      ],
      [
        "ਪੁਰਤ",
        -462.0
      ],
      [
        "ఆధ్యాత్మిక",
        -626.0
      ],
      [
        "माध्य",
        -704.0
      ],
      [
        "crucial",
        -740.0
      ],
      [
        "Civilisation",
        -691.0
      ],
      [
        "माध्यम",
        -695.0
      ],
      [
        "ఈజిప్టు",
        -657.0
      ],
      [
        "ਫ਼ਰਾਂ",
        -453.0
      ],
      [
        "animals",
        -742.0
      ],
      [
        "जिनमें",
        -696.0
      ],
      [
        "ఉర్దూ",
        -678.0
      ],
      [
        "ਫ਼ਰਾਂਸ",
        -444.0
      ],
      [
        "Buddha",
        -753.0
      ],
      [
        "नाग",
        -727.0
      ],
      [
        "కంపెనీ",
        -669.0
      ],
      [
        "Middle",
        -754.0
      ],
      [
        "प्रत्ये",
        -688.0
      ],
      [
        "కేరళ",
        -690.0
      ],
      [
        "ਬਣੇ",
        -475.0
      ],
      [
        "arts",
        -775.0
      ],
      [
        "प्रत्येक",
        -679.0
      ],
      [
        "క్యాలెండర్",
        -631.0
      ],
      [
        "ਸਥਿਤ",
        -466.0
      ],
      [
        "armies",
        -756.0
      ],
      [
        "तना",
        -730.0
      ],
      [
        "గుర్జర",
        -672.0
      ],
      [
        "contain",
        -747.0
      ],
      [
        "तनाव",
        -721.0
      ],
      [
        "ਪ੍ਰਸਿੱ",
        -447.0
      ],
      [
        "గౌహతి",
        -683.0
      ],
      [
        "nor",
        -788.0
      ],
      [
        "संबं",
        -722.0
      ],
      [
        "జంతువు",
        -674.0
      ],
      [
        "ron",
        -789.0
      ],
      [
        "ਪ੍ਰਸਿੱਧ",
        -438.0
      ],
      [
        "रूस",
        -733.0
      ],
      [
        "తక్కువ",
        -675.0
      ],
      [
        "ca",
        -800.0
      ],
      [
        "हाल",
        -734.0
      ],
      [
        "ਹਵੀਂ",
        -469.0
      ],
      [
        "cap",
        -791.0
      ],
      [
        "తీవ్ర",
        -686.0
      ],
      [
        "दारी",
        -725.0
      ],
      [
        "ately",
        -772.0
      ],
      [
        "పంజాబు",
        -677.0
      ],
      [
        "ਟਲ",
        -490.0
      ],
      [
        "अमेरिका",
        -696.0
      ],
      [
        "tradition",
        -733.0
      ],
      [
        "పునరుద్ధరణ",
        -638.0
      ],
      [
        "तरह",
        -737.0
      ],
      [
        "han",
        -794.0
      ],
      [
        "ਸਥਾਪ",
        -471.0
      ],
      [
        "ప్రతిపాదన",
        -649.0
      ],
      [
        "चीफ",
        -738.0
      ],
      [
        "ances",
        -775.0
      ],
      [
        "ప్రాధాన్య",
        -650.0
      ],
      [
        "ਸੰਘਰਸ਼",
        -452.0
      ],
      [
        "ents",
        -786.0
      ],
      [
        "कही",
        -739.0
      ],
      [
        "వస్త్రధారణ",
        -641.0
      ],
      [
        "ven",
        -797.0
      ],
      [
        "पर्य",
        -730.0
      ],
      [
        "ਕੀਤੇ",
        -473.0
      ],
      [
        "విశిష్ట",
        -672.0
      ],
      [
        "etic",
        -788.0
      ],
      [
        "अति",
        -741.0
      ],
      [
        "ਸਿੰਘ",
        -474.0
      ],
      [
        "శిఖరాగ్ర",
        -663.0
      ],
      [
        "strength",
        -749.0
      ],
      [
        "भाषाएँ",
        -712.0
      ],
      [
        "సముద్రతీర",
        -654.0
      ],
      [
        "Treaty",
        -770.0
      ],
      [
        "भील",
        -743.0
      ],
      [
        "ਜਨਵਰੀ",
        -465.0
      ],
      [
        "relations",
        -741.0
      ],
      [
        "సమైఖ్య",
        -685.0
      ],
      [
        "चित",
        -744.0
      ],
      [
        "rather",
        -772.0
      ],
      [
        "ਪ੍ਰਧਾਨ",
        -456.0
      ],
      [
        "సరస్వతీ",
        -676.0
      ],
      [
        "लोकप्रिय",
        -695.0
      ],
      [
        "Nicobar",
        -763.0
      ],
      [
        "సాంప్రదాయ",
        -657.0
      ],
      [
        "सिने",
        -736.0
      ],
      [
        "ਛੋਟੇ",
        -477.0
      ],
      [
        "sovereignty",
        -724.0
      ],
      [
        "ఖల్సా",
        -698.0
      ],
      [
        "सिनेमा",
        -717.0
      ],
      [
        "belong",
        -775.0
      ],
      [
        "ਪ੍ਰੀ",
        -478.0
      ],
      [
        "జనగణ",
        -709.0
      ],
      [
        "मिलियन",
        -718.0
      ],
      [
        "sector",
        -776.0
      ],
      [
        "ధర్మపాల",
        -680.0
      ],
      [
        "मिस्र",
        -729.0
      ],
      [
        "generally",
        -747.0
      ],
      [
        "ਪ੍ਰੀਖਿਆ",
        -449.0
      ],
      [
        "లెక్కల",
        -691.0
      ],
      [
        "पश्चा",
        -730.0
      ],
      [
        "classes",
        -768.0
      ],
      [
        "ਪਲੇ",
        -490.0
      ],
      [
        "విధానం",
        -692.0
      ],
      [
        "पश्चात",
        -721.0
      ],
      [
        "cal",
        -809.0
      ],
      [
        "Himalayan",
        -750.0
      ],
      [
        "बुद्धि",
        -722.0
      ],
      [
        "శ్రీలంక",
        -683.0
      ],
      [
        "ਪਲੇਟ",
        -481.0
      ],
      [
        "increasingly",
        -721.0
      ],
      [
        "खुदाई",
        -733.0
      ],
      [
        "బొమ్మ",
        -704.0
      ],
      [
        "ਹਿਮਾ",
        -482.0
      ],
      [
        "sites",
        -792.0
      ],
      [
        "इलाम",
        -744.0
      ],
      [
        "గ్రంథ",
        -705.0
      ],
      [
        "appear",
        -783.0
      ],
      [
        "यही",
        -755.0
      ],
      [
        "శెలవు",
        -706.0
      ],
      [
        "ਹਿਮਾਲਾ",
        -463.0
      ],
      [
        "subsequent",
        -744.0
      ],
      [
        "विख्या",
        -726.0
      ],
      [
        "కాలువలు",
        -687.0
      ],
      [
        "ਦਰਿਆ",
        -484.0
      ],
      [
        "Sikhism",
        -775.0
      ],
      [
        "विख्यात",
        -717.0
      ],
      [
        "మగధ",
        -728.0
      ],
      [
        "introduced",
        -746.0
      ],
      [
        "नपाद",
        -748.0
      ],
      [
        "ਪਠਾ",
        -495.0
      ],
      [
        "మయూర",
        -719.0
      ],
      [
        "contains",
        -767.0
      ],
      [
        "पुत्रों",
        -719.0
      ],
      [
        "ఇస్లామాబాద్",
        -650.0
      ],
      [
        "extinct",
        -778.0
      ],
      [
        "ਜਮ",
        -506.0
      ],
      [
        "नाभि",
        -750.0
      ],
      [
        "నౌకా",
        -721.0
      ],
      [
        "tom",
        -819.0
      ],
      [
        "हिम",
        -761.0
      ],
      [
        "ਅਰੁ",
        -497.0
      ],
      [
        "rit",
        -820.0
      ],
      [
        "వాస్తుశిల్పం",
        -642.0
      ],
      [
        "हिमवर्ष",
        -722.0
      ],
      [
        "lim",
        -821.0
      ],
      [
        "అస్సా",
        -713.0
      ],
      [
        "ਜਿਆਦਾਤਰ",
        -458.0
      ],
      [
        "अजना",
        -753.0
      ],
      [
        "econom",
        -792.0
      ],
      [
        "పురుషుల",
        -694.0
      ],
      [
        "अजनाभ",
        -744.0
      ],
      [
        "ff",
        -833.0
      ],
      [
        "ਉਂਦਾ",
        -489.0
      ],
      [
        "నివసించ",
        -695.0
      ],
      [
        "पर्शिया",
        -725.0
      ],
      [
        "arm",
        -824.0
      ],
      [
        "కామరుప",
        -706.0
      ],
      [
        "ਬਣਿਆ",
        -490.0
      ],
      [
        "lat",
        -825.0
      ],
      [
        "अंगि",
        -756.0
      ],
      [
        "అగ్రస్థానం",
        -667.0
      ],
      [
        "ple",
        -826.0
      ],
      [
        "अंगिरा",
        -737.0
      ],
      [
        "ਮਹੱ",
        -501.0
      ],
      [
        "ముగింపు",
        -698.0
      ],
      [
        "grow",
        -817.0
      ],
      [
        "श्रीलं",
        -738.0
      ],
      [
        "ਮਹੱਤਵਪੂਰਣ",
        -442.0
      ],
      [
        "పేరుగాంచ",
        -689.0
      ],
      [
        "sett",
        -818.0
      ],
      [
        "श्रीलंका",
        -719.0
      ],
      [
        "యాత్రికు",
        -690.0
      ],
      [
        "aff",
        -829.0
      ],
      [
        "तब",
        -780.0
      ],
      [
        "ਹਿੱਸਿ",
        -483.0
      ],
      [
        "Islam",
        -810.0
      ],
      [
        "అర్ధ",
        -731.0
      ],
      [
        "यहां",
        -761.0
      ],
      [
        "stat",
        -821.0
      ],
      [
        "ਹਿੱਸਿਆਂ",
        -464.0
      ],
      [
        "ప్రథమ",
        -722.0
      ],
      [
        "ऋग्वे",
        -752.0
      ],
      [
        "cul",
        -832.0
      ],
      [
        "గౌతమ",
        -733.0
      ],
      [
        "ऋग्वेद",
        -743.0
      ],
      [
        "ਰਾਸ਼ਟਰੀ",
        -465.0
      ],
      [
        "prom",
        -823.0
      ],
      [
        "విలీన",
        -724.0
      ],
      [
        "उत्प",
        -764.0
      ],
      [
        "ections",
        -794.0
      ],
      [
        "ਬਹੁਮਤ",
        -486.0
      ],
      [
        "కల్పం",
        -725.0
      ],
      [
        "इस्लाम",
        -745.0
      ],
      [
        "ring",
        -825.0
      ],
      [
        "పతాక",
        -736.0
      ],
      [
        "जमा",
        -776.0
      ],
      [
        "broad",
        -816.0
      ],
      [
        "ਸਿਆਸੀ",
        -487.0
      ],
      [
        "తయార",
        -737.0
      ],
      [
        "मुस्लिम",
        -737.0
      ],
      [
        "marriages",
        -777.0
      ],
      [
        "ਥੋੜ੍",
        -498.0
      ],
      [
        "పురాతన",
        -718.0
      ],
      [
        "विजयन",
        -758.0
      ],
      [
        "crit",
        -828.0
      ],
      [
        "employed",
        -789.0
      ],
      [
        "विजयनगर",
        -739.0
      ],
      [
        "అత్యధిక",
        -709.0
      ],
      [
        "ਥੋੜ੍ਹੇ",
        -479.0
      ],
      [
        "currency",
        -790.0
      ],
      [
        "लंबे",
        -770.0
      ],
      [
        "పర్షియన",
        -710.0
      ],
      [
        "ਐਨ",
        -520.0
      ],
      [
        "vention",
        -801.0
      ],
      [
        "सम्प्र",
        -751.0
      ],
      [
        "మహావీర",
        -721.0
      ],
      [
        "tu",
        -852.0
      ],
      [
        "बूत",
        -782.0
      ],
      [
        "సమాజం",
        -732.0
      ],
      [
        "ਸੰਵਿ",
        -501.0
      ],
      [
        "inequality",
        -773.0
      ],
      [
        "जिसे",
        -773.0
      ],
      [
        "కాలనీల",
        -723.0
      ],
      [
        "ਸੰਵਿਧਾਨ",
        -472.0
      ],
      [
        "schools",
        -804.0
      ],
      [
        "अहिं",
        -774.0
      ],
      [
        "మహేంద్ర",
        -714.0
      ],
      [
        "share",
        -825.0
      ],
      [
        "विरो",
        -775.0
      ],
      [
        "ਧਿਆ",
        -513.0
      ],
      [
        "వర్మ",
        -745.0
      ],
      [
        "becoming",
        -796.0
      ],
      [
        "जित",
        -786.0
      ],
      [
        "హిందూదేశం",
        -696.0
      ],
      [
        "supported",
        -787.0
      ],
      [
        "ਸਮੱਸਿਆ",
        -484.0
      ],
      [
        "आधार",
        -777.0
      ],
      [
        "శిలా",
        -747.0
      ],
      [
        "enter",
        -828.0
      ],
      [
        "आय",
        -798.0
      ],
      [
        "ਤਿੱਬਤ",
        -495.0
      ],
      [
        "tribal",
        -819.0
      ],
      [
        "పేర్కొన",
        -718.0
      ],
      [
        "बढ़ती",
        -769.0
      ],
      [
        "governments",
        -770.0
      ],
      [
        "కాలము",
        -739.0
      ],
      [
        "ਰੇਖਾ",
        -506.0
      ],
      [
        "शिक्षा",
        -760.0
      ],
      [
        "gas",
        -851.0
      ],
      [
        "భావన",
        -750.0
      ],
      [
        "सामने",
        -771.0
      ],
      [
        "try",
        -852.0
      ],
      [
        "ਪਾਦ",
        -517.0
      ],
      [
        "విడ",
        -761.0
      ],
      [
        "परंपरागत",
        -742.0
      ],
      [
        "guard",
        -833.0
      ],
      [
        "పూర్వ",
        -742.0
      ],
      [
        "ਅਕਤ",
        -518.0
      ],
      [
        "contributions",
        -754.0
      ],
      [
        "जग",
        -803.0
      ],
      [
        "సంబంధించిన",
        -693.0
      ],
      [
        "added",
        -835.0
      ],
      [
        "संर",
        -794.0
      ],
      [
        "ਅਕਤਸਾਦ",
        -489.0
      ],
      [
        "అభిప్రాయ",
        -714.0
      ],
      [
        "companies",
        -796.0
      ],
      [
        "करते",
        -785.0
      ],
      [
        "ਅਨੁਸਾਰ",
        -490.0
      ],
      [
        "సంఘ",
        -765.0
      ],
      [
        "Dal",
        -857.0
      ],
      [
        "संग",
        -796.0
      ],
      [
        "ప్రస్త",
        -736.0
      ],
      [
        "policies",
        -808.0
      ],
      [
        "संगम",
        -787.0
      ],
      [
        "ਅਬਾਦੀ",
        -501.0
      ],
      [
        "hub",
        -859.0
      ],
      [
        "సూచించ",
        -737.0
      ],
      [
        "ऋषभदेव",
        -768.0
      ],
      [
        "name",
        -850.0
      ],
      [
        "ਧਰਮਾਂ",
        -502.0
      ],
      [
        "సింధూ",
        -748.0
      ],
      [
        "प्रका",
        -779.0
      ],
      [
        "forests",
        -821.0
      ],
      [
        "నెస్",
        -759.0
      ],
      [
        "प्रचलित",
        -760.0
      ],
      [
        "ਕੋਲ",
        -523.0
      ],
      [
        "Em",
        -872.0
      ],
      [
        "పాల్గొన్న",
        -710.0
      ],
      [
        "समृ",
        -801.0
      ],
      [
        "ci",
        -873.0
      ],
      [
        "ਫ਼ੀਸਦੀ",
        -494.0
      ],
      [
        "మాత్రమే",
        -731.0
      ],
      [
        "समृद्ध",
        -772.0
      ],
      [
        "ational",
        -824.0
      ],
      [
        "మనదేశం",
        -742.0
      ],
      [
        "चर",
        -813.0
      ],
      [
        "ank",
        -865.0
      ],
      [
        "ਸੰਸਾਰ",
        -505.0
      ],
      [
        "పుత్ర",
        -753.0
      ],
      [
        "पुराना",
        -774.0
      ],
      [
        "class",
        -846.0
      ],
      [
        "ਤਟ",
        -536.0
      ],
      [
        "సంబంధ",
        -754.0
      ],
      [
        "देख",
        -805.0
      ],
      [
        "ech",
        -867.0
      ],
      [
        "play",
        -858.0
      ],
      [
        "रुप",
        -806.0
      ],
      [
        "సిక్కిం",
        -735.0
      ],
      [
        "ਅੱਤ",
        -527.0
      ],
      [
        "contribut",
        -809.0
      ],
      [
        "आते",
        -807.0
      ],
      [
        "వంతంగా",
        -746.0
      ],
      [
        "ਸਿੰਧੁ",
        -508.0
      ],
      [
        "consolid",
        -820.0
      ],
      [
        "मोहन",
        -798.0
      ],
      [
        "విద్యా",
        -747.0
      ],
      [
        "recent",
        -841.0
      ],
      [
        "हड़",
        -809.0
      ],
      [
        "పోరాడ",
        -758.0
      ],
      [
        "ਖਾਨ",
        -529.0
      ],
      [
        "extens",
        -842.0
      ],
      [
        "हड़प्पा",
        -770.0
      ],
      [
        "ముడి",
        -769.0
      ],
      [
        "ਖਾਨਦਾਨ",
        -500.0
      ],
      [
        "formal",
        -843.0
      ],
      [
        "मैदानी",
        -781.0
      ],
      [
        "పుట్ట",
        -760.0
      ],
      [
        "ressed",
        -844.0
      ],
      [
        "अस्ति",
        -792.0
      ],
      [
        "ਔਰੰ",
        -531.0
      ],
      [
        "త్వ",
        -781.0
      ],
      [
        "president",
        -815.0
      ],
      [
        "अस्तित्व",
        -763.0
      ],
      [
        "ావన",
        -782.0
      ],
      [
        "office",
        -846.0
      ],
      [
        "ਔਰੰਗ",
        -522.0
      ],
      [
        "धारित",
        -794.0
      ],
      [
        "ప్రభావాన్ని",
        -703.0
      ],
      [
        "gender",
        -847.0
      ],
      [
        "तीसरी",
        -795.0
      ],
      [
        "ਔਰੰਗਜ਼ੇ",
        -493.0
      ],
      [
        "remaining",
        -818.0
      ],
      [
        "ఫ్ర",
        -784.0
      ],
      [
        "मग",
        -826.0
      ],
      [
        "scheduled",
        -819.0
      ],
      [
        "మహిళలు",
        -755.0
      ],
      [
        "ਔਰੰਗਜ਼ੇਬ",
        -484.0
      ],
      [
        "मगध",
        -817.0
      ],
      [
        "signed",
        -850.0
      ],
      [
        "చూప",
        -786.0
      ],
      [
        "पूरे",
        -808.0
      ],
      [
        "itated",
        -851.0
      ],
      [
        "ਸਾਬ",
        -535.0
      ],
      [
        "జరిగే",
        -767.0
      ],
      [
        "शस्त्र",
        -789.0
      ],
      [
        "institution",
        -802.0
      ],
      [
        "వ్రా",
        -778.0
      ],
      [
        "ਵੱਡਾ",
        -526.0
      ],
      [
        "village",
        -843.0
      ],
      [
        "आरम्भ",
        -800.0
      ],
      [
        "ముంబ",
        -779.0
      ],
      [
        "belief",
        -854.0
      ],
      [
        "जिनके",
        -801.0
      ],
      [
        "ਆਜ਼ਾਦੀ",
        -507.0
      ],
      [
        "గుప్తుల",
        -750.0
      ],
      [
        "Democ",
        -865.0
      ],
      [
        "जिन्होंने",
        -762.0
      ],
      [
        "ਲੋਕਤੰਤਰ",
        -498.0
      ],
      [
        "బాగా",
        -781.0
      ],
      [
        "Mohenjo",
        -846.0
      ],
      [
        "प्रणा",
        -803.0
      ],
      [
        "అంచ",
        -792.0
      ],
      [
        "daro",
        -877.0
      ],
      [
        "प्रणाली",
        -784.0
      ],
      [
        "ਸਾਗਰ",
        -529.0
      ],
      [
        "organisation",
        -798.0
      ],
      [
        "్యం",
        -793.0
      ],
      [
        "विज्ञा",
        -795.0
      ],
      [
        "orally",
        -859.0
      ],
      [
        "ਪੂਰਬ",
        -530.0
      ],
      [
        "పూర్ణ",
        -774.0
      ],
      [
        "विज्ञान",
        -786.0
      ],
      [
        "transmitted",
        -810.0
      ],
      [
        "ీణ",
        -805.0
      ],
      [
        "कृष",
        -827.0
      ],
      [
        "ਮੀਨੀ",
        -531.0
      ],
      [
        "primary",
        -851.0
      ],
      [
        "ఉద్భవించి",
        -736.0
      ],
      [
        "सकता",
        -818.0
      ],
      [
        "manuscri",
        -842.0
      ],
      [
        "ਹੱਦਾਂ",
        -522.0
      ],
      [
        "బుద్ధిజ",
        -757.0
      ],
      [
        "वंशों",
        -809.0
      ],
      [
        "test",
        -883.0
      ],
      [
        "బూ",
        -808.0
      ],
      [
        "नियं",
        -820.0
      ],
      [
        "influences",
        -824.0
      ],
      [
        "ਸਰਹੱਦ",
        -523.0
      ],
      [
        "వచ్చిన",
        -769.0
      ],
      [
        "मार्ग",
        -811.0
      ],
      [
        "devotion",
        -845.0
      ],
      [
        "ਸਮੁੰ",
        -534.0
      ],
      [
        "विशा",
        -822.0
      ],
      [
        "decade",
        -866.0
      ],
      [
        "tre",
        -897.0
      ],
      [
        "विशाल",
        -813.0
      ],
      [
        "సాక్ష",
        -781.0
      ],
      [
        "ਕਰਦੇ",
        -535.0
      ],
      [
        "Front",
        -878.0
      ],
      [
        "वित",
        -834.0
      ],
      [
        "చేత",
        -802.0
      ],
      [
        "ਜਨਸੰਖਿਆ",
        -506.0
      ],
      [
        "Desert",
        -869.0
      ],
      [
        "पुर्तगाल",
        -785.0
      ],
      [
        "ఆఫ్ఘనిస్తాన్",
        -713.0
      ],
      [
        "nominal",
        -860.0
      ],
      [
        "सहित",
        -826.0
      ],
      [
        "సంస్థ",
        -784.0
      ],
      [
        "ਮਨੁੱਖ",
        -527.0
      ],
      [
        "weapons",
        -861.0
      ],
      [
        "लड़ा",
        -827.0
      ],
      [
        "్యులు",
        -785.0
      ],
      [
        "ਅਫ਼",
        -548.0
      ],
      [
        "oted",
        -892.0
      ],
      [
        "विभाजन",
        -808.0
      ],
      [
        "కళలు",
        -796.0
      ],
      [
        "disputes",
        -853.0
      ],
      [
        "स्वतन्त्रता",
        -759.0
      ],
      [
        "ਉਹਨਾਂ",
        -529.0
      ],
      [
        "నదులు",
        -787.0
      ],
      [
        "oor",
        -904.0
      ],
      [
        "प्रसार",
        -810.0
      ],
      [
        "పుస్తక",
        -778.0
      ],
      [
        "makes",
        -885.0
      ],
      [
        "ਕਾਰੀ",
        -540.0
      ],
      [
        "टल",
        -851.0
      ],
      [
        "సందర్శించ",
        -749.0
      ],
      [
        "kilometres",
        -836.0
      ],
      [
        "स्थिति",
        -812.0
      ],
      [
        "ਇਕੱ",
        -551.0
      ],
      [
        "consists",
        -857.0
      ],
      [
        "ఒల",
        -820.0
      ],
      [
        "पात",
        -843.0
      ],
      [
        "cause",
        -888.0
      ],
      [
        "సంక",
        -811.0
      ],
      [
        "ਸਿੰਧ",
        -542.0
      ],
      [
        "निर्माता",
        -794.0
      ],
      [
        "ose",
        -909.0
      ],
      [
        "పాలకుల",
        -782.0
      ],
      [
        "खर",
        -855.0
      ],
      [
        "mult",
        -900.0
      ],
      [
        "ਪੱਛਮੀ",
        -533.0
      ],
      [
        "దేవాలయాలు",
        -753.0
      ],
      [
        "अगस्त",
        -826.0
      ],
      [
        "populous",
        -861.0
      ],
      [
        "కొనసాగించా",
        -744.0
      ],
      [
        "ਤਿੰਨ",
        -544.0
      ],
      [
        "Myanmar",
        -872.0
      ],
      [
        "होना",
        -837.0
      ],
      [
        "ఖండ",
        -815.0
      ],
      [
        "nings",
        -893.0
      ],
      [
        "इंदि",
        -838.0
      ],
      [
        "ਤਨ",
        -565.0
      ],
      [
        "చరిత్రకారు",
        -746.0
      ],
      [
        "hered",
        -894.0
      ],
      [
        "इंदिरा",
        -819.0
      ],
      [
        "ਯੂਰਪੀ",
        -536.0
      ],
      [
        "జయ",
        -827.0
      ],
      [
        "plains",
        -885.0
      ],
      [
        "परीक्ष",
        -820.0
      ],
      [
        "మతాలు",
        -798.0
      ],
      [
        "capita",
        -886.0
      ],
      [
        "परीक्षण",
        -811.0
      ],
      [
        "ਮੌਜੂ",
        -547.0
      ],
      [
        "wildlife",
        -867.0
      ],
      [
        "దేవ",
        -819.0
      ],
      [
        "श्रेणी",
        -822.0
      ],
      [
        "protected",
        -858.0
      ],
      [
        "ਉਭਰੀ",
        -548.0
      ],
      [
        "వ్యవసాయం",
        -770.0
      ],
      [
        "ऊँची",
        -843.0
      ],
      [
        "originally",
        -849.0
      ],
      [
        "గ్రే",
        -811.0
      ],
      [
        "सहा",
        -854.0
      ],
      [
        "ਸਮਾਜਿ",
        -539.0
      ],
      [
        "seals",
        -900.0
      ],
      [
        "దాని",
        -812.0
      ],
      [
        "सहायक",
        -835.0
      ],
      [
        "laws",
        -911.0
      ],
      [
        "ਸਮਾਜਿਕ",
        -530.0
      ],
      [
        "ీన",
        -833.0
      ],
      [
        "पाया",
        -846.0
      ],
      [
        "practices",
        -862.0
      ],
      [
        "కాకు",
        -814.0
      ],
      [
        "पेक्षा",
        -827.0
      ],
      [
        "revenues",
        -873.0
      ],
      [
        "ਵਿਵ",
        -561.0
      ],
      [
        "వర్ధన",
        -805.0
      ],
      [
        "पूरा",
        -848.0
      ],
      [
        "safe",
        -914.0
      ],
      [
        "ਵਿਵਸਥਾ",
        -532.0
      ],
      [
        "సులు",
        -816.0
      ],
      [
        "ड़ियाँ",
        -829.0
      ],
      [
        "liberal",
        -885.0
      ],
      [
        "Thar",
        -916.0
      ],
      [
        "नामक",
        -850.0
      ],
      [
        "వర్మన",
        -807.0
      ],
      [
        "ਵਿਰਾ",
        -553.0
      ],
      [
        "drain",
        -907.0
      ],
      [
        "छह",
        -871.0
      ],
      [
        "తే",
        -838.0
      ],
      [
        "ਰਚਨਾ",
        -554.0
      ],
      [
        "moist",
        -908.0
      ],
      [
        "उष्ण",
        -852.0
      ],
      [
        "సంస్కృతం",
        -779.0
      ],
      [
        "Janata",
        -899.0
      ],
      [
        "कटि",
        -863.0
      ],
      [
        "చాళుక్యులు",
        -760.0
      ],
      [
        "ਔਰ",
        -575.0
      ],
      [
        "chosen",
        -900.0
      ],
      [
        "कटिबं",
        -844.0
      ],
      [
        "ఆన",
        -841.0
      ],
      [
        "ਔਰਤਾਂ",
        -546.0
      ],
      [
        "Indira",
        -901.0
      ],
      [
        "कटिबंधी",
        -825.0
      ],
      [
        "కీ",
        -842.0
      ],
      [
        "She",
        -932.0
      ],
      [
        "कटिबंधीय",
        -816.0
      ],
      [
        "ਸਥਿਤੀ",
        -547.0
      ],
      [
        "వైపు",
        -823.0
      ],
      [
        "ergency",
        -893.0
      ],
      [
        "भागों",
        -847.0
      ],
      [
        "స్వ",
        -834.0
      ],
      [
        "ministers",
        -874.0
      ],
      [
        "ਲਿਪੀ",
        -558.0
      ],
      [
        "शुष्क",
        -848.0
      ],
      [
        "ప్రాంతము",
        -785.0
      ],
      [
        "NDA",
        -935.0
      ],
      [
        "मही",
        -869.0
      ],
      [
        "ਈਸਾਈ",
        -559.0
      ],
      [
        "UPA",
        -936.0
      ],
      [
        "రకు",
        -836.0
      ],
      [
        "रल",
        -880.0
      ],
      [
        "Non",
        -937.0
      ],
      [
        "హె",
        -847.0
      ],
      [
        "ਮੁਸਲਿ",
        -550.0
      ],
      [
        "नीति",
        -861.0
      ],
      [
        "energy",
        -908.0
      ],
      [
        "త్రి",
        -828.0
      ],
      [
        "नेह",
        -872.0
      ],
      [
        "residents",
        -879.0
      ],
      [
        "ਮੁਸਲਿਮ",
        -541.0
      ],
      [
        "కమ",
        -849.0
      ],
      [
        "मृत्यु",
        -843.0
      ],
      [
        "compromise",
        -870.0
      ],
      [
        "జల",
        -850.0
      ],
      [
        "ਮੈਦਾ",
        -562.0
      ],
      [
        "WHO",
        -941.0
      ],
      [
        "आम",
        -884.0
      ],
      [
        "మతాల",
        -831.0
      ],
      [
        "breath",
        -912.0
      ],
      [
        "चली",
        -875.0
      ],
      [
        "ਮੈਦਾਨਾਂ",
        -533.0
      ],
      [
        "ాకా",
        -842.0
      ],
      [
        "castes",
        -913.0
      ],
      [
        "कार्यकाल",
        -826.0
      ],
      [
        "ਕਬਜ਼ੇ",
        -554.0
      ],
      [
        "ప్రాంతా",
        -803.0
      ],
      [
        "natal",
        -924.0
      ],
      [
        "गुजरा",
        -857.0
      ],
      [
        "మూ",
        -854.0
      ],
      [
        "folk",
        -935.0
      ],
      [
        "रेखा",
        -868.0
      ],
      [
        "ਨਤੀ",
        -575.0
      ],
      [
        "mathematical",
        -856.0
      ],
      [
        "వరి",
        -845.0
      ],
      [
        "प्रदेशों",
        -829.0
      ],
      [
        "Dance",
        -927.0
      ],
      [
        "ਨਤੀਜੇ",
        -556.0
      ],
      [
        "సంఖ్యా",
        -816.0
      ],
      [
        "कार्यपालिका",
        -800.0
      ],
      [
        "kameez",
        -918.0
      ],
      [
        "सदन",
        -881.0
      ],
      [
        "ਵਿਸ਼ਵ",
        -557.0
      ],
      [
        "churidars",
        -889.0
      ],
      [
        "ఒకే",
        -848.0
      ],
      [
        "राज्यसभा",
        -832.0
      ],
      [
        "dishes",
        -920.0
      ],
      [
        "ਵਿਜੈਨ",
        -558.0
      ],
      [
        "సామ్రాజ్యాలు",
        -759.0
      ],
      [
        "सदस्यों",
        -843.0
      ],
      [
        "vege",
        -941.0
      ],
      [
        "గ్గ",
        -850.0
      ],
      [
        "दूसरे",
        -864.0
      ],
      [
        "ricket",
        -922.0
      ],
      [
        "ਵਿਜੈਨਗਰ",
        -539.0
      ],
      [
        "మొదల",
        -841.0
      ],
      [
        "मंत्रि",
        -855.0
      ],
      [
        "Ocean",
        -933.0
      ],
      [
        "ਸੱਭਿਆ",
        -560.0
      ],
      [
        "ఆసియాలో",
        -812.0
      ],
      [
        "मंत्रिम",
        -846.0
      ],
      [
        "ruled",
        -934.0
      ],
      [
        "G",
        -975.0
      ],
      [
        "मंत्रिमण्ड",
        -817.0
      ],
      [
        "లె",
        -863.0
      ],
      [
        "ਸੱਭਿਆਚਾਰ",
        -531.0
      ],
      [
        "only",
        -946.0
      ],
      [
        "मंत्रिमण्डल",
        -808.0
      ],
      [
        "్యూ",
        -854.0
      ],
      [
        "ਸ਼ਾਂਤੀ",
        -552.0
      ],
      [
        "H",
        -977.0
      ],
      [
        "सारी",
        -879.0
      ],
      [
        "చి",
        -865.0
      ],
      [
        "Muslims",
        -918.0
      ],
      [
        "उसी",
        -890.0
      ],
      [
        "వే",
        -866.0
      ],
      [
        "ਸ਼ੁਰੂਆਤ",
        -543.0
      ],
      [
        "Raj",
        -959.0
      ],
      [
        "धिकार",
        -871.0
      ],
      [
        "ఫ్",
        -867.0
      ],
      [
        "ਛੱਡ",
        -584.0
      ],
      [
        "independent",
        -880.0
      ],
      [
        "नगर",
        -892.0
      ],
      [
        "ఫల",
        -868.0
      ],
      [
        "rulers",
        -931.0
      ],
      [
        "संक्षि",
        -863.0
      ],
      [
        "ਈਸਟ",
        -585.0
      ],
      [
        "ప్ల",
        -859.0
      ],
      [
        "Sultanate",
        -902.0
      ],
      [
        "संक्षिप्त",
        -834.0
      ],
      [
        "జం",
        -870.0
      ],
      [
        "Vedic",
        -943.0
      ],
      [
        "ਕੰਪ",
        -586.0
      ],
      [
        "सोवियत",
        -865.0
      ],
      [
        "మేనన",
        -851.0
      ],
      [
        "against",
        -924.0
      ],
      [
        "संबंधों",
        -856.0
      ],
      [
        "ਕੰਪਨੀ",
        -567.0
      ],
      [
        "several",
        -925.0
      ],
      [
        "రాజపుత్రుల",
        -792.0
      ],
      [
        "सामरिक",
        -867.0
      ],
      [
        "ara",
        -966.0
      ],
      [
        "విభజన",
        -843.0
      ],
      [
        "ਵਿਸਤਾਰ",
        -558.0
      ],
      [
        "भर",
        -908.0
      ],
      [
        "half",
        -957.0
      ],
      [
        "అమర",
        -864.0
      ],
      [
        "पैंतीस",
        -869.0
      ],
      [
        "They",
        -958.0
      ],
      [
        "ਮਜ਼ਬੂਤ",
        -559.0
      ],
      [
        "సుల",
        -865.0
      ],
      [
        "प्रदान",
        -870.0
      ],
      [
        "Vijayanagara",
        -879.0
      ],
      [
        "రాజవంశంగా",
        -806.0
      ],
      [
        "ਸਿੱਖਿਆ",
        -560.0
      ],
      [
        "II",
        -980.0
      ],
      [
        "सक्रि",
        -881.0
      ],
      [
        "కోల్",
        -857.0
      ],
      [
        "ut",
        -981.0
      ],
      [
        "सक्रिय",
        -872.0
      ],
      [
        "ਪ੍ਰਭਾਵ",
        -561.0
      ],
      [
        "విభజించబడ",
        -808.0
      ],
      [
        "de",
        -982.0
      ],
      [
        "भागी",
        -893.0
      ],
      [
        "ਲਹਿ",
        -592.0
      ],
      [
        "వర్ణించ",
        -829.0
      ],
      [
        "Hindus",
        -943.0
      ],
      [
        "नौसेना",
        -874.0
      ],
      [
        "తంత్ర",
        -850.0
      ],
      [
        "He",
        -984.0
      ],
      [
        "डर",
        -915.0
      ],
      [
        "ਅਹਿੰ",
        -583.0
      ],
      [
        "ind",
        -975.0
      ],
      [
        "కర",
        -881.0
      ],
      [
        "लोनि",
        -896.0
      ],
      [
        "remained",
        -926.0
      ],
      [
        "ਸਕ",
        -604.0
      ],
      [
        "స్థాపించాడ",
        -802.0
      ],
      [
        "केन्द्री",
        -857.0
      ],
      [
        "company",
        -937.0
      ],
      [
        "క్షణ",
        -863.0
      ],
      [
        "केन्द्रीय",
        -848.0
      ],
      [
        "ਜ਼ਾਦ",
        -585.0
      ],
      [
        "any",
        -978.0
      ],
      [
        "రచనల",
        -864.0
      ],
      [
        "बज",
        -919.0
      ],
      [
        "Bihar",
        -959.0
      ],
      [
        "ਵੰਡਿਆ",
        -576.0
      ],
      [
        "మో",
        -885.0
      ],
      [
        "बजट",
        -910.0
      ],
      [
        "att",
        -980.0
      ],
      [
        "పోరాట",
        -856.0
      ],
      [
        "एल",
        -921.0
      ],
      [
        "ified",
        -961.0
      ],
      [
        "ਬਹੁਗਿਣਤੀ",
        -547.0
      ],
      [
        "వతి",
        -877.0
      ],
      [
        "दस",
        -922.0
      ],
      [
        "Government",
        -912.0
      ],
      [
        "ਪੱਧਰ",
        -588.0
      ],
      [
        "దేవాలయాల",
        -828.0
      ],
      [
        "अमेरिक",
        -883.0
      ],
      [
        "Sikhs",
        -963.0
      ],
      [
        "included",
        -934.0
      ],
      [
        "अमेरिकन",
        -874.0
      ],
      [
        "బా",
        -889.0
      ],
      [
        "ਸੰਘੀ",
        -589.0
      ],
      [
        "died",
        -975.0
      ],
      [
        "तिहासि",
        -885.0
      ],
      [
        "డిస",
        -880.0
      ],
      [
        "ਸੰਸਦੀ",
        -580.0
      ],
      [
        "followed",
        -936.0
      ],
      [
        "तिहासिक",
        -876.0
      ],
      [
        "నార",
        -881.0
      ],
      [
        "defeated",
        -937.0
      ],
      [
        "अमरीकी",
        -887.0
      ],
      [
        "కర్",
        -882.0
      ],
      [
        "ਜਾਤੀ",
        -591.0
      ],
      [
        "distinct",
        -938.0
      ],
      [
        "डालर",
        -908.0
      ],
      [
        "వల",
        -893.0
      ],
      [
        "ਦੌਰਾਨ",
        -582.0
      ],
      [
        "saw",
        -989.0
      ],
      [
        "पर्यटन",
        -889.0
      ],
      [
        "లియ",
        -884.0
      ],
      [
        "emperor",
        -950.0
      ],
      [
        "स्रोत",
        -900.0
      ],
      [
        "ਇਸਦੀ",
        -593.0
      ],
      [
        "చేయడం",
        -865.0
      ],
      [
        "coastal",
        -951.0
      ],
      [
        "योगी",
        -911.0
      ],
      [
        "సి",
        -896.0
      ],
      [
        "har",
        -992.0
      ],
      [
        "ਰਿਤ",
        -604.0
      ],
      [
        "दूसरा",
        -902.0
      ],
      [
        "మే",
        -897.0
      ],
      [
        "ip",
        -1003.0
      ],
      [
        "नागा",
        -913.0
      ],
      [
        "ਇਸਦਾ",
        -595.0
      ],
      [
        "order",
        -974.0
      ],
      [
        "పడ్డ",
        -878.0
      ],
      [
        "उपयोग",
        -904.0
      ],
      [
        "At",
        -1005.0
      ],
      [
        "కుల",
        -889.0
      ],
      [
        "ਭੂਮਿ",
        -596.0
      ],
      [
        "भाषाएं",
        -895.0
      ],
      [
        "civil",
        -976.0
      ],
      [
        "కటి",
        -890.0
      ],
      [
        "भाषी",
        -916.0
      ],
      [
        "peace",
        -977.0
      ],
      [
        "ਭੂਮਿਕਾ",
        -577.0
      ],
      [
        "కోసల",
        -881.0
      ],
      [
        "प्रवा",
        -907.0
      ],
      [
        "nationalist",
        -918.0
      ],
      [
        "వంశం",
        -882.0
      ],
      [
        "ਨਿਭਾ",
        -598.0
      ],
      [
        "centre",
        -969.0
      ],
      [
        "हॉकी",
        -918.0
      ],
      [
        "్షిక",
        -883.0
      ],
      [
        "produced",
        -950.0
      ],
      [
        "वह",
        -939.0
      ],
      [
        "ਗਰੀ",
        -609.0
      ],
      [
        "్రా",
        -894.0
      ],
      [
        "expansion",
        -941.0
      ],
      [
        "विष्का",
        -900.0
      ],
      [
        "ਅਸ",
        -620.0
      ],
      [
        "ుంగ",
        -895.0
      ],
      [
        "literature",
        -932.0
      ],
      [
        "टेली",
        -921.0
      ],
      [
        "స్తు",
        -886.0
      ],
      [
        "countries",
        -943.0
      ],
      [
        "टेलीवि",
        -902.0
      ],
      [
        "ਲਝੇ",
        -611.0
      ],
      [
        "O",
        -1024.0
      ],
      [
        "లన",
        -907.0
      ],
      [
        "इन्हें",
        -903.0
      ],
      [
        "ted",
        -1005.0
      ],
      [
        "ਸਾਹਮ",
        -602.0
      ],
      [
        "ంటున్న",
        -868.0
      ],
      [
        "सुमेर",
        -914.0
      ],
      [
        "pur",
        -1006.0
      ],
      [
        "భీ",
        -909.0
      ],
      [
        "विद्वा",
        -905.0
      ],
      [
        "ਕਰਨਾ",
        -603.0
      ],
      [
        "June",
        -997.0
      ],
      [
        "ెట్",
        -900.0
      ],
      [
        "खोज",
        -936.0
      ],
      [
        "eventually",
        -938.0
      ],
      [
        "ਸ਼ਣ",
        -614.0
      ],
      [
        "టు",
        -911.0
      ],
      [
        "समु",
        -937.0
      ],
      [
        "nation",
        -979.0
      ],
      [
        "ఇట",
        -912.0
      ],
      [
        "जाकर",
        -928.0
      ],
      [
        "may",
        -1010.0
      ],
      [
        "ਹਵਾ",
        -615.0
      ],
      [
        "ఉత్తరా",
        -873.0
      ],
      [
        "धर",
        -949.0
      ],
      [
        "what",
        -1001.0
      ],
      [
        "ਟਸ",
        -626.0
      ],
      [
        "రామ",
        -904.0
      ],
      [
        "रियन",
        -930.0
      ],
      [
        "Temple",
        -982.0
      ],
      [
        "Gujarat",
        -973.0
      ],
      [
        "प्रादु",
        -911.0
      ],
      [
        "టే",
        -915.0
      ],
      [
        "ਜੰਗ",
        -617.0
      ],
      [
        "nd",
        -1024.0
      ],
      [
        "प्रादुर्भा",
        -872.0
      ],
      [
        "చు",
        -916.0
      ],
      [
        "ਸੰਸਕ੍ਰਿਤੀ",
        -558.0
      ],
      [
        "Eastern",
        -975.0
      ],
      [
        "प्रादुर्भाव",
        -863.0
      ],
      [
        "ఏర్పడ",
        -887.0
      ],
      [
        "ec",
        -1026.0
      ],
      [
        "अंत",
        -944.0
      ],
      [
        "స్తారు",
        -878.0
      ],
      [
        "ਖਿਅਤ",
        -609.0
      ],
      [
        "ik",
        -1027.0
      ],
      [
        "फैल",
        -945.0
      ],
      [
        "పోయ",
        -909.0
      ],
      [
        "ਸਥਾਨਾਂ",
        -590.0
      ],
      [
        "bl",
        -1028.0
      ],
      [
        "लेने",
        -936.0
      ],
      [
        "సంవత్సరాలు",
        -840.0
      ],
      [
        "Ma",
        -1029.0
      ],
      [
        "पुरातत्ववि",
        -877.0
      ],
      [
        "ਭਰਤ",
        -621.0
      ],
      [
        "రాన్",
        -901.0
      ],
      [
        "ned",
        -1020.0
      ],
      [
        "पुरातत्वविद्",
        -858.0
      ],
      [
        "ంచబడ",
        -902.0
      ],
      [
        "role",
        -1011.0
      ],
      [
        "ਰਿਸ਼ਭਦੇਵ",
        -572.0
      ],
      [
        "मिलाने",
        -919.0
      ],
      [
        "మి",
        -923.0
      ],
      [
        "did",
        -1022.0
      ],
      [
        "मिट्टी",
        -920.0
      ],
      [
        "ਮਦ",
        -633.0
      ],
      [
        "city",
        -1013.0
      ],
      [
        "టో",
        -924.0
      ],
      [
        "प्रोटोइलामाइट",
        -851.0
      ],
      [
        "do",
        -1034.0
      ],
      [
        "బౌద్ధుల",
        -875.0
      ],
      [
        "ਪੁਰਾਣ",
        -604.0
      ],
      [
        "तस",
        -962.0
      ],
      [
        "largely",
        -985.0
      ],
      [
        "ంద్",
        -916.0
      ],
      [
        "शक्तिशाली",
        -893.0
      ],
      [
        "scale",
        -1006.0
      ],
      [
        "ਕਾਸ਼",
        -615.0
      ],
      [
        "చేర",
        -917.0
      ],
      [
        "औरं",
        -954.0
      ],
      [
        "medieval",
        -977.0
      ],
      [
        "ములో",
        -908.0
      ],
      [
        "ਭੂਮੀ",
        -616.0
      ],
      [
        "similar",
        -988.0
      ],
      [
        "औरंग",
        -945.0
      ],
      [
        "స్య",
        -919.0
      ],
      [
        "U",
        -1049.0
      ],
      [
        "औरंगज़े",
        -916.0
      ],
      [
        "ਸ਼ੀਆਂ",
        -607.0
      ],
      [
        "సంస్కర",
        -890.0
      ],
      [
        "ud",
        -1040.0
      ],
      [
        "औरंगज़ेब",
        -907.0
      ],
      [
        "ਖਾਸ",
        -628.0
      ],
      [
        "నద",
        -931.0
      ],
      [
        "par",
        -1031.0
      ],
      [
        "भक्त",
        -948.0
      ],
      [
        "ఓడించి",
        -892.0
      ],
      [
        "ell",
        -1032.0
      ],
      [
        "पृथ्वी",
        -929.0
      ],
      [
        "ਹੁੰਦੀ",
        -609.0
      ],
      [
        "ress",
        -1023.0
      ],
      [
        "ుస్త",
        -913.0
      ],
      [
        "इन्होंने",
        -910.0
      ],
      [
        "Al",
        -1044.0
      ],
      [
        "ਜੰਬੂ",
        -620.0
      ],
      [
        "సాహిత్యం",
        -874.0
      ],
      [
        "वेदो",
        -951.0
      ],
      [
        "ma",
        -1045.0
      ],
      [
        "చెల్",
        -915.0
      ],
      [
        "वेदोदय",
        -932.0
      ],
      [
        "ਜਾਣਿਆ",
        -611.0
      ],
      [
        "uk",
        -1046.0
      ],
      [
        "కులాల",
        -906.0
      ],
      [
        "अभिमन्यु",
        -913.0
      ],
      [
        "fish",
        -1027.0
      ],
      [
        "ਅੱਗੇ",
        -622.0
      ],
      [
        "ఆంగ్ల",
        -907.0
      ],
      [
        "चक्र",
        -954.0
      ],
      [
        "To",
        -1048.0
      ],
      [
        "బహు",
        -928.0
      ],
      [
        "चक्रव",
        -945.0
      ],
      [
        "groups",
        -1009.0
      ],
      [
        "ਪਾਤ",
        -633.0
      ],
      [
        "క్షి",
        -919.0
      ],
      [
        "चक्रवर्ती",
        -906.0
      ],
      [
        "humans",
        -1010.0
      ],
      [
        "ਹਮਲਾ",
        -624.0
      ],
      [
        "వర్ష",
        -920.0
      ],
      [
        "प्रान्त",
        -927.0
      ],
      [
        "declared",
        -991.0
      ],
      [
        "legislature",
        -962.0
      ],
      [
        "देमा",
        -958.0
      ],
      [
        "నాయక్",
        -911.0
      ],
      [
        "ਕੁਝ",
        -635.0
      ],
      [
        "includes",
        -993.0
      ],
      [
        "विजे",
        -959.0
      ],
      [
        "ికి",
        -932.0
      ],
      [
        "ਦੋਨਾਂ",
        -616.0
      ],
      [
        "late",
        -1034.0
      ],
      [
        "विजेता",
        -940.0
      ],
      [
        "ఆచార",
        -923.0
      ],
      [
        "occurred",
        -995.0
      ],
      [
        "नगरी",
        -961.0
      ],
      [
        "పని",
        -934.0
      ],
      [
        "ਉਂਦੇ",
        -627.0
      ],
      [
        "gained",
        -1016.0
      ],
      [
        "मंड",
        -972.0
      ],
      [
        "యాల",
        -935.0
      ],
      [
        "ਸਾਰੀ",
        -628.0
      ],
      [
        "winds",
        -1027.0
      ],
      [
        "मंडल",
        -963.0
      ],
      [
        "చేసుకున్నారు",
        -846.0
      ],
      [
        "cent",
        -1038.0
      ],
      [
        "दृष्टिको",
        -924.0
      ],
      [
        "ਕਰਯੋਗ",
        -619.0
      ],
      [
        "లాస",
        -937.0
      ],
      [
        "ult",
        -1049.0
      ],
      [
        "पाल",
        -975.0
      ],
      [
        "పాలి",
        -928.0
      ],
      [
        "ash",
        -1050.0
      ],
      [
        "ਮਹਾਦੀਪ",
        -610.0
      ],
      [
        "हिन्द",
        -956.0
      ],
      [
        "ంప",
        -949.0
      ],
      [
        "ue",
        -1061.0
      ],
      [
        "महासागर",
        -937.0
      ],
      [
        "ਸ਼ਾਣ",
        -631.0
      ],
      [
        "des",
        -1052.0
      ],
      [
        "మార్గం",
        -910.0
      ],
      [
        "मालदी",
        -958.0
      ],
      [
        "Kal",
        -1053.0
      ],
      [
        "శాతవాహనుల",
        -881.0
      ],
      [
        "ਚਾਲੁ",
        -632.0
      ],
      [
        "मालदीव",
        -949.0
      ],
      [
        "wards",
        -1034.0
      ],
      [
        "కను",
        -942.0
      ],
      [
        "बंगाल",
        -960.0
      ],
      [
        "lasted",
        -1025.0
      ],
      [
        "ਲਵ",
        -653.0
      ],
      [
        "వ్రాయబడి",
        -893.0
      ],
      [
        "चुकी",
        -971.0
      ],
      [
        "levels",
        -1026.0
      ],
      [
        "చ్",
        -954.0
      ],
      [
        "ਆਸਪਾ",
        -634.0
      ],
      [
        "October",
        -1017.0
      ],
      [
        "उनका",
        -972.0
      ],
      [
        "రణం",
        -945.0
      ],
      [
        "Some",
        -1048.0
      ],
      [
        "सेनाओं",
        -953.0
      ],
      [
        "ਆਸਪਾਸ",
        -625.0
      ],
      [
        "కరువుల",
        -916.0
      ],
      [
        "princes",
        -1019.0
      ],
      [
        "मैदानों",
        -944.0
      ],
      [
        "ਸੰਗਮ",
        -636.0
      ],
      [
        "సమయ",
        -947.0
      ],
      [
        "percent",
        -1020.0
      ],
      [
        "लगाता",
        -965.0
      ],
      [
        "నత",
        -958.0
      ],
      [
        "using",
        -1041.0
      ],
      [
        "लगातार",
        -956.0
      ],
      [
        "ਗੋਲ",
        -647.0
      ],
      [
        "industrial",
        -992.0
      ],
      [
        "రుస",
        -949.0
      ],
      [
        "अन्ततः",
        -957.0
      ],
      [
        "various",
        -1023.0
      ],
      [
        "ਦਰਸ਼ਨ",
        -628.0
      ],
      [
        "పేర్కొన్న",
        -890.0
      ],
      [
        "चलने",
        -978.0
      ],
      [
        "spreading",
        -1004.0
      ],
      [
        "సరి",
        -951.0
      ],
      [
        "ईस्ट",
        -979.0
      ],
      [
        "ਅਨੇਕਾਂ",
        -619.0
      ],
      [
        "valley",
        -1035.0
      ],
      [
        "బు",
        -962.0
      ],
      [
        "कंप",
        -990.0
      ],
      [
        "brought",
        -1026.0
      ],
      [
        "ਹੋਂਦ",
        -640.0
      ],
      [
        "ును",
        -953.0
      ],
      [
        "जिसने",
        -971.0
      ],
      [
        "series",
        -1037.0
      ],
      [
        "ర్లు",
        -944.0
      ],
      [
        "प्रभावशाली",
        -922.0
      ],
      [
        "rebellion",
        -1008.0
      ],
      [
        "ਜੋਰ",
        -651.0
      ],
      [
        "యా",
        -965.0
      ],
      [
        "आंदो",
        -983.0
      ],
      [
        "break",
        -1049.0
      ],
      [
        "ਸਿੱਖਾਂ",
        -622.0
      ],
      [
        "స్థానం",
        -926.0
      ],
      [
        "आंदोलन",
        -964.0
      ],
      [
        "cont",
        -1060.0
      ],
      [
        "Th",
        -1081.0
      ],
      [
        "विरोध",
        -975.0
      ],
      [
        "భూ",
        -967.0
      ],
      [
        "ਪੁਰਤਗਾਲ",
        -613.0
      ],
      [
        "ann",
        -1072.0
      ],
      [
        "व्यक्ति",
        -956.0
      ],
      [
        "ట్టలు",
        -938.0
      ],
      [
        "ਰੋਕ",
        -654.0
      ],
      [
        "ight",
        -1063.0
      ],
      [
        "साक्षर",
        -967.0
      ],
      [
        "ఓడించా",
        -929.0
      ],
      [
        "ities",
        -1054.0
      ],
      [
        "साक्षरता",
        -948.0
      ],
      [
        "నాలు",
        -950.0
      ],
      [
        "ਵੀਹਵੀਂ",
        -625.0
      ],
      [
        "ten",
        -1075.0
      ],
      [
        "पुरुषों",
        -959.0
      ],
      [
        "వా",
        -971.0
      ],
      [
        "ਰਾਜਨੀਤਕ",
        -616.0
      ],
      [
        "old",
        -1076.0
      ],
      [
        "एवम",
        -1000.0
      ],
      [
        "మ్",
        -972.0
      ],
      [
        "yan",
        -1077.0
      ],
      [
        "महि",
        -1001.0
      ],
      [
        "ਪਰਿ",
        -657.0
      ],
      [
        "ఆల",
        -973.0
      ],
      [
        "ons",
        -1078.0
      ],
      [
        "सूचना",
        -982.0
      ],
      [
        "హర",
        -974.0
      ],
      [
        "ga",
        -1089.0
      ],
      [
        "ਸਥਾਪਨਾ",
        -628.0
      ],
      [
        "सेवाओं",
        -973.0
      ],
      [
        "ప్రారంభం",
        -915.0
      ],
      [
        "fer",
        -1080.0
      ],
      [
        "प्रगति",
        -974.0
      ],
      [
        "ਚੱਲਿਆ",
        -639.0
      ],
      [
        "soon",
        -1071.0
      ],
      [
        "త్వం",
        -956.0
      ],
      [
        "हद",
        -1015.0
      ],
      [
        "ning",
        -1072.0
      ],
      [
        "్న",
        -977.0
      ],
      [
        "ਰੁਪ",
        -660.0
      ],
      [
        "अस",
        -1016.0
      ],
      [
        "six",
        -1083.0
      ],
      [
        "సమాఖ్య",
        -938.0
      ],
      [
        "वन",
        -1017.0
      ],
      [
        "particular",
        -1014.0
      ],
      [
        "ਪਿਤਾ",
        -651.0
      ],
      [
        "ఏర్పర",
        -949.0
      ],
      [
        "जंगलों",
        -978.0
      ],
      [
        "cing",
        -1075.0
      ],
      [
        "యంలో",
        -960.0
      ],
      [
        "ਜਾਂਦੇ",
        -642.0
      ],
      [
        "access",
        -1056.0
      ],
      [
        "जगहों",
        -989.0
      ],
      [
        "చేసుకు",
        -941.0
      ],
      [
        "dominion",
        -1037.0
      ],
      [
        "निवास",
        -990.0
      ],
      [
        "ਚੰਦਰ",
        -653.0
      ],
      [
        "సౌకర్య",
        -942.0
      ],
      [
        "Kerala",
        -1058.0
      ],
      [
        "महात्मा",
        -971.0
      ],
      [
        "ਫਲਸ",
        -664.0
      ],
      [
[...]
