{
  "version": "1.0",
  "truncation": null,
  "padding": null,
  "added_tokens": [],
  "normalizer": null,
  "pre_tokenizer": {
    "type": "ScriptAwareRegex"
  },
  "post_processor": null,
  "decoder": {
    "type": "ByteFallbackConcat"
  },
  "model": {
    "type": "MergedVocab",
    "vocab_size": 10000,
    "vocab": {
      "ం": 0,
      "ః": 1,
      "అ": 2,
      "ఆ": 3,
      "ఇ": 4,
      "ఈ": 5,
      "ఉ": 6,
      "ఋ": 7,
      "ఎ": 8,
      "ఏ": 9,
      "ఐ": 10,
      "ఒ": 11,
      "ఓ": 12,
      "ఔ": 13,
      "క": 14,
      "ఖ": 15,
      "గ": 16,
      "ఘ": 17,
      "చ": 18,
      "ఛ": 19,
      "జ": 20,
      "ఞ": 21,
      "ట": 22,
      "ఠ": 23,
      "డ": 24,
      "ఢ": 25,
      "ణ": 26,
      "త": 27,
      "థ": 28,
      "ద": 29,
      "ధ": 30,
      "న": 31,
      "ప": 32,
      "ఫ": 33,
      "బ": 34,
      "భ": 35,
      "మ": 36,
      "య": 37,
      "ర": 38,
      "ల": 39,
      "ళ": 40,
      "వ": 41,
      "శ": 42,
      "ష": 43,
      "స": 44,
      "హ": 45,
      "ా": 46,
      "ి": 47,
      "ీ": 48,
      "ు": 49,
      "ూ": 50,
      "ృ": 51,
      "ె": 52,
      "ే": 53,
      "ై": 54,
      "ొ": 55,
      "ో": 56,
      "ౌ": 57,
      "్": 58,
      "<0x00>": 59,
      "<0x01>": 60,
      "<0x02>": 61,
      "<0x03>": 62,
      "<0x04>": 63,
      "<0x05>": 64,
      "<0x06>": 65,
      "<0x07>": 66,
      "<0x08>": 67,
      "<0x09>": 68,
      "<0x0A>": 69,
      "<0x0B>": 70,
      "<0x0C>": 71,
      "<0x0D>": 72,
      "<0x0E>": 73,
      "<0x0F>": 74,
      "<0x10>": 75,
      "<0x11>": 76,
      "<0x12>": 77,
      "<0x13>": 78,
      "<0x14>": 79,
      "<0x15>": 80,
      "<0x16>": 81,
      "<0x17>": 82,
      "<0x18>": 83,
      "<0x19>": 84,
      "<0x1A>": 85,
      "<0x1B>": 86,
      "<0x1C>": 87,
      "<0x1D>": 88,
      "<0x1E>": 89,
      "<0x1F>": 90,
      "<0x20>": 91,
      "<0x21>": 92,
      "<0x22>": 93,
      "<0x23>": 94,
      "<0x24>": 95,
      "<0x25>": 96,
      "<0x26>": 97,
      "<0x27>": 98,
      "<0x28>": 99,
      "<0x29>": 100,
      "<0x2A>": 101,
      "<0x2B>": 102,
      "<0x2C>": 103,
      "<0x2D>": 104,
      "<0x2E>": 105,
      "<0x2F>": 106,
      "<0x30>": 107,
      "<0x31>": 108,
      "<0x32>": 109,
      "<0x33>": 110,
      "<0x34>": 111,
      "<0x35>": 112,
      "<0x36>": 113,
      "<0x37>": 114,
      "<0x38>": 115,
      "<0x39>": 116,
      "<0x3A>": 117,
      "<0x3B>": 118,
      "<0x3C>": 119,
      "<0x3D>": 120,
      "<0x3E>": 121,
      "<0x3F>": 122,
      "<0x40>": 123,
      "<0x41>": 124,
      "<0x42>": 125,
      "<0x43>": 126,
      "<0x44>": 127,
      "<0x45>": 128,
      "<0x46>": 129,
      "<0x47>": 130,
      "<0x48>": 131,
      "<0x49>": 132,
      "<0x4A>": 133,
      "<0x4B>": 134,
      "<0x4C>": 135,
      "<0x4D>": 136,
      "<0x4E>": 137,
      "<0x4F>": 138,
      "<0x50>": 139,
      "<0x51>": 140,
      "<0x52>": 141,
      "<0x53>": 142,
      "<0x54>": 143,
      "<0x55>": 144,
      "<0x56>": 145,
      "<0x57>": 146,
      "<0x58>": 147,
      "<0x59>": 148,
      "<0x5A>": 149,
      "<0x5B>": 150,
      "<0x5C>": 151,
      "<0x5D>": 152,
      "<0x5E>": 153,
      "<0x5F>": 154,
      "<0x60>": 155,
      "<0x61>": 156,
      "<0x62>": 157,
      "<0x63>": 158,
      "<0x64>": 159,
      "<0x65>": 160,
      "<0x66>": 161,
      "<0x67>": 162,
      "<0x68>": 163,
      "<0x69>": 164,
      "<0x6A>": 165,
      "<0x6B>": 166,
      "<0x6C>": 167,
      "<0x6D>": 168,
      "<0x6E>": 169,
      "<0x6F>": 170,
      "<0x70>": 171,
      "<0x71>": 172,
      "<0x72>": 173,
      "<0x73>": 174,
      "<0x74>": 175,
      "<0x75>": 176,
      "<0x76>": 177,
      "<0x77>": 178,
      "<0x78>": 179,
      "<0x79>": 180,
      "<0x7A>": 181,
      "<0x7B>": 182,
      "<0x7C>": 183,
      "<0x7D>": 184,
      "<0x7E>": 185,
      "<0x7F>": 186,
      "<0x80>": 187,
      "<0x81>": 188,
      "<0x82>": 189,
      "<0x83>": 190,
      "<0x84>": 191,
      "<0x85>": 192,
      "<0x86>": 193,
      "<0x87>": 194,
      "<0x88>": 195,
      "<0x89>": 196,
      "<0x8A>": 197,
      "<0x8B>": 198,
      "<0x8C>": 199,
      "<0x8D>": 200,
      "<0x8E>": 201,
      "<0x8F>": 202,
      "<0x90>": 203,
      "<0x91>": 204,
      "<0x92>": 205,
      "<0x93>": 206,
      "<0x94>": 207,
      "<0x95>": 208,
      "<0x96>": 209,
      "<0x97>": 210,
      "<0x98>": 211,
      "<0x99>": 212,
      "<0x9A>": 213,
      "<0x9B>": 214,
      "<0x9C>": 215,
      "<0x9D>": 216,
      "<0x9E>": 217,
      "<0x9F>": 218,
      "<0xA0>": 219,
      "<0xA1>": 220,
      "<0xA2>": 221,
      "<0xA3>": 222,
      "<0xA4>": 223,
      "<0xA5>": 224,
      "<0xA6>": 225,
      "<0xA7>": 226,
      "<0xA8>": 227,
      "<0xA9>": 228,
      "<0xAA>": 229,
      "<0xAB>": 230,
      "<0xAC>": 231,
      "<0xAD>": 232,
      "<0xAE>": 233,
      "<0xAF>": 234,
      "<0xB0>": 235,
      "<0xB1>": 236,
      "<0xB2>": 237,
      "<0xB3>": 238,
      "<0xB4>": 239,
      "<0xB5>": 240,
      "<0xB6>": 241,
      "<0xB7>": 242,
      "<0xB8>": 243,
      "<0xB9>": 244,
      "<0xBA>": 245,
      "<0xBB>": 246,
      "<0xBC>": 247,
      "<0xBD>": 248,
      "<0xBE>": 249,
      "<0xBF>": 250,
      "<0xC0>": 251,
      "<0xC1>": 252,
      "<0xC2>": 253,
      "<0xC3>": 254,
      "<0xC4>": 255,
      "<0xC5>": 256,
      "<0xC6>": 257,
      "<0xC7>": 258,
      "<0xC8>": 259,
      "<0xC9>": 260,
      "<0xCA>": 261,
      "<0xCB>": 262,
      "<0xCC>": 263,
      "<0xCD>": 264,
      "<0xCE>": 265,
      "<0xCF>": 266,
      "<0xD0>": 267,
      "<0xD1>": 268,
      "<0xD2>": 269,
      "<0xD3>": 270,
      "<0xD4>": 271,
      "<0xD5>": 272,
      "<0xD6>": 273,
      "<0xD7>": 274,
      "<0xD8>": 275,
      "<0xD9>": 276,
      "<0xDA>": 277,
      "<0xDB>": 278,
      "<0xDC>": 279,
      "<0xDD>": 280,
      "<0xDE>": 281,
      "<0xDF>": 282,
      "<0xE0>": 283,
      "<0xE1>": 284,
      "<0xE2>": 285,
      "<0xE3>": 286,
      "<0xE4>": 287,
      "<0xE5>": 288,
      "<0xE6>": 289,
      "<0xE7>": 290,
      "<0xE8>": 291,
      "<0xE9>": 292,
      "<0xEA>": 293,
      "<0xEB>": 294,
      "<0xEC>": 295,
      "<0xED>": 296,
      "<0xEE>": 297,
      "<0xEF>": 298,
      "<0xF0>": 299,
      "<0xF1>": 300,
      "<0xF2>": 301,
      "<0xF3>": 302,
      "<0xF4>": 303,
      "<0xF5>": 304,
      "<0xF6>": 305,
      "<0xF7>": 306,
      "<0xF8>": 307,
      "<0xF9>": 308,
      "<0xFA>": 309,
      "<0xFB>": 310,
      "<0xFC>": 311,
      "<0xFD>": 312,
      "<0xFE>": 313,
      "<0xFF>": 314,
      "</w>": 315,
      "లో": 316,
      "the": 317,
      "भार": 318,
      "and": 319,
      "और": 320,
      "ਵਿੱਚ": 321,
      "of": 322,
      "भारत": 323,
      "ਭਾਰ": 324,
      "in": 325,
      "पर": 326,
      "ని": 327,
      "India": 328,
      "कर": 329,
      "ਭਾਰਤ": 330,
      "గా": 331,
      "to": 332,
      "इस": 333,
      "a": 334,
      "ਅਤੇ": 335,
      "सभ्य": 336,
      "is": 337,
      "सभ्यता": 338,
      "ਇੱਕ": 339,
      "The": 340,
      "ారు": 341,
      "तीय": 342,
      "by": 343,
      "ਇਸ": 344,
      "भारतीय": 345,
      "Indian": 346,
      "ింది": 347,
      "तथा": 348,
      "'s": 349,
      "ਪੂਰ": 350,
      "एक": 351,
      "as": 352,
      "లు": 353,
      "ਨਾਲ": 354,
      "was": 355,
      "तक": 356,
      "ంది": 357,
      "with": 358,
      "कार": 359,
      "ਰਾਜ": 360,
      "కు": 361,
      "ing": 362,
      "नाम": 363,
      "ਤਰ": 364,
      "ను": 365,
      "s": 366,
      "किया": 367,
      "ంగా": 368,
      "on": 369,
      "बाद": 370,
      "ਹਨ": 371,
      "has": 372,
      "సామ్రాజ్యం": 373,
      "राज": 374,
      "In": 375,
      "ਪ੍ਰ": 376,
      "తో": 377,
      "गया": 378,
      "from": 379,
      "देश": 380,
      "ਕਰ": 381,
      "an": 382,
      "पूर्व": 383,
      "or": 384,
      "ਸਨ": 385,
      "ానికి": 386,
      "राज्य": 387,
      "which": 388,
      "सम": 389,
      "for": 390,
      "ਕਾਰ": 391,
      "ాలు": 392,
      "काल": 393,
      "its": 394,
      "ਧਰ": 395,
      "తరువాత": 396,
      "जन": 397,
      "at": 398,
      "i": 399,
      "हुआ": 400,
      "నుండి": 401,
      "ਗਿਆ": 402,
      "were": 403,
      "यह": 404,
      "భారతదేశంలో": 405,
      "ਭਾਰਤੀ": 406,
      "are": 407,
      "सर": 408,
      "ాన్ని": 409,
      "th": 410,
      "दक्षि": 411,
      "ది": 412,
      "ਉੱਤੇ": 413,
      "ed": 414,
      "जिस": 415,
      "మధ్య": 416,
      "ਇਆ": 417,
      "t": 418,
      "दक्षिण": 419,
      "into": 420,
      "शास": 421,
      "ਸਤਾ": 422,
      "భారత": 423,
      "c": 424,
      "मान": 425,
      "తెలంగాణ": 426,
      "al": 427,
      "ਇਹ": 428,
      "सब": 429,
      "Section": 430,
      "सबसे": 431,
      "ਬਾਅ": 432,
      "Level": 433,
      "పూ": 434,
      "अप": 435,
      "it": 436,
      "ము": 437,
      "ਬਾਅਦ": 438,
      "रूप": 439,
      "es": 440,
      "ఉంది": 441,
      "अधि": 442,
      "y": 443,
      "ਦੱਖ": 444,
      "భారతీయ": 445,
      "साथ": 446,
      "d": 447,
      "భారతదేశ": 448,
      "ਸਰ": 449,
      "ic": 450,
      "वर्ष": 451,
      "world": 452,
      "महा": 453,
      "ਪੂਰਵ": 454,
      "ఉత్తర": 455,
      "er": 456,
      "चीन": 457,
      "ਦਰ": 458,
      "దక్షిణ": 459,
      "be": 460,
      "ईसा": 461,
      "వరకు": 462,
      "p": 463,
      "हुए": 464,
      "ਦੀਆਂ": 465,
      "first": 466,
      "ఇద": 467,
      "युग": 468,
      "b": 469,
      "ਜਿਸ": 470,
      "भाषा": 471,
      "government": 472,
      "बहु": 473,
      "ਧਰਮ": 474,
      "ly": 475,
      "పు": 476,
      "समय": 477,
      "had": 478,
      "ਕੀਤਾ": 479,
      "డు": 480,
      "शासन": 481,
      "during": 482,
      "కి": 483,
      "तिहा": 484,
      "e": 485,
      "ਦੇਸ਼": 486,
      "క్రీ": 487,
      "उत्त": 488,
      "en": 489,
      "ਸਤਾਨ": 490,
      "ాయి": 491,
      "मनु": 492,
      "became": 493,
      "century": 494,
      "हुई": 495,
      "ంలో": 496,
      "ਪ੍ਰਾ": 497,
      "but": 498,
      "जाति": 499,
      "ఉన్న": 500,
      "ਹੋਇਆ": 501,
      "m": 502,
      "दिया": 503,
      "అభివృద్ధి": 504,
      "been": 505,
      "जाता": 506,
      "రు": 507,
      "ਸਥਾ": 508,
      "largest": 509,
      "धान": 510,
      "ాడు": 511,
      "ਹਾਸ": 512,
      "also": 513,
      "इन": 514,
      "have": 515,
      "प्राचीन": 516,
      "ਪਾਰ": 517,
      "శతాబ్దం": 518,
      "most": 519,
      "लय": 520,
      "మొదటి": 521,
      "over": 522,
      "ਆਪ": 523,
      "बना": 524,
      "million": 525,
      "इतिहा": 526,
      "ਗਰ": 527,
      "after": 528,
      "ులు": 529,
      "इतिहास": 530,
      "such": 531,
      "ఒక": 532,
      "ਤਰੀ": 533,
      "धर्म": 534,
      "l": 535,
      "ఉన్నాయి": 536,
      "सार": 537,
      "system": 538,
      "ਪਰ": 539,
      "పాలన": 540,
      "पह": 541,
      "Congress": 542,
      "ਤਕ": 543,
      "art": 544,
      "प्रदेश": 545,
      "స్": 546,
      "that": 547,
      "मध्य": 548,
      "ਭਿਅ": 549,
      "జిల్లా": 550,
      "South": 551,
      "निक": 552,
      "ਭਿਅਤਾ": 553,
      "వారి": 554,
      "years": 555,
      "कह": 556,
      "లను": 557,
      "st": 558,
      "रिक": 559,
      "ਤੱਕ": 560,
      "ar": 561,
      "రాష్ట్ర": 562,
      "यन": 563,
      "modern": 564,
      "ਲਈ": 565,
      "భారతదేశం": 566,
      "देशों": 567,
      "more": 568,
      "కూడ": 569,
      "उत्तर": 570,
      "ਵਰ": 571,
      "A": 572,
      "వారు": 573,
      "इसी": 574,
      "k": 575,
      "ਚੀਨ": 576,
      "ిన": 577,
      "अनु": 578,
      "g": 579,
      "హిందూ": 580,
      "विक": 581,
      "n": 582,
      "ਜਨ": 583,
      "కాలంలో": 584,
      "सित": 585,
      "two": 586,
      "ਈਸ": 587,
      "అనే": 588,
      "राज्यों": 589,
      "f": 590,
      "ive": 591,
      "उप": 592,
      "జాతీయ": 593,
      "ਪਤ": 594,
      "both": 595,
      "विश्व": 596,
      "మంది": 597,
      "ਕਾਲ": 598,
      "prime": 599,
      "स्तान": 600,
      "జనాభా": 601,
      "BCE": 602,
      "लग": 603,
      "న్": 604,
      "ਇਤਿ": 605,
      "under": 606,
      "नहीं": 607,
      "బడింది": 608,
      "ਖਿਆ": 609,
      "Asia": 610,
      "सरकार": 611,
      "P": 612,
      "शिया": 613,
      "ਬਹੁ": 614,
      "di": 615,
      "लिए": 616,
      "రాజవంశం": 617,
      "caste": 618,
      "ਲਿਆ": 619,
      "अव": 620,
      "తూర్పు": 621,
      "British": 622,
      "उस": 623,
      "ਸ਼ਾਸਨ": 624,
      "Empire": 625,
      "పెద్ద": 626,
      "अंग्रे": 627,
      "their": 628,
      "పా": 629,
      "ਇਤਿਹਾਸ": 630,
      "तिक": 631,
      "this": 632,
      "వి": 633,
      "क्षेत्र": 634,
      "all": 635,
      "ਵਲੋਂ": 636,
      "ిక": 637,
      "भूमि": 638,
      "ation": 639,
      "సా": 640,
      "ਪਹਿ": 641,
      "re": 642,
      "हिन्दी": 643,
      "population": 644,
      "वंश": 645,
      "ਸਭਿਅਤਾ": 646,
      "ent": 647,
      "कई": 648,
      "ਸ਼ਟ": 649,
      "ల్": 650,
      "form": 651,
      "अपने": 652,
      "ప్రపంచ": 653,
      "ions": 654,
      "इला": 655,
      "ਨ੍ਹਾਂ": 656,
      "minister": 657,
      "ఇతర": 658,
      "संस्कृ": 659,
      "language": 660,
      "ਦੱਖਣ": 661,
      "ఆయన": 662,
      "साम्रा": 663,
      "between": 664,
      "కాలం": 665,
      "उन": 666,
      "ਪਾਕਿ": 667,
      "Pakistan": 668,
      "ట్": 669,
      "सेना": 670,
      "large": 671,
      "ਰੂਪ": 672,
      "పేరు": 673,
      "अन्य": 674,
      "un": 675,
      "మైన": 676,
      "पुरा": 677,
      "per": 678,
      "ਸਦੀ": 679,
      "మూడ": 680,
      "मिल": 681,
      "began": 682,
      "ਰਾਸ਼ਟ": 683,
      "ప్ప": 684,
      "सद": 685,
      "western": 686,
      "T": 687,
      "पुत्र": 688,
      "ਈਸਵੀ": 689,
      "part": 690,
      "एशिया": 691,
      "ాలను": 692,
      "ਸਭ": 693,
      "many": 694,
      "शेष": 695,
      "ప్రాంత": 696,
      "economic": 697,
      "बहुत": 698,
      "చరిత్ర": 699,
      "ਪਾਕਿਸਤਾਨ": 700,
      "dance": 701,
      "निर्मा": 702,
      "ాల": 703,
      "ਸ਼ੁਰੂ": 704,
      "It": 705,
      "द्वारा": 706,
      "సామ్రాజ్య": 707,
      "o": 708,
      "प्राप्त": 709,
      "ਕਈ": 710,
      "రాజ్యం": 711,
      "ion": 712,
      "गण": 713,
      "ప్రాంతాల": 714,
      "northern": 715,
      "ਸਮੇਂ": 716,
      "पाकि": 717,
      "j": 718,
      "पाकिस्तान": 719,
      "ਰਿਆ": 720,
      "later": 721,
      "భాష": 722,
      "इसके": 723,
      "ra": 724,
      "రైలు": 725,
      "ਸਾਲ": 726,
      "शता": 727,
      "led": 728,
      "చాలా": 729,
      "करने": 730,
      "ate": 731,
      "ਕੀਤੀ": 732,
      "ఉపఖండంలో": 733,
      "मुख": 734,
      "sh": 735,
      "రెండు": 736,
      "ਕਸ਼": 737,
      "urban": 738,
      "तंत्र": 739,
      "period": 740,
      "जिसमें": 741,
      "ਮਾਨ": 742,
      "దేశాల": 743,
      "subcontinent": 744,
      "कुछ": 745,
      "ਬਣਾ": 746,
      "దేశ": 747,
      "C": 748,
      "राजा": 749,
      "వంట": 750,
      "power": 751,
      "बंध": 752,
      "ਲਤ": 753,
      "south": 754,
      "ుల": 755,
      "पश्चि": 756,
      "up": 757,
      "ਆਰ": 758,
      "ుడు": 759,
      "समा": 760,
      "CE": 761,
      "मिला": 762,
      "ਗਲ": 763,
      "than": 764,
      "ముఖ్యమైన": 765,
      "शताब्दी": 766,
      "including": 767,
      "ਜਾਂਦਾ": 768,
      "నాటికి": 769,
      "प्रमुख": 770,
      "not": 771,
      "रहा": 772,
      "le": 773,
      "ਪਾਰਟੀ": 774,
      "స్థాపించ": 775,
      "होता": 776,
      "land": 777,
      "ਉੱਤਰ": 778,
      "చెందిన": 779,
      "षाण": 780,
      "After": 781,
      "By": 782,
      "अधिक": 783,
      "దేశం": 784,
      "ਨਿਕ": 785,
      "non": 786,
      "हथि": 787,
      "సిక్కు": 788,
      "ਕਤ": 789,
      "pre": 790,
      "हथिया": 791,
      "నే": 792,
      "em": 793,
      "द्वीप": 794,
      "ల్ల": 795,
      "ਹੋਈ": 796,
      "os": 797,
      "गर": 798,
      "లలో": 799,
      "ਗਈ": 800,
      "among": 801,
      "स्वतंत्र": 802,
      "చెంద": 803,
      "economy": 804,
      "करो": 805,
      "ਦੇਸ਼ਾਂ": 806,
      "life": 807,
      "गई": 808,
      "సమయం": 809,
      "increased": 810,
      "ਪ੍ਰਾਚੀਨ": 811,
      "अनुसार": 812,
      "రెండ": 813,
      "since": 814,
      "पहले": 815,
      "ਭਾਸ਼ਾ": 816,
      "rate": 817,
      "పాలా": 818,
      "पूर्ण": 819,
      "mar": 820,
      "నాటి": 821,
      "ਨਹੀਂ": 822,
      "भग": 823,
      "classical": 824,
      "ప్రాంతం": 825,
      "ताम्र": 826,
      "new": 827,
      "ਮੱਧ": 828,
      "ప్రధాన": 829,
      "परि": 830,
      "Hindu": 831,
      "భావిస్తున్న": 832,
      "ਬਦੀ": 833,
      "north": 834,
      "सिन्धु": 835,
      "బ్రిటిష": 836,
      "rule": 837,
      "कहते": 838,
      "ਕਤੀ": 839,
      "మొత్త": 840,
      "ad": 841,
      "सुमे": 842,
      "ਹੋਏ": 843,
      "బెంగాలు": 844,
      "people": 845,
      "पर्व": 846,
      "పశ్చిమ": 847,
      "v": 848,
      "चार": 849,
      "ਗਰੇ": 850,
      "end": 851,
      "తెలుగు": 852,
      "साम्राज्य": 853,
      "r": 854,
      "ਨਾਮ": 855,
      "కా": 856,
      "विज": 857,
      "state": 858,
      "ైన": 859,
      "व्यव": 860,
      "ਉਸ": 861,
      "ers": 862,
      "राष्ट्र": 863,
      "species": 864,
      "ਗਣ": 865,
      "రాజ": 866,
      "केंद्र": 867,
      "ch": 868,
      "న్న": 869,
      "रत": 870,
      "them": 871,
      "ਦੱਖਣੀ": 872,
      "కేంద్ర": 873,
      "पाषाण": 874,
      "se": 875,
      "ਸੰਸ": 876,
      "చిన్న": 877,
      "आर्य": 878,
      "social": 879,
      "ine": 880,
      "बीच": 881,
      "ర్": 882,
      "ਕ੍ਰਿ": 883,
      "long": 884,
      "क्रम": 885,
      "పాలించ": 886,
      "ਅਨ": 887,
      "used": 888,
      "कारण": 889,
      "్య": 890,
      "Ch": 891,
      "कृषि": 892,
      "ద్ద": 893,
      "ਹਿੰਦੂ": 894,
      "general": 895,
      "बड़ी": 896,
      "మొఘల": 897,
      "ਦਿੱਤਾ": 898,
      "number": 899,
      "जाती": 900,
      "ంత": 901,
      "US": 902,
      "दश": 903,
      "ਸਾਮ": 904,
      "కురు": 905,
      "nuclear": 906,
      "लोक": 907,
      "మిలియన్ల": 908,
      "region": 909,
      "ਰਾਜਾਂ": 910,
      "अन्त": 911,
      "గొ": 912,
      "one": 913,
      "देव": 914,
      "ਵਿਚ": 915,
      "id": 916,
      "అతి": 917,
      "लगभग": 918,
      "Mughal": 919,
      "ఆధునిక": 920,
      "ਰਤ": 921,
      "निर्माण": 922,
      "u": 923,
      "మహా": 924,
      "मन": 925,
      "Punjab": 926,
      "ਕਸ਼ਮੀ": 927,
      "రాజు": 928,
      "तर": 929,
      "Indo": 930,
      "ముస్లిం": 931,
      "ਸਮ": 932,
      "ur": 933,
      "विका": 934,
      "రవ": 935,
      "w": 936,
      "संघ": 937,
      "ਅੰਗਰੇ": 938,
      "ప్రస్తుత": 939,
      "ts": 940,
      "विधान": 941,
      "ਕਾਂਗਰ": 942,
      "పాత్ర": 943,
      "ment": 944,
      "शक्ति": 945,
      "దేశంలో": 946,
      "Sanskrit": 947,
      "चुना": 948,
      "ਜ਼ਾਦੀ": 949,
      "ical": 950,
      "నది": 951,
      "प्रसि": 952,
      "China": 953,
      "ਵੱਲ": 954,
      "ప్రభుత్వం": 955,
      "माइ": 956,
      "dis": 957,
      "మార్గాల": 958,
      "माइट": 959,
      "ਉਪ": 960,
      "caused": 961,
      "ించారు": 962,
      "मैदा": 963,
      "river": 964,
      "ਦੀਪ": 965,
      "स्थाप": 966,
      "country": 967,
      "సరిహద్దు": 968,
      "व्यवस्था": 969,
      "ide": 970,
      "ਸਮਾ": 971,
      "ప్పటికీ": 972,
      "करोड़": 973,
      "her": 974,
      "ਸਹਿ": 975,
      "మార": 976,
      "बढ़": 977,
      "served": 978,
      "millennium": 979,
      "प्रति": 980,
      "నా": 981,
      "ਰਾਸ਼ਟਰ": 982,
      "languages": 983,
      "गए": 984,
      "యుగ": 985,
      "ਹਮ": 986,
      "Bengal": 987,
      "तीस": 988,
      "ముఖ్య": 989,
      "B": 990,
      "प्रथ": 991,
      "సం": 992,
      "ਵੈਦਿ": 993,
      "who": 994,
      "प्रथम": 995,
      "ਵੈਦਿਕ": 996,
      "h": 997,
      "हर": 998,
      "పరి": 999,
      "some": 1000,
      "विकसित": 1001,
      "ਸ਼ਤਾ": 1002,
      "యుద్ధం": 1003,
      "ated": 1004,
      "वैदि": 1005,
      "త్య": 1006,
      "centuries": 1007,
      "ਸਰਕਾਰ": 1008,
      "वैदिक": 1009,
      "ాణా": 1010,
      "major": 1011,
      "स्थान": 1012,
      "ਲੋਕ": 1013,
      "ul": 1014,
      "చాళుక్య": 1015,
      "उन्हें": 1016,
      "culture": 1017,
      "ఇండియా": 1018,
      "ਪੱਛ": 1019,
      "भाषाओं": 1020,
      "N": 1021,
      "అధికారిక": 1022,
      "भाई": 1023,
      "east": 1024,
      "ਅਰ": 1025,
      "వ్యవస్థ": 1026,
      "ष्ट्रीय": 1027,
      "through": 1028,
      "ఉద్యమం": 1029,
      "ਆਦਿ": 1030,
      "Indus": 1031,
      "संविधान": 1032,
      "కొన్ని": 1033,
      "E": 1034,
      "प्रधान": 1035,
      "ਸ਼ਨ": 1036,
      "విశ్వవిద్యాలయం": 1037,
      "F": 1038,
      "मंत्री": 1039,
      "ਕਰਨ": 1040,
      "శక్తి": 1041,
      "ap": 1042,
      "आर्थि": 1043,
      "ఇక్కడ": 1044,
      "no": 1045,
      "आर्थिक": 1046,
      "ਜੀਵ": 1047,
      "age": 1048,
      "కొత్త": 1049,
      "बर": 1050,
      "ies": 1051,
      "ਮਿਲ": 1052,
      "तट": 1053,
      "military": 1054,
      "స్థానంలో": 1055,
      "पति": 1056,
      "ਜੋੜ": 1057,
      "res": 1058,
      "प्रिय": 1059,
      "ter": 1060,
      "ਭਗ": 1061,
      "వేద": 1062,
      "प्रसिद्ध": 1063,
      "majority": 1064,
      "ప్రాంతాలు": 1065,
      "सरस्व": 1066,
      "ics": 1067,
      "ਹਾਲਾਂ": 1068,
      "తన": 1069,
      "सरस्वती": 1070,
      "rural": 1071,
      "ਹਾਲਾਂਕਿ": 1072,
      "సంస్కృతి": 1073,
      "इलामाइट": 1074,
      "billion": 1075,
      "music": 1076,
      "गणराज्य": 1077,
      "అయిన": 1078,
      "ਪਰਮਾ": 1079,
      "election": 1080,
      "जब": 1081,
      "చక్రవర్త": 1082,
      "ਆਦਾ": 1083,
      "S": 1084,
      "अर": 1085,
      "వాణిజ్య": 1086,
      "East": 1087,
      "लीन": 1088,
      "రాజ్యాలు": 1089,
      "ਸ਼ਤਾਬਦੀ": 1090,
      "Delhi": 1091,
      "बन": 1092,
      "ఇండ": 1093,
      "ਫਲ": 1094,
      "early": 1095,
      "नदी": 1096,
      "కాల": 1097,
      "areas": 1098,
      "मत": 1099,
      "ਕਾਂਗਰਸ": 1100,
      "తీస": 1101,
      "time": 1102,
      "आदि": 1103,
      "im": 1104,
      "ਸੰਘ": 1105,
      "आधु": 1106,
      "ిత": 1107,
      "political": 1108,
      "आधुनिक": 1109,
      "ਅਗ": 1110,
      "religious": 1111,
      "ఆసియా": 1112,
      "मनुष्य": 1113,
      "out": 1114,
      "ప్రజల": 1115,
      "ਪੂਰਣ": 1116,
      "नव": 1117,
      "World": 1118,
      "ఎక్కువ": 1119,
      "माना": 1120,
      "war": 1121,
      "ਪੁੱਤਰ": 1122,
      "మహబూబ్నగర్": 1123,
      "लोगों": 1124,
      "central": 1125,
      "రాజకీయ": 1126,
      "ਬਾਦੀ": 1127,
      "made": 1128,
      "नेतृ": 1129,
      "బ్రిటీషు": 1130,
      "able": 1131,
      "नेतृत्व": 1132,
      "ਮਹਾ": 1133,
      "మద్య": 1134,
      "emerged": 1135,
      "भाग": 1136,
      "ਪਹਿਲਾਂ": 1137,
      "తొల": 1138,
      "Company": 1139,
      "काम": 1140,
      "బెంగాల్": 1141,
      "ity": 1142,
      "राष्ट्रीय": 1143,
      "ਮਹਾਂ": 1144,
      "ro": 1145,
      "నాగరికత": 1146,
      "ग्रेस": 1147,
      "women": 1148,
      "ਸੰਸਕ੍ਰਿ": 1149,
      "చేరుకు": 1150,
      "युद्ध": 1151,
      "human": 1152,
      "దారి": 1153,
      "दशक": 1154,
      "ਉੱਤਰੀ": 1155,
      "co": 1156,
      "ఉండే": 1157,
      "चुनावों": 1158,
      "ied": 1159,
      "ਜੈਨ": 1160,
      "మహారాజ": 1161,
      "योग": 1162,
      "following": 1163,
      "యుగం": 1164,
      "गल": 1165,
      "Indians": 1166,
      "ਗਏ": 1167,
      "వీరు": 1168,
      "दृष्टि": 1169,
      "Hinduism": 1170,
      "ਸਤ": 1171,
      "శ్చ": 1172,
      "संख्या": 1173,
      "include": 1174,
      "sub": 1175,
      "पश्चिम": 1176,
      "యుద్ధంలో": 1177,
      "ਦੁਆ": 1178,
      "third": 1179,
      "रहे": 1180,
      "మత": 1181,
      "ਦੁਆਰਾ": 1182,
      "growth": 1183,
      "प्रार": 1184,
      "ంట": 1185,
      "fl": 1186,
      "स्थापना": 1187,
      "సైనిక": 1188,
      "ਸ਼ਾਲੀ": 1189,
      "party": 1190,
      "संस्कृति": 1191,
      "పాల": 1192,
      "ਲਗ": 1193,
      "states": 1194,
      "धीरे": 1195,
      "ప్రాంతాలలో": 1196,
      "Muslim": 1197,
      "लन": 1198,
      "ਕਸ਼ਮੀਰ": 1199,
      "ప్ర": 1200,
      "R": 1201,
      "जिन": 1202,
      "న్ని": 1203,
      "ago": 1204,
      "ਜਿਨ੍ਹਾਂ": 1205,
      "वर्त": 1206,
      "చివరి": 1207,
      "am": 1208,
      "स्वतंत्रता": 1209,
      "ਤੀਆਂ": 1210,
      "there": 1211,
      "మరణ": 1212,
      "विकास": 1213,
      "V": 1214,
      "అన": 1215,
      "ਭਾਗ": 1216,
      "स्तर": 1217,
      "they": 1218,
      "ొట్ట": 1219,
      "सैन्य": 1220,
      "west": 1221,
      "ਰਹੇ": 1222,
      "భూభాగ": 1223,
      "फल": 1224,
      "Gandhi": 1225,
      "విస్తరించింద": 1226,
      "ਸ਼ਕਤੀ": 1227,
      "Central": 1228,
      "जल": 1229,
      "ట్ట": 1230,
      "ag": 1231,
      "स्थानों": 1232,
      "ਸਾਰ": 1233,
      "క్": 1234,
      "regions": 1235,
      "कॉंग्रेस": 1236,
      "ਉਣ": 1237,
      "ాటు": 1238,
      "control": 1239,
      "कार्य": 1240,
      "స్త": 1241,
      "ations": 1242,
      "कुल": 1243,
      "ਪਰਮਾਣੁ": 1244,
      "based": 1245,
      "యం": 1246,
      "लोग": 1247,
      "European": 1248,
      "ਤਵ": 1249,
      "జి": 1250,
      "जनजाति": 1251,
      "ary": 1252,
      "లకు": 1253,
      "मिया": 1254,
      "ਗਣਰਾਜ": 1255,
      "second": 1256,
      "కొ": 1257,
      "प्रोटो": 1258,
      "high": 1259,
      "ਵੱਧ": 1260,
      "అల": 1261,
      "उर": 1262,
      "av": 1263,
      "శతాబ్దాల": 1264,
      "पर्वत": 1265,
      "United": 1266,
      "ਭਿੰਨ": 1267,
      "చేస": 1268,
      "अरब": 1269,
      "ancient": 1270,
      "ਸਥਿ": 1271,
      "ప్రాంతంలో": 1272,
      "पार": 1273,
      "Ganges": 1274,
      "ered": 1275,
      "लिया": 1276,
      "ప్రభుత్వ": 1277,
      "ਈਸਾ": 1278,
      "constitution": 1279,
      "ब्रिटि": 1280,
      "పె": 1281,
      "ਪੁਰਾ": 1282,
      "Its": 1283,
      "ब्रिटिश": 1284,
      "రాజ్యాల": 1285,
      "Nehru": 1286,
      "अर्थ": 1287,
      "ధీనం": 1288,
      "ਤਮ": 1289,
      "There": 1290,
      "सक": 1291,
      "రాజ్య": 1292,
      "ਲਤਨ": 1293,
      "ors": 1294,
      "परमा": 1295,
      "పై": 1296,
      "especially": 1297,
      "परमाणु": 1298,
      "ਬ੍ਰਿ": 1299,
      "ించిన": 1300,
      "local": 1301,
      "परा": 1302,
      "గుప్త": 1303,
      "year": 1304,
      "ਲੀਆਂ": 1305,
      "लित": 1306,
      "జాబితా": 1307,
      "As": 1308,
      "मह": 1309,
      "ਰਿਹਾ": 1310,
      "our": 1311,
      "తర్వాత": 1312,
      "हरी": 1313,
      "grew": 1314,
      "ప్రసిద్ధ": 1315,
      "ਆਮ": 1316,
      "दोनों": 1317,
      "Constitution": 1318,
      "రాష్ట్రకూట": 1319,
      "स्थापि": 1320,
      "ty": 1321,
      "ਮਤ": 1322,
      "విస్తరణ": 1323,
      "स्थापित": 1324,
      "census": 1325,
      "సముద్ర": 1326,
      "ਪ੍ਰਾਪਤ": 1327,
      "me": 1328,
      "ओर": 1329,
      "చోళుడు": 1330,
      "ative": 1331,
      "बार": 1332,
      "ਵੰਸ਼": 1333,
      "గణ": 1334,
      "diversity": 1335,
      "सफल": 1336,
      "ਵਿਚਕਾਰ": 1337,
      "దాడి": 1338,
      "literacy": 1339,
      "अंग्रेजी": 1340,
      "వాతా": 1341,
      "religions": 1342,
      "लिये": 1343,
      "ਜਦੋਂ": 1344,
      "English": 1345,
      "ఇవి": 1346,
      "प्रधानमंत्री": 1347,
      "fast": 1348,
      "ਸਾਰਾ": 1349,
      "ంచి": 1350,
      "गठ": 1351,
      "rates": 1352,
      "స్వా": 1353,
      "साल": 1354,
      "ਬੰਧ": 1355,
      "parliamentary": 1356,
      "సుమారు": 1357,
      "वर्षों": 1358,
      "Hindi": 1359,
      "ਅਜ਼ਾਦੀ": 1360,
      "హిందువులు": 1361,
      "न्याया": 1362,
      "BJP": 1363,
      "ఒకటి": 1364,
      "अभि": 1365,
      "L": 1366,
      "ਵਾਈ": 1367,
      "వార": 1368,
      "अमे": 1369,
      "well": 1370,
      "ਕਾਰਨ": 1371,
      "రాజులు": 1372,
      "लर": 1373,
      "other": 1374,
      "el": 1375,
      "अत्य": 1376,
      "ట్ల": 1377,
      "ਸਿਆ": 1378,
      "During": 1379,
      "पुरात": 1380,
      "ఉన్నారు": 1381,
      "ਠਜੋੜ": 1382,
      "ian": 1383,
      "सुमेरू": 1384,
      "క్ష": 1385,
      "southern": 1386,
      "प्रलय": 1387,
      "లుగు": 1388,
      "ਗੂਗਲ": 1389,
      "movement": 1390,
      "हिन्दू": 1391,
      "మధ్యకాలం": 1392,
      "ਪੁਸ": 1393,
      "Buddhism": 1394,
      "एवं": 1395,
      "ప్రారంభ": 1396,
      "est": 1397,
      "समाज": 1398,
      "ਪੁਸਤਕ": 1399,
      "మతం": 1400,
      "eastern": 1401,
      "लगा": 1402,
      "రా": 1403,
      "found": 1404,
      "ਅਧਿ": 1405,
      "पंजा": 1406,
      "కలిగి": 1407,
      "day": 1408,
      "डिया": 1409,
      "ਆਪਣੀ": 1410,
      "Western": 1411,
      "ాగే": 1412,
      "दर": 1413,
      "ant": 1414,
      "లీ": 1415,
      "ਪੱਛਮ": 1416,
      "गति": 1417,
      "ol": 1418,
      "పో": 1419,
      "साम": 1420,
      "ac": 1421,
      "ਦਰੀ": 1422,
      "जीव": 1423,
      "ally": 1424,
      "చేసుకున": 1425,
      "ਆਧੁ": 1426,
      "il": 1427,
      "परं": 1428,
      "తా": 1429,
      "off": 1430,
      "महत्व": 1431,
      "ਆਧੁਨਿਕ": 1432,
      "వాణిజ్యం": 1433,
      "ā": 1434,
      "तम": 1435,
      "ਮਹਾਂਦੀਪ": 1436,
      "సంస్కృత": 1437,
      "tr": 1438,
      "अवशेष": 1439,
      "ండ": 1440,
      "ure": 1441,
      "दय": 1442,
      "ਸ਼ੁਰੂਆ": 1443,
      "All": 1444,
      "ఆఫ్": 1445,
      "अपना": 1446,
      "ist": 1447,
      "ਕਾਲੀ": 1448,
      "ఏర్ప": 1449,
      "न्होंने": 1450,
      "ge": 1451,
      "బౌద్ధ": 1452,
      "क्षेत्री": 1453,
      "ਆਪਣੇ": 1454,
      "sp": 1455,
      "చిహ్నం": 1456,
      "क्षेत्रीय": 1457,
      "According": 1458,
      "ਸਾਮਰਾਜ": 1459,
      "భారత్": 1460,
      "सह": 1461,
      "National": 1462,
      "గంగ": 1463,
      "युक्त": 1464,
      "Act": 1465,
      "ਵਾਲੇ": 1466,
      "रक्षा": 1467,
      "These": 1468,
      "ਸੱਤਾ": 1469,
      "కల": 1470,
      "तन": 1471,
      "Buddhist": 1472,
      "Tamil": 1473,
      "वास्त": 1474,
      "యి": 1475,
      "ਗਿਣ": 1476,
      "if": 1477,
      "सदी": 1478,
      "నాయక": 1479,
      "ਗਿਣਤੀ": 1480,
      "ism": 1481,
      "जाते": 1482,
      "బడ్డాయి": 1483,
      "mid": 1484,
      "मुख्य": 1485,
      "గ్రామ": 1486,
      "ਵੰਡ": 1487,
      "five": 1488,
      "सरका": 1489,
      "్లో": 1490,
      "ਲਗਭਗ": 1491,
      "education": 1492,
      "बने": 1493,
      "వ్యవసాయ": 1494,
      "su": 1495,
      "आई": 1496,
      "ਮਾਨਤਾ": 1497,
      "der": 1498,
      "सभा": 1499,
      "దక్షిణాన": 1500,
      "ess": 1501,
      "ਫੌਜੀ": 1502,
      "रिया": 1503,
      "తమ": 1504,
      "ta": 1505,
      "मिले": 1506,
      "ਖਰ": 1507,
      "become": 1508,
      "చె": 1509,
      "आर्यों": 1510,
      "often": 1511,
      "ఐరోపా": 1512,
      "ਇਸਦੇ": 1513,
      "ताम्रयुग": 1514,
      "regional": 1515,
      "ప్రకారం": 1516,
      "पोटा": 1517,
      "men": 1518,
      "ਹੋਰ": 1519,
      "సాంస్కృతిక": 1520,
      "पोटामिया": 1521,
      "whose": 1522,
      "వాయవ్య": 1523,
      "ਬਤ": 1524,
      "federal": 1525,
      "चाक्षु": 1526,
      "కామరూప": 1527,
      "cities": 1528,
      "चाक्षुष": 1529,
      "ਵਿੱਚੋਂ": 1530,
      "స్వాతంత్ర్య": 1531,
      "sultanate": 1532,
      "मन्यु": 1533,
      "ਸਫਲ": 1534,
      "వ్యాపించ": 1535,
      "set": 1536,
      "अत्यरा": 1537,
      "పార్టీ": 1538,
      "ments": 1539,
      "आधि": 1540,
      "ਸਵ": 1541,
      "Andaman": 1542,
      "పాకిస్థాన్": 1543,
      "स्थित": 1544,
      "low": 1545,
      "ਧਾਨ": 1546,
      "వరకూ": 1547,
      "महाद्वीप": 1548,
      "ically": 1549,
      "కారణంగా": 1550,
      "जनसंख्या": 1551,
      "ਰੀਆਂ": 1552,
      "created": 1553,
      "కన్నడ": 1554,
      "हिमा": 1555,
      "diverse": 1556,
      "ਜਪਾ": 1557,
      "అధిక": 1558,
      "संस्कृत": 1559,
      "ial": 1560,
      "కొంత": 1561,
      "करण": 1562,
      "ite": 1563,
      "ਚੋਣਾਂ": 1564,
      "చైనా": 1565,
      "गंगा": 1566,
      "elections": 1567,
      "ਸ਼ੀਆ": 1568,
      "ఎన్న": 1569,
      "चल": 1570,
      "dec": 1571,
      "gener": 1572,
      "पंजाब": 1573,
      "హైదరాబాదు": 1574,
      "ਦੁਨੀ": 1575,
      "union": 1576,
      "स्तार": 1577,
      "చేశారు": 1578,
      "ਇੰਡੀ": 1579,
      "won": 1580,
      "बद": 1581,
      "డి": 1582,
      "official": 1583,
      "अपनी": 1584,
      "శాఖ": 1585,
      "ਰੀਕਾ": 1586,
      "longer": 1587,
      "शुरू": 1588,
      "ేశ్వర": 1589,
      "ਸਿਤ": 1590,
      "Among": 1591,
      "शाली": 1592,
      "మీద": 1593,
      "popular": 1594,
      "धार": 1595,
      "ਸੰਸਕ੍ਰਿਤ": 1596,
      "ప్రత్యేక": 1597,
      "traditional": 1598,
      "भूमिका": 1599,
      "రంజ": 1600,
      "air": 1601,
      "ਭਾਸ਼ਾਵਾਂ": 1602,
      "बड़े": 1603,
      "వీటి": 1604,
      "forms": 1605,
      "विदे": 1606,
      "ਬਦ": 1607,
      "term": 1608,
      "పోషించ": 1609,
      "घाटी": 1610,
      "republic": 1611,
      "రాజధాని": 1612,
      "ਹਿਤ": 1613,
      "महत्वपूर्ण": 1614,
      "Himalayas": 1615,
      "నూ": 1616,
      "मानव": 1617,
      "widely": 1618,
      "ਕਬ": 1619,
      "ాబాదు": 1620,
      "पास": 1621,
      "growing": 1622,
      "వై": 1623,
      "ਵਜੋਂ": 1624,
      "styles": 1625,
      "भिन्न": 1626,
      "అను": 1627,
      "forest": 1628,
      "प्रकार": 1629,
      "ਸੰਯੁ": 1630,
      "సైన్య": 1631,
      "body": 1632,
      "छोड़": 1633,
      "ਸੰਯੁਕਤ": 1634,
      "లక్షల": 1635,
      "GDP": 1636,
      "लेख": 1637,
      "ఉత్పత్తి": 1638,
      "I": 1639,
      "संबंध": 1640,
      "ਚਾਰ": 1641,
      "D": 1642,
      "इन्हीं": 1643,
      "empire": 1644,
      "ਆਰਥਿ": 1645,
      "నిర్మించ": 1646,
      "कोई": 1647,
      "until": 1648,
      "ించి": 1649,
      "उनकी": 1650,
      "ਆਰਥਿਕ": 1651,
      "us": 1652,
      "ప్": 1653,
      "राजधा": 1654,
      "This": 1655,
      "ਵਾਦੀ": 1656,
      "పండు": 1657,
      "राजधानी": 1658,
      "known": 1659,
      "చిహ్న": 1660,
      "शासित": 1661,
      "around": 1662,
      "ਵਧ": 1663,
      "వ్యాపార": 1664,
      "व्यापार": 1665,
      "kingdoms": 1666,
      "ਰਹੀ": 1667,
      "మీ": 1668,
      "वर्ण": 1669,
      "he": 1670,
      "three": 1671,
      "वल": 1672,
      "లి": 1673,
      "ਹਥਿ": 1674,
      "Kashmir": 1675,
      "टक": 1676,
      "ాన": 1677,
      "ਵਾਦ": 1678,
      "rise": 1679,
      "जहाँ": 1680,
      "ప్రా": 1681,
      "along": 1682,
      "पत्थ": 1683,
      "చేయ": 1684,
      "ਇਹਨਾਂ": 1685,
      "ence": 1686,
      "पत्थर": 1687,
      "గత": 1688,
      "ਉਤ": 1689,
      "now": 1690,
      "रह": 1691,
      "ఆది": 1692,
      "ya": 1693,
      "बंधन": 1694,
      "ਰਿਕ": 1695,
      "తమైన": 1696,
      "Southeast": 1697,
      "केन्द्र": 1698,
      "తి": 1699,
      "last": 1700,
      "ਜਿਸਦਾ": 1701,
      "वास्तविक": 1702,
      "్లు": 1703,
      "Although": 1704,
      "अब": 1705,
      "ਹੁੰਦਾ": 1706,
      "Persian": 1707,
      "త్": 1708,
      "हथियारों": 1709,
      "om": 1710,
      "నీ": 1711,
      "ਘੱਟ": 1712,
      "मैसो": 1713,
      "ri": 1714,
      "ిక్": 1715,
      "मैसोपोटामिया": 1716,
      "ised": 1717,
      "ਣਿਆ": 1718,
      "प्रियव्र": 1719,
      "formed": 1720,
      "విదేశ": 1721,
      "ਵਿਕਾ": 1722,
      "earliest": 1723,
      "प्रियव्रत": 1724,
      "ెడ్": 1725,
      "als": 1726,
      "अत्यराति": 1727,
      "ਵਿਕਾਸ": 1728,
      "ుతూ": 1729,
      "place": 1730,
      "तपो": 1731,
      "ਯੋਗ": 1732,
      "సమ": 1733,
      "Jainism": 1734,
      "गूगल": 1735,
      "తీర": 1736,
      "developed": 1737,
      "पुस्त": 1738,
      "ਨਹਿ": 1739,
      "far": 1740,
      "య్య": 1741,
      "पुस्तक": 1742,
      "style": 1743,
      "ਸ਼ਾਸ": 1744,
      "ంటి": 1745,
      "आधिका": 1746,
      "ians": 1747,
      "స్థాన": 1748,
      "आधिकारिक": 1749,
      "ਇਨ੍ਹਾਂ": 1750,
      "ating": 1751,
      "చే": 1752,
      "न्तर": 1753,
      "States": 1754,
      "ਸ਼ਕਤੀਸ਼ਾਲੀ": 1755,
      "మరణించార": 1756,
      "उपमहाद्वीप": 1757,
      "times": 1758,
      "సంవత్సరాల": 1759,
      "बड़ा": 1760,
      "pl": 1761,
      "ਵਪਾਰ": 1762,
      "ుగా": 1763,
      "हिमालय": 1764,
      "ore": 1765,
      "ਲੜਾ": 1766,
      "డానికి": 1767,
      "चना": 1768,
      "ings": 1769,
      "ai": 1770,
      "राजनी": 1771,
      "దు": 1772,
      "ਅਗਵਾਈ": 1773,
      "back": 1774,
      "गुप्त": 1775,
      "ీయ": 1776,
      "ਨਿਰ": 1777,
      "further": 1778,
      "दिल्ली": 1779,
      "ముస్లింల": 1780,
      "isation": 1781,
      "वाली": 1782,
      "బౌద్ధమతం": 1783,
      "ਜਿਆਦਾ": 1784,
      "ati": 1785,
      "विस्तार": 1786,
      "ప్రారంభమై": 1787,
      "ਪੂਰਵੀ": 1788,
      "however": 1789,
      "प्रभा": 1790,
      "వచ్చు": 1791,
      "left": 1792,
      "जाना": 1793,
      "ਭਾਜਪਾ": 1794,
      "యాలు": 1795,
      "middle": 1796,
      "शुरु": 1797,
      "ేంద్ర": 1798,
      "ig": 1799,
      "ਮੰਨਿ": 1800,
      "सेवा": 1801,
      "ప్రముఖ": 1802,
      "four": 1803,
      "परंपरा": 1804,
      "ਮੰਨਿਆ": 1805,
      "leading": 1806,
      "ఉప": 1807,
      "वरी": 1808,
      "changes": 1809,
      "కాశ్మీర": 1810,
      "ਹਰ": 1811,
      "भरत": 1812,
      "mon": 1813,
      "భౌగోళిక": 1814,
      "जिसका": 1815,
      "ance": 1816,
      "ਰੱਖਿਆ": 1817,
      "మెదక్": 1818,
      "ईरा": 1819,
      "ry": 1820,
      "రహదారులు": 1821,
      "ਆਰੀਆਂ": 1822,
      "court": 1823,
      "वर्तमान": 1824,
      "సాంఘిక": 1825,
      "though": 1826,
      "अफ्री": 1827,
      "ਲੇਖ": 1828,
      "వకతక": 1829,
      "car": 1830,
      "अफ्रीका": 1831,
      "ਅਧਿਕਾਰ": 1832,
      "శ్రమణ": 1833,
      "ped": 1834,
      "करना": 1835,
      "నర్మద": 1836,
      "gar": 1837,
      "यहाँ": 1838,
      "ਤੌਰ": 1839,
      "ines": 1840,
      "నిజామాబాదు": 1841,
      "वर्ग": 1842,
      "thought": 1843,
      "ਏਸ਼ੀਆ": 1844,
      "కుమారుడు": 1845,
      "अलग": 1846,
      "held": 1847,
      "వలస": 1848,
      "स्वरूप": 1849,
      "ਆਬਾਦੀ": 1850,
      "vast": 1851,
      "పరమైన": 1852,
      "कहला": 1853,
      "plain": 1854,
      "ਤੰਤਰ": 1855,
      "మాట్లాడే": 1856,
      "तमिल": 1857,
      "ely": 1858,
      "సూర": 1859,
      "साहि": 1860,
      "ants": 1861,
      "ਹਿੰਦ": 1862,
      "కుషాన్": 1863,
      "साहित्य": 1864,
      "atic": 1865,
      "ਹੱਦ": 1866,
      "రోడ్డు": 1867,
      "सांस्कृ": 1868,
      "ives": 1869,
      "ction": 1870,
      "सांस्कृतिक": 1871,
      "దేవతల": 1872,
      "ਇੰਡੋ": 1873,
      "pay": 1874,
      "उसे": 1875,
      "మౌర్య": 1876,
      "ਸੰਖਿਆ": 1877,
      "executive": 1878,
      "उसके": 1879,
      "దక్కను": 1880,
      "lower": 1881,
      "सामा": 1882,
      "విశ్వ": 1883,
      "ਇੰਡੀਆ": 1884,
      "bi": 1885,
      "लगे": 1886,
      "పరిపాలన": 1887,
      "ਵੱਖ": 1888,
      "figures": 1889,
      "पहली": 1890,
      "ఉపనిషత్తులు": 1891,
      "influenced": 1892,
      "पुर्त": 1893,
      "ਬਹੁਤ": 1894,
      "దక్షిణాసియా": 1895,
      "sculpture": 1896,
      "पुर्तगा": 1897,
      "పాటు": 1898,
      "families": 1899,
      "ਹੌਲੀ": 1900,
      "गांधी": 1901,
      "జైనమతం": 1902,
      "istic": 1903,
      "अग": 1904,
      "ਘਾਟੀ": 1905,
      "industry": 1906,
      "ద్వీప": 1907,
      "हालाँ": 1908,
      "operation": 1909,
      "వచ్చింది": 1910,
      "ਵਿਕ": 1911,
      "हालाँकि": 1912,
      "rich": 1913,
      "ఏక": 1914,
      "संयुक्त": 1915,
      "market": 1916,
      "ਵਿਕਸਿਤ": 1917,
      "పాలకులు": 1918,
      "प्लेट": 1919,
      "painting": 1920,
      "ਪ੍ਰਮਾ": 1921,
      "rock": 1922,
      "पहा": 1923,
      "శైలి": 1924,
      "courts": 1925,
      "नदि": 1926,
      "ਵੇਦ": 1927,
      "పంట": 1928,
      "technology": 1929,
      "पूर्वी": 1930,
      "ਰਾਜਨੀ": 1931,
      "సింగు": 1932,
      "traditions": 1933,
      "वायु": 1934,
      "ొక్క": 1935,
      "endangered": 1936,
      "होती": 1937,
      "ਯੁੱਗ": 1938,
      "worn": 1939,
      "వాహ": 1940,
      "पार्टी": 1941,
      "peninsular": 1942,
      "ਧਾਰ": 1943,
      "ప్రభావ": 1944,
      "भाज": 1945,
      "coalition": 1946,
      "కంట": 1947,
      "भाजपा": 1948,
      "ਕਾਰਜ": 1949,
      "dances": 1950,
      "చిత్ర": 1951,
      "गठबंधन": 1952,
      "cooked": 1953,
      "ਰੰਭ": 1954,
      "ఢిల్లీ": 1955,
      "कहा": 1956,
      "his": 1957,
      "దా": 1958,
      "दूस": 1959,
      "M": 1960,
      "ਲਾਮ": 1961,
      "రాష్ట్రంలో": 1962,
      "इसका": 1963,
      "Africa": 1964,
      "ਪੰਜਾ": 1965,
      "రాజవంశాలు": 1966,
      "निभाई": 1967,
      "Sea": 1968,
      "K": 1969,
      "हथियार": 1970,
      "క్రీడ": 1971,
      "ਮੁਗਲ": 1972,
      "established": 1973,
      "शन": 1974,
      "లేదు": 1975,
      "ਬ੍ਰਿਟਿ": 1976,
      "War": 1977,
      "अम": 1978,
      "ిత్": 1979,
      "called": 1980,
      "शाखा": 1981,
      "క్రీడల": 1982,
      "ਬ੍ਰਿਟਿਸ਼": 1983,
      "However": 1984,
      "विदेशी": 1985,
      "రుకు": 1986,
      "ਬਸ": 1987,
      "history": 1988,
      "ईसापूर्व": 1989,
      "వేదాల": 1990,
      "coast": 1991,
      "जबकि": 1992,
      "ਹਰੀ": 1993,
      "చేసుకున్న": 1994,
      "ans": 1995,
      "सम्पू": 1996,
      "అంట": 1997,
      "An": 1998,
      "ਮੁੱਖ": 1999,
      "सम्पूर्ण": 2000,
      "సు": 2001,
      "when": 2002,
      "बौद्ध": 2003,
      "ਬਣ": 2004,
      "important": 2005,
      "సైన్యం": 2006,
      "मौर्य": 2007,
      "ak": 2008,
      "సంపద": 2009,
      "ਵੱਡੇ": 2010,
      "विस्तृ": 2011,
      "violence": 2012,
      "చెంది": 2013,
      "विस्तृत": 2014,
      "about": 2015,
      "ਹੋਣ": 2016,
      "స్ట": 2017,
      "शील": 2018,
      "great": 2019,
      "ఇందు": 2020,
      "ਅਤ": 2021,
      "West": 2022,
      "सल्त": 2023,
      "చేసిన": 2024,
      "took": 2025,
      "सल्तन": 2026,
      "ਸਮਰ": 2027,
      "చేసి": 2028,
      "Singh": 2029,
      "सल्तनत": 2030,
      "ਸਮਰਥ": 2031,
      "జాలు": 2032,
      "global": 2033,
      "कालीन": 2034,
      "పతన": 2035,
      "pro": 2036,
      "वादी": 2037,
      "ਸਮਰਥਨ": 2038,
      "ana": 2039,
      "యు": 2040,
      "द्योगि": 2041,
      "inter": 2042,
      "ਹਿੰਦੁ": 2043,
      "వాస": 2044,
      "वाद": 2045,
      "significant": 2046,
      "వరణ": 2047,
      "लेकर": 2048,
      "ਹਿੰਦੁਸਤਾਨ": 2049,
      "z": 2050,
      "ుగు": 2051,
      "षभ": 2052,
      "ach": 2053,
      "ਰਿਸ਼": 2054,
      "లోయ": 2055,
      "भारतवर्ष": 2056,
      "estimated": 2057,
      "సామ్రాజ్యాల": 2058,
      "अने": 2059,
      "before": 2060,
      "ਵਤ": 2061,
      "రి": 2062,
      "आज": 2063,
      "ex": 2064,
      "ਆਰਿਆ": 2065,
      "ఆర్": 2066,
      "अभी": 2067,
      "so": 2068,
      "et": 2069,
      "विभिन्न": 2070,
      "ఉండి": 2071,
      "ਵਰਤ": 2072,
      "ise": 2073,
      "प्रारम्भ": 2074,
      "మార్గ": 2075,
      "ਅਜ": 2076,
      "support": 2077,
      "छोटे": 2078,
      "ాలలో": 2079,
      "within": 2080,
      "पद": 2081,
      "శతాబ్ద": 2082,
      "ਅਜਨਾ": 2083,
      "Valley": 2084,
      "आया": 2085,
      "పిలువబడ": 2086,
      "ਅਜਨਾਭ": 2087,
      "ph": 2088,
      "छोड़कर": 2089,
      "లా": 2090,
      "direct": 2091,
      "दर्श": 2092,
      "ਰਾਜਵੰਸ਼": 2093,
      "శాతవాహన": 2094,
      "January": 2095,
      "आक्रम": 2096,
      "హిమాలయ": 2097,
      "approximately": 2098,
      "ਸਾਹਿਤ": 2099,
      "हरा": 2100,
      "సాధించ": 2101,
      "plate": 2102,
      "कारी": 2103,
      "ਕੇਂਦਰੀ": 2104,
      "ain": 2105,
      "ాదా": 2106,
      "यूरो": 2107,
      "ot": 2108,
      "సాహిత్య": 2109,
      "ਹਿੱਸਾ": 2110,
      "पीय": 2111,
      "Con": 2112,
      "ర్మ": 2113,
      "शांति": 2114,
      "Union": 2115,
      "ਅਧੀ": 2116,
      "ంద": 2117,
      "फिर": 2118,
      "composed": 2119,
      "పరిపాలించ": 2120,
      "ਅਧੀਨ": 2121,
      "development": 2122,
      "आन्दो": 2123,
      "పి": 2124,
      "Asian": 2125,
      "संघर्ष": 2126,
      "ਕਰਣ": 2127,
      "ాన్": 2128,
      "ds": 2129,
      "चला": 2130,
      "ਲੜਾਈ": 2131,
      "ేవల": 2132,
      "directly": 2133,
      "केवल": 2134,
      "దీ": 2135,
      "ou": 2136,
      "पड़ो": 2137,
      "ਦੁਨੀਆ": 2138,
      "ect": 2139,
      "ల్లో": 2140,
      "पड़ोसी": 2141,
      "aw": 2142,
      "ਚਲ": 2143,
      "మాన్": 2144,
      "जिसके": 2145,
      "ice": 2146,
      "అధికార": 2147,
      "मैदान": 2148,
      "ਅੰਦੋ": 2149,
      "can": 2150,
      "ధి": 2151,
      "संसार": 2152,
      "ali": 2153,
      "ਅੰਦੋਲ": 2154,
      "तीन": 2155,
      "territories": 2156,
      "విస్తరించ": 2157,
      "सत": 2158,
      "elected": 2159,
      "ਰਸ਼": 2160,
      "ుతు": 2161,
      "वर्णन": 2162,
      "iv": 2163,
      "ਗਾਂਧੀ": 2164,
      "రీ": 2165,
      "संसद": 2166,
      "lands": 2167,
      "went": 2168,
      "बहुमत": 2169,
      "పద": 2170,
      "ਬਣਾਉਣ": 2171,
      "continued": 2172,
      "राजनै": 2173,
      "ున్నారు": 2174,
      "ਮਰ": 2175,
      "leader": 2176,
      "राजनैतिक": 2177,
      "లిక": 2178,
      "influence": 2179,
      "पालि": 2180,
      "ార": 2181,
      "ਵੱਡੀ": 2182,
      "Many": 2183,
      "पालिका": 2184,
      "జన": 2185,
      "ਤਵਪੂਰਣ": 2186,
      "down": 2187,
      "अधिकार": 2188,
      "కళ": 2189,
      "ani": 2190,
      "अमेरि": 2191,
      "ਪਾਰਟੀਆਂ": 2192,
      "కం": 2193,
      "resulting": 2194,
      "यान": 2195,
      "వె": 2196,
      "sc": 2197,
      "ਗੱਠਜੋੜ": 2198,
      "शत": 2199,
      "ప్రదేశ్": 2200,
      "decades": 2201,
      "डॉलर": 2202,
      "ਸਾਲਾਂ": 2203,
      "different": 2204,
      "లక్ష": 2205,
      "जना": 2206,
      "foreign": 2207,
      "లతో": 2208,
      "ਸਮੱ": 2209,
      "नीचे": 2210,
      "tropical": 2211,
      "అతన": 2212,
      "कर्ज": 2213,
      "x": 2214,
      "ਸਾਦ": 2215,
      "డం": 2216,
      "लियन": 2217,
      "ne": 2218,
      "గల": 2219,
      "ਪੁਰ": 2220,
      "ory": 2221,
      "नपा": 2222,
      "ింగ్": 2223,
      "show": 2224,
      "जान": 2225,
      "ਫੌਜ": 2226,
      "మా": 2227,
      "ling": 2228,
      "सना": 2229,
      "ਦਾਨ": 2230,
      "అయి": 2231,
      "rights": 2232,
      "सनातन": 2233,
      "చాళుక్యుల": 2234,
      "ending": 2235,
      "पुरातत्व": 2236,
      "ਅਮ": 2237,
      "reduced": 2238,
      "కూ": 2239,
      "धातु": 2240,
      "eight": 2241,
      "ਵਾਨ": 2242,
      "ాలుగా": 2243,
      "चिन्ह": 2244,
      "tax": 2245,
      "రాష్ట్రాల": 2246,
      "महाराज": 2247,
      "ਵਰਸ਼": 2248,
      "wars": 2249,
      "వచ్చ": 2250,
      "अंग्रेज़ी": 2251,
      "lay": 2252,
      "ਲੇਖਕ": 2253,
      "మొదలై": 2254,
      "इंडो": 2255,
      "recorded": 2256,
      "ఉద్యమాల": 2257,
      "जैन": 2258,
      "agricultural": 2259,
      "ਰਕ": 2260,
      "సంబంధాల": 2261,
      "होते": 2262,
      "oldest": 2263,
      "ਵਾਲਾ": 2264,
      "సింధ": 2265,
      "राजनीतिक": 2266,
      "commercial": 2267,
      "sl": 2268,
      "भरा": 2269,
      "ਅਰਬ": 2270,
      "ially": 2271,
      "इस्ला": 2272,
      "రైళ్ల": 2273,
      "ਲੱਗ": 2274,
      "ety": 2275,
      "पश्चिमी": 2276,
      "కర్ణాటక": 2277,
      "public": 2278,
      "उत्तरी": 2279,
      "చూడండి": 2280,
      "ਕਿਹਾ": 2281,
      "che": 2282,
      "इंडिया": 2283,
      "మహాసముద్ర": 2284,
      "ਮਨੁੱ": 2285,
      "right": 2286,
      "अर्थव्यवस्था": 2287,
      "వారసత్వ": 2288,
      "external": 2289,
      "बदल": 2290,
      "ਉਹ": 2291,
      "వెబ్సైట": 2292,
      "slow": 2293,
      "प्रभाव": 2294,
      "సర్వీసు": 2295,
      "agriculture": 2296,
      "ਖੇਤਰ": 2297,
      "विभा": 2298,
      "సాంకేతిక": 2299,
      "mathematics": 2300,
      "जिन्हें": 2301,
      "ਦੂਜੇ": 2302,
      "elites": 2303,
      "స్వచ్ఛ": 2304,
      "शुरुआ": 2305,
      "line": 2306,
      "డచ్చి": 2307,
      "ਜੀਵਨ": 2308,
      "इसकी": 2309,
      "Plateau": 2310,
      "జమ్మూ": 2311,
      "प्रौद्योगि": 2312,
      "ef": 2313,
      "ਸਿੰਧੂ": 2314,
      "ఆర్థిక": 2315,
      "प्रौद्योगिकी": 2316,
      "lo": 2317,
      "భక్తి": 2318,
      "ਪ੍ਰਮਾਣ": 2319,
      "str": 2320,
      "कम": 2321,
      "తెలియ": 2322,
      "Mo": 2323,
      "विवाद": 2324,
      "ਲੋਕਾਂ": 2325,
      "మరాఠ": 2326,
      "med": 2327,
      "कश्मी": 2328,
      "ਸ਼ੁਰੂਆਤੀ": 2329,
      "ఉండటం": 2330,
      "ks": 2331,
      "कश्मीर": 2332,
      "మిగి": 2333,
      "ho": 2334,
      "सहि": 2335,
      "ਵਿੜ": 2336,
      "eth": 2337,
      "కలిసి": 2338,
      "किए": 2339,
      "Bh": 2340,
      "ਬੁੱਧ": 2341,
      "క్షీణ": 2342,
      "सिंधु": 2343,
      "ological": 2344,
      "వరంగల్": 2345,
      "वत": 2346,
      "ਰੀਆ": 2347,
      "head": 2348,
      "ప్రాచుర్య": 2349,
      "वंशज": 2350,
      "just": 2351,
      "ਵਿਸ਼": 2352,
      "పట్టణీకరణ": 2353,
      "ऋषभ": 2354,
      "process": 2355,
      "పూర్తి": 2356,
      "हिन्दु": 2357,
      "fundamental": 2358,
      "ਸੰਗ": 2359,
      "ఇనుప": 2360,
      "ईरान": 2361,
      "constitutional": 2362,
      "ਮਿਕ": 2363,
      "అనుసరించ": 2364,
      "प्रच": 2365,
      "features": 2366,
      "single": 2367,
      "अनेक": 2368,
      "నేపాల": 2369,
      "ਭਿਆ": 2370,
      "numbers": 2371,
      "पहुँ": 2372,
      "గోవా": 2373,
      "ਮੁਸ": 2374,
      "iving": 2375,
      "प्राचीनतम": 2376,
      "పశ్చిమాన": 2377,
      "upper": 2378,
      "जीवन": 2379,
      "నాథ": 2380,
      "ਦਿੱਲੀ": 2381,
      "indigenous": 2382,
      "प्रमा": 2383,
      "అయినప్పటికీ": 2384,
      "ਸਲਤਨ": 2385,
      "Their": 2386,
      "लना": 2387,
      "ఆధిపత్యం": 2388,
      "bal": 2389,
      "हन": 2390,
      "ਸਲਤਨਤ": 2391,
      "భద్ర": 2392,
      "parliament": 2393,
      "उत्पा": 2394,
      "ీసు": 2395,
      "ured": 2396,
      "ਸਿਰ": 2397,
      "उत्पाद": 2398,
      "పండుగలు": 2399,
      "serv": 2400,
      "उदय": 2401,
      "ਪੰਜਾਬ": 2402,
      "every": 2403,
      "నమోదు": 2404,
      "रित": 2405,
      "member": 2406,
      "జైన": 2407,
      "ਵਿਰੋ": 2408,
      "किन्तु": 2409,
      "extant": 2410,
      "కదంబాలు": 2411,
      "सवी": 2412,
      "Ancient": 2413,
      "ਸਿੱਖ": 2414,
      "సాగు": 2415,
      "आर": 2416,
      "inf": 2417,
      "సిస్త": 2418,
      "ਦਿੱਤੀ": 2419,
      "renew": 2420,
      "आक्रमण": 2421,
      "ప్రతి": 2422,
      "Dravidian": 2423,
      "परिणा": 2424,
      "ਮਜ਼": 2425,
      "ద్వార": 2426,
      "aren": 2427,
      "परिणाम": 2428,
      "ਮਜ਼ਬੂ": 2429,
      "దేవాలయం": 2430,
      "pr": 2431,
      "परिणामस्वरूप": 2432,
      "ఉండగా": 2433,
      "ign": 2434,
      "राजवंश": 2435,
      "ਤਕਨੀ": 2436,
      "national": 2437,
      "దినాలు": 2438,
      "पाँच": 2439,
      "itary": 2440,
      "ਹੋਈਆਂ": 2441,
      "గుర్తించ": 2442,
      "उसने": 2443,
      "band": 2444,
      "పాక్": 2445,
      "प्रया": 2446,
      "ਸਮਾਜ": 2447,
      "below": 2448,
      "ఆలయం": 2449,
      "प्रयास": 2450,
      "conducted": 2451,
      "ਕਾਬ": 2452,
      "అవశేషాలు": 2453,
      "बनाने": 2454,
      "enacted": 2455,
      "కవి": 2456,
      "टन": 2457,
      "greater": 2458,
      "ਕੇਂਦਰ": 2459,
      "జనపదాల": 2460,
      "किये": 2461,
      "meat": 2462,
      "ਹਥਿਆਰ": 2463,
      "శ్రీ": 2464,
      "यूरोपीय": 2465,
      "ets": 2466,
      "ob": 2467,
      "टना": 2468,
      "గురు": 2469,
      "ਗੁਆਂ": 2470,
      "secular": 2471,
      "यक": 2472,
      "బాదామి": 2473,
      "ਗੁਆਂਢੀ": 2474,
      "Bharat": 2475,
      "अधिकां": 2476,
      "పల్లవులు": 2477,
      "Pro": 2478,
      "अधिकांश": 2479,
      "ప్రపంచంలోన": 2480,
      "ਵਿਵਾਦ": 2481,
      "animal": 2482,
      "आन्दोलन": 2483,
      "నిలిచి": 2484,
      "ਸ਼ੀਲ": 2485,
      "crust": 2486,
      "सामाजि": 2487,
      "వేర్": 2488,
      "Ghats": 2489,
      "सामाजिक": 2490,
      "ਪਤੀ": 2491,
      "వులు": 2492,
      "bir": 2493,
      "सिंह": 2494,
      "డూ": 2495,
      "occup": 2496,
      "ਅੰਗਰੇਜੀ": 2497,
      "जनवरी": 2498,
      "స్మార": 2499,
      "ste": 2500,
      "निर": 2501,
      "ਦੇਵ": 2502,
      "Plate": 2503,
      "ఆగ": 2504,
      "इसे": 2505,
      "surv": 2506,
      "చేసారు": 2507,
      "ਇਲਾ": 2508,
      "सूची": 2509,
      "suppl": 2510,
      "పతక": 2511,
      "बनी": 2512,
      "traditionally": 2513,
      "ਪ੍ਰਦੇਸ਼": 2514,
      "కేంద్రం": 2515,
      "जलो": 2516,
      "ining": 2517,
      "కాలములో": 2518,
      "ਬਸਤੀਆਂ": 2519,
      "Nuclear": 2520,
      "जलोढ़": 2521,
      "నగరాలు": 2522,
      "exports": 2523,
      "बाढ़": 2524,
      "ਸਹਿਤ": 2525,
      "జరుపుకు": 2526,
      "pharmaceutical": 2527,
      "निम्न": 2528,
      "ਵਿਦ": 2529,
      "సాధించి": 2530,
      "reasing": 2531,
      "ऋतु": 2532,
      "సిక్కులు": 2533,
      "cooking": 2534,
      "परन्तु": 2535,
      "ਰੀਬ": 2536,
      "dramas": 2537,
      "స్థాయి": 2538,
      "करता": 2539,
      "sari": 2540,
      "ਵਿਸ਼ੇ": 2541,
      "ఉంట": 2542,
      "हम": 2543,
      "waist": 2544,
      "డంలో": 2545,
      "अप्रै": 2546,
      "ਸ਼ਿਆ": 2547,
      "commonly": 2548,
      "స్థావరాలు": 2549,
      "अप्रैल": 2550,
      "wear": 2551,
      "ਸਥਾਪਤ": 2552,
      "ాల్లో": 2553,
      "जीत": 2554,
      "trade": 2555,
      "కో": 2556,
      "बाहरी": 2557,
      "mi": 2558,
      "ਅਰੰਭ": 2559,
      "రాష్ట్రాలు": 2560,
      "समर्थ": 2561,
      "these": 2562,
      "ਅਨੇ": 2563,
      "పాలించి": 2564,
      "समर्थन": 2565,
      "being": 2566,
      "independence": 2567,
      "किसी": 2568,
      "క్రీస్తు": 2569,
      "ਪਹਿਲੀ": 2570,
      "North": 2571,
      "एन": 2572,
      "పట్టణాలు": 2573,
      "ਅੰਦੋਲਨ": 2574,
      "reached": 2575,
      "सहयोग": 2576,
      "కొనసాగ": 2577,
      "Sikh": 2578,
      "जरा": 2579,
      "భాషలు": 2580,
      "ਵਰੀ": 2581,
      "came": 2582,
      "दान": 2583,
      "శా": 2584,
      "ਪਿਆ": 2585,
      "spread": 2586,
      "सर्वो": 2587,
      "ణలో": 2588,
      "across": 2589,
      "सर्वोच्च": 2590,
      "ਖੇਤਰੀ": 2591,
      "ప్రకటించ": 2592,
      "Arabian": 2593,
      "न्यायालय": 2594,
      "క్కన": 2595,
      "ala": 2596,
      "ਕਾਲੀਨ": 2597,
      "रखा": 2598,
      "దిక": 2599,
      "ir": 2600,
      "पुर": 2601,
      "ਮੰਤਰੀ": 2602,
      "much": 2603,
      "హర్షుడ": 2604,
      "अला": 2605,
      "parts": 2606,
      "ముందు": 2607,
      "ਬਰ": 2608,
      "अलावा": 2609,
      "op": 2610,
      "लाख": 2611,
      "then": 2612,
      "ਆਰਥ": 2613,
      "ఆక్రమించ": 2614,
      "यर": 2615,
      "Gupta": 2616,
      "భాషలో": 2617,
      "ਆਰਥਕ": 2618,
      "ia": 2619,
      "प्रतिशत": 2620,
      "అవ": 2621,
      "present": 2622,
      "विजय": 2623,
      "ਸ਼ਤ": 2624,
      "అం": 2625,
      "would": 2626,
      "उद्यो": 2627,
      "ਥਲ": 2628,
      "లోన": 2629,
      "architecture": 2630,
      "उद्योग": 2631,
      "భాగ": 2632,
      "con": 2633,
      "नग": 2634,
      "ਜਵਾ": 2635,
      "hi": 2636,
      "పోషించా": 2637,
      "अमरी": 2638,
      "ang": 2639,
      "ਰਹਿੰ": 2640,
      "ఓడించ": 2641,
      "पाश्चा": 2642,
      "cultural": 2643,
      "ఇం": 2644,
      "पाश्चात्य": 2645,
      "ਕੁਲ": 2646,
      "society": 2647,
      "తిర": 2648,
      "सम्य": 2649,
      "W": 2650,
      "ਵਾਰ": 2651,
      "ించడం": 2652,
      "सम्यता": 2653,
      "partition": 2654,
      "ప్రారంభించ": 2655,
      "सप्त": 2656,
      "colonial": 2657,
      "ਨਹਿਰੂ": 2658,
      "ిగా": 2659,
      "सप्तसिन्धु": 2660,
      "area": 2661,
      "ਮਿਲਿਆ": 2662,
      "దీని": 2663,
      "दाई": 2664,
      "od": 2665,
      "small": 2666,
      "काँसे": 2667,
      "ామ": 2668,
      "ਬਾਹਰੀ": 2669,
      "era": 2670,
      "प्रजा": 2671,
      "ుచు": 2672,
      "ਹੁਣ": 2673,
      "Sri": 2674,
      "प्रजापति": 2675,
      "ఆధ్": 2676,
      "Y": 2677,
      "मन्व": 2678,
      "మైదానం": 2679,
      "ਅਨੁ": 2680,
      "ab": 2681,
      "मन्वन्तर": 2682,
      "అయ్య": 2683,
      "ਸੰਬੰਧ": 2684,
      "ates": 2685,
      "पर्शि": 2686,
      "శిల్ప": 2687,
      "way": 2688,
      "जानन्त": 2689,
      "ਸਰਸਵ": 2690,
      "ంగ్": 2691,
      "less": 2692,
      "जानन्तपति": 2693,
      "కనుగొన్న": 2694,
      "administration": 2695,
      "ਸਰਸਵਤੀ": 2696,
      "तपोरत": 2697,
      "గి": 2698,
      "marked": 2699,
      "लेखक": 2700,
      "ਰਾਜਾ": 2701,
      "Deccan": 2702,
      "తెలంగాణా": 2703,
      "लिक": 2704,
      "mammals": 2705,
      "సంప్రదాయ": 2706,
      "ਆਈ": 2707,
      "सागर": 2708,
      "work": 2709,
      "జరిగ": 2710,
      "माल": 2711,
      "Maurya": 2712,
      "ਗਾਲ": 2713,
      "ంచ": 2714,
      "सीमा": 2715,
      "Bay": 2716,
      "మారి": 2717,
      "ਸਾਂਝੀ": 2718,
      "endemic": 2719,
      "बंगा": 2720,
      "ఉద్యమ": 2721,
      "mo": 2722,
      "फैली": 2723,
      "ਮਾਰ": 2724,
      "సౌకర్యాల": 2725,
      "ep": 2726,
      "रचना": 2727,
      "ਲਦੀ": 2728,
      "నగర": 2729,
      "qu": 2730,
      "प्रारम्भि": 2731,
      "పేర్ల": 2732,
      "ous": 2733,
      "प्रारम्भिक": 2734,
      "ਵਿਗਿਆ": 2735,
      "ha": 2736,
      "ండా": 2737,
      "साम्राज्यों": 2738,
      "vers": 2739,
      "ਆਏ": 2740,
      "చుగ": 2741,
      "जन्म": 2742,
      "use": 2743,
      "రాలు": 2744,
      "मुस्लि": 2745,
      "ਲੰਬੇ": 2746,
      "average": 2747,
      "మాత్ర": 2748,
      "मध्यकालीन": 2749,
      "Modern": 2750,
      "ਲਿਆਂ": 2751,
      "నడిపించ": 2752,
      "बनाई": 2753,
      "Early": 2754,
      "సమా": 2755,
      "निवे": 2756,
      "king": 2757,
      "ਭਿੰਨਤਾ": 2758,
      "ట్టి": 2759,
      "समाप्त": 2760,
      "due": 2761,
      "ਸਥਾਨ": 2762,
      "దే": 2763,
      "संघी": 2764,
      "played": 2765,
      "port": 2766,
      "संघीय": 2767,
      "నిర్మాణ": 2768,
      "ਨਦੀ": 2769,
      "po": 2770,
      "बढ़कर": 2771,
      "ుడి": 2772,
      "ਰਪੀ": 2773,
      "Sh": 2774,
      "क्षर": 2775,
      "్డాయి": 2776,
      "fall": 2777,
      "पुरु": 2778,
      "ెం": 2779,
      "ਅੱਜ": 2780,
      "very": 2781,
      "एव": 2782,
      "ిపిస్త": 2783,
      "ਰਿਗ": 2784,
      "loss": 2785,
      "नीय": 2786,
      "జ్": 2787,
      "religion": 2788,
      "संगी": 2789,
      "ਰਿਗਵੇਦ": 2790,
      "ర్యంలో": 2791,
      "wide": 2792,
      "संगीत": 2793,
      "తర": 2794,
      "Islamic": 2795,
      "ਤਰਾਂ": 2796,
      "विशेष": 2797,
      "ధిక": 2798,
      "Indonesia": 2799,
      "रख": 2800,
      "ਭਰੀ": 2801,
      "ver": 2802,
      "కరువు": 2803,
      "वाला": 2804,
      "main": 2805,
      "మన": 2806,
      "ਮੌਰੀਆ": 2807,
      "षण": 2808,
      "Europe": 2809,
      "ించ": 2810,
      "गत": 2811,
      "ages": 2812,
      "ਜਨਮ": 2813,
      "నగరాల": 2814,
      "देखा": 2815,
      "ual": 2816,
      "ియా": 2817,
      "ਚਨਾ": 2818,
      "flow": 2819,
      "जंग": 2820,
      "ణులు": 2821,
      "gave": 2822,
      "निवा": 2823,
      "ਤਮਕ": 2824,
      "యూ": 2825,
      "those": 2826,
      "प्रमाण": 2827,
      "ਵਾਸ": 2828,
      "మ్మ": 2829,
      "ports": 2830,
      "बस्ति": 2831,
      "ండి": 2832,
      "Islands": 2833,
      "गढ़": 2834,
      "ਪ੍ਰਣਾ": 2835,
      "Ashoka": 2836,
      "చక్రవర్తుల": 2837,
      "शहरी": 2838,
      "basin": 2839,
      "ਪ੍ਰਣਾਲੀ": 2840,
      "పర": 2841,
      "जैसे": 2842,
      "written": 2843,
      "బహ": 2844,
      "आस": 2845,
      "ਧਾਰਮਿਕ": 2846,
      "near": 2847,
      "आसपास": 2848,
      "com": 2849,
      "ਇਸਲਾਮ": 2850,
      "మై": 2851,
      "आग": 2852,
      "ber": 2853,
      "భాగం": 2854,
      "आगमन": 2855,
      "Ar": 2856,
      "ਚੱਲ": 2857,
      "న్నాయి": 2858,
      "परी": 2859,
      "poverty": 2860,
      "ਸਥਾਈ": 2861,
      "చెందినవ": 2862,
      "उनके": 2863,
      "Constituent": 2864,
      "Assembly": 2865,
      "आक": 2866,
      "వ్యాపారుల": 2867,
      "ਵਿਰੋਧ": 2868,
      "Greek": 2869,
      "राजाओं": 2870,
      "రాజవంశ": 2871,
      "ਸਤਾਰ": 2872,
      "margins": 2873,
      "उच्च": 2874,
      "చోళ": 2875,
      "min": 2876,
      "क्योंकि": 2877,
      "త్త": 2878,
      "ਤਕਨੀਕੀ": 2879,
      "gr": 2880,
      "अशो": 2881,
      "ితి": 2882,
      "ਪੱਖ": 2883,
      "li": 2884,
      "अशोक": 2885,
      "ార్ల": 2886,
      "ail": 2887,
      "ईसवी": 2888,
      "ਪ੍ਰਭਾ": 2889,
      "డా": 2890,
      "Jain": 2891,
      "आगे": 2892,
      "టా": 2893,
      "gra": 2894,
      "ਡਿਆ": 2895,
      "दर्शन": 2896,
      "కులు": 2897,
      "today": 2898,
      "हार": 2899,
      "ਜਿਵੇਂ": 2900,
      "exchange": 2901,
      "బడిన": 2902,
      "पड़ा": 2903,
      "example": 2904,
      "కోస": 2905,
      "ਸਾਨ": 2906,
      "मूल": 2907,
      "range": 2908,
      "రాజా": 2909,
      "तुलना": 2910,
      "aries": 2911,
      "ਰਾਨ": 2912,
      "రియ": 2913,
      "होने": 2914,
      "gradually": 2915,
      "కన": 2916,
      "ਮੁਕਾਬ": 2917,
      "Aryan": 2918,
      "बनाया": 2919,
      "మరి": 2920,
      "texts": 2921,
      "विय": 2922,
      "ਮੁਕਾਬਲਤਨ": 2923,
      "సైనికుల": 2924,
      "urbanisation": 2925,
      "वियत": 2926,
      "ਉਨ੍ਹਾਂ": 2927,
      "రాస": 2928,
      "ill": 2929,
      "मध्यकाल": 2930,
      "హర్ష": 2931,
      "oc": 2932,
      "फ्रांस": 2933,
      "ਧਰਤੀ": 2934,
      "pe": 2935,
      "యుద్ధ": 2936,
      "आए": 2937,
      "red": 2938,
      "ਅੰਗਰੇਜ਼ੀ": 2939,
      "సంవత్సర": 2940,
      "विद्रो": 2941,
      "amp": 2942,
      "రాతి": 2943,
      "विद्रोह": 2944,
      "ਰਿਸ਼ਭ": 2945,
      "ari": 2946,
      "ండ్": 2947,
      "आप": 2948,
      "group": 2949,
      "ਪ੍ਰਚੱ": 2950,
      "వర": 2951,
      "इसमें": 2952,
      "den": 2953,
      "మిక": 2954,
      "जनता": 2955,
      "For": 2956,
      "ਪ੍ਰਚੱਲਤ": 2957,
      "సంఖ్య": 2958,
      "माता": 2959,
      "income": 2960,
      "ਜ਼ਿਆਦਾ": 2961,
      "ంబ": 2962,
      "स्वत": 2963,
      "status": 2964,
      "another": 2965,
      "स्वतन्त्र": 2966,
      "భారతీయుల": 2967,
      "ਅਕ": 2968,
      "could": 2969,
      "त्रण": 2970,
      "చింది": 2971,
      "ਇਲਾਵਾ": 2972,
      "latter": 2973,
      "दार": 2974,
      "తెలంగాణలోన": 2975,
      "action": 2976,
      "निरपे": 2977,
      "తమిళ": 2978,
      "ਸੱਭਿਅਤਾ": 2979,
      "northwest": 2980,
      "निरपेक्ष": 2981,
      "ణుల": 2982,
      "ਸਰੋ": 2983,
      "birth": 2984,
      "तांत्रि": 2985,
      "బుద్ధ": 2986,
      "total": 2987,
      "तांत्रिक": 2988,
      "ਸਰੋਤ": 2989,
      "చారు": 2990,
      "ham": 2991,
      "घोष": 2992,
      "తం": 2993,
      "cultures": 2994,
      "ਗੰਗਾ": 2995,
      "घोषणा": 2996,
      "లుగా": 2997,
      "having": 2998,
      "रही": 2999,
      "ਇਤ": 3000,
      "rivers": 3001,
      "सदस्य": 3002,
      "summer": 3003,
      "పొ": 3004,
      "ਜਿਸਦੇ": 3005,
      "जाने": 3006,
      "ection": 3007,
      "కదంబ": 3008,
      "फुट": 3009,
      "rel": 3010,
      "ਅਸ਼ੋ": 3011,
      "బై": 3012,
      "नदियाँ": 3013,
      "ome": 3014,
      "కుషా": 3015,
      "ਅਸ਼ੋਕ": 3016,
      "exp": 3017,
      "करती": 3018,
      "ీకరణ": 3019,
      "Pr": 3020,
      "जलवायु": 3021,
      "ਏਸ਼ਿਆ": 3022,
      "విధ": 3023,
      "trans": 3024,
      "त्मक": 3025,
      "ਸਮਾਂ": 3026,
      "అరబ్": 3027,
      "own": 3028,
      "जून": 3029,
      "రైల్వే": 3030,
      "app": 3031,
      "मानसू": 3032,
      "ਗੁਪਤ": 3033,
      "ves": 3034,
      "పరిగణి": 3035,
      "मानसून": 3036,
      "ung": 3037,
      "ਆਸ": 3038,
      "అంతర్జాతీయ": 3039,
      "तिथि": 3040,
      "Dev": 3041,
      "ఉదాహరణ": 3042,
      "पार्टि": 3043,
      "ਤਮਿਲ": 3044,
      "sometimes": 3045,
      "యూరోపియన": 3046,
      "शुरुआत": 3047,
      "Bangladesh": 3048,
      "ਆਪਣਾ": 3049,
      "అధిగమించ": 3050,
      "नर": 3051,
      "assert": 3052,
      "ఆగ్నేయ": 3053,
      "सरकारें": 3054,
      "others": 3055,
      "ਬਾਕੀ": 3056,
      "ఆగ్నేయాసియా": 3057,
      "परिष": 3058,
      "goods": 3059,
      "ਪੁਰਤ": 3060,
      "ఆధ్యాత్మిక": 3061,
      "माध्य": 3062,
      "crucial": 3063,
      "Civilisation": 3064,
      "माध्यम": 3065,
      "ఈజిప్టు": 3066,
      "ਫ਼ਰਾਂ": 3067,
      "animals": 3068,
      "जिनमें": 3069,
      "ఉర్దూ": 3070,
      "ਫ਼ਰਾਂਸ": 3071,
      "Buddha": 3072,
      "नाग": 3073,
      "కంపెనీ": 3074,
      "Middle": 3075,
      "प्रत्ये": 3076,
      "కేరళ": 3077,
      "ਬਣੇ": 3078,
      "arts": 3079,
      "प्रत्येक": 3080,
      "క్యాలెండర్": 3081,
      "ਸਥਿਤ": 3082,
      "armies": 3083,
      "तना": 3084,
      "గుర్జర": 3085,
      "contain": 3086,
      "तनाव": 3087,
      "ਪ੍ਰਸਿੱ": 3088,
      "గౌహతి": 3089,
      "nor": 3090,
      "संबं": 3091,
      "జంతువు": 3092,
      "ron": 3093,
      "ਪ੍ਰਸਿੱਧ": 3094,
      "रूस": 3095,
      "తక్కువ": 3096,
      "ca": 3097,
      "हाल": 3098,
      "ਹਵੀਂ": 3099,
      "cap": 3100,
      "తీవ్ర": 3101,
      "दारी": 3102,
      "ately": 3103,
      "పంజాబు": 3104,
      "ਟਲ": 3105,
      "अमेरिका": 3106,
      "tradition": 3107,
      "పునరుద్ధరణ": 3108,
      "तरह": 3109,
      "han": 3110,
      "ਸਥਾਪ": 3111,
      "ప్రతిపాదన": 3112,
      "चीफ": 3113,
      "ances": 3114,
      "ప్రాధాన్య": 3115,
      "ਸੰਘਰਸ਼": 3116,
      "ents": 3117,
      "कही": 3118,
      "వస్త్రధారణ": 3119,
      "ven": 3120,
      "पर्य": 3121,
      "ਕੀਤੇ": 3122,
      "విశిష్ట": 3123,
      "etic": 3124,
      "अति": 3125,
      "ਸਿੰਘ": 3126,
      "శిఖరాగ్ర": 3127,
      "strength": 3128,
      "भाषाएँ": 3129,
      "సముద్రతీర": 3130,
      "Treaty": 3131,
      "भील": 3132,
      "ਜਨਵਰੀ": 3133,
      "relations": 3134,
      "సమైఖ్య": 3135,
      "चित": 3136,
      "rather": 3137,
      "ਪ੍ਰਧਾਨ": 3138,
      "సరస్వతీ": 3139,
      "लोकप्रिय": 3140,
      "Nicobar": 3141,
      "సాంప్రదాయ": 3142,
      "सिने": 3143,
      "ਛੋਟੇ": 3144,
      "sovereignty": 3145,
      "ఖల్సా": 3146,
      "सिनेमा": 3147,
      "belong": 3148,
      "ਪ੍ਰੀ": 3149,
      "జనగణ": 3150,
      "मिलियन": 3151,
      "sector": 3152,
      "ధర్మపాల": 3153,
      "मिस्र": 3154,
      "generally": 3155,
      "ਪ੍ਰੀਖਿਆ": 3156,
      "లెక్కల": 3157,
      "पश्चा": 3158,
      "classes": 3159,
      "ਪਲੇ": 3160,
      "విధానం": 3161,
      "पश्चात": 3162,
      "cal": 3163,
      "Himalayan": 3164,
      "बुद्धि": 3165,
      "శ్రీలంక": 3166,
      "ਪਲੇਟ": 3167,
      "increasingly": 3168,
      "खुदाई": 3169,
      "బొమ్మ": 3170,
      "ਹਿਮਾ": 3171,
      "sites": 3172,
      "इलाम": 3173,
      "గ్రంథ": 3174,
      "appear": 3175,
      "यही": 3176,
      "శెలవు": 3177,
      "ਹਿਮਾਲਾ": 3178,
      "subsequent": 3179,
      "विख्या": 3180,
      "కాలువలు": 3181,
      "ਦਰਿਆ": 3182,
      "Sikhism": 3183,
      "विख्यात": 3184,
      "మగధ": 3185,
      "introduced": 3186,
      "नपाद": 3187,
      "ਪਠਾ": 3188,
      "మయూర": 3189,
      "contains": 3190,
      "पुत्रों": 3191,
      "ఇస్లామాబాద్": 3192,
      "extinct": 3193,
      "ਜਮ": 3194,
      "नाभि": 3195,
      "నౌకా": 3196,
      "tom": 3197,
      "हिम": 3198,
      "ਅਰੁ": 3199,
      "rit": 3200,
      "వాస్తుశిల్పం": 3201,
      "हिमवर्ष": 3202,
      "lim": 3203,
      "అస్సా": 3204,
      "ਜਿਆਦਾਤਰ": 3205,
      "अजना": 3206,
      "econom": 3207,
      "పురుషుల": 3208,
      "अजनाभ": 3209,
      "ff": 3210,
      "ਉਂਦਾ": 3211,
      "నివసించ": 3212,
      "पर्शिया": 3213,
      "arm": 3214,
      "కామరుప": 3215,
      "ਬਣਿਆ": 3216,
      "lat": 3217,
      "अंगि": 3218,
      "అగ్రస్థానం": 3219,
      "ple": 3220,
      "अंगिरा": 3221,
      "ਮਹੱ": 3222,
      "ముగింపు": 3223,
      "grow": 3224,
      "श्रीलं": 3225,
      "ਮਹੱਤਵਪੂਰਣ": 3226,
      "పేరుగాంచ": 3227,
      "sett": 3228,
      "श्रीलंका": 3229,
      "యాత్రికు": 3230,
      "aff": 3231,
      "तब": 3232,
      "ਹਿੱਸਿ": 3233,
      "Islam": 3234,
      "అర్ధ": 3235,
      "यहां": 3236,
      "stat": 3237,
      "ਹਿੱਸਿਆਂ": 3238,
      "ప్రథమ": 3239,
      "ऋग्वे": 3240,
      "cul": 3241,
      "గౌతమ": 3242,
      "ऋग्वेद": 3243,
      "ਰਾਸ਼ਟਰੀ": 3244,
      "prom": 3245,
      "విలీన": 3246,
      "उत्प": 3247,
      "ections": 3248,
      "ਬਹੁਮਤ": 3249,
      "కల్పం": 3250,
      "इस्लाम": 3251,
      "ring": 3252,
      "పతాక": 3253,
      "जमा": 3254,
      "broad": 3255,
      "ਸਿਆਸੀ": 3256,
      "తయార": 3257,
      "मुस्लिम": 3258,
      "marriages": 3259,
      "ਥੋੜ੍": 3260,
      "పురాతన": 3261,
      "विजयन": 3262,
      "crit": 3263,
      "employed": 3264,
      "विजयनगर": 3265,
      "అత్యధిక": 3266,
      "ਥੋੜ੍ਹੇ": 3267,
      "currency": 3268,
      "लंबे": 3269,
      "పర్షియన": 3270,
      "ਐਨ": 3271,
      "vention": 3272,
      "सम्प्र": 3273,
      "మహావీర": 3274,
      "tu": 3275,
      "बूत": 3276,
      "సమాజం": 3277,
      "ਸੰਵਿ": 3278,
      "inequality": 3279,
      "जिसे": 3280,
      "కాలనీల": 3281,
      "ਸੰਵਿਧਾਨ": 3282,
      "schools": 3283,
      "अहिं": 3284,
      "మహేంద్ర": 3285,
      "share": 3286,
      "विरो": 3287,
      "ਧਿਆ": 3288,
      "వర్మ": 3289,
      "becoming": 3290,
      "जित": 3291,
      "హిందూదేశం": 3292,
      "supported": 3293,
      "ਸਮੱਸਿਆ": 3294,
      "आधार": 3295,
      "శిలా": 3296,
      "enter": 3297,
      "आय": 3298,
      "ਤਿੱਬਤ": 3299,
      "tribal": 3300,
      "పేర్కొన": 3301,
      "बढ़ती": 3302,
      "governments": 3303,
      "కాలము": 3304,
      "ਰੇਖਾ": 3305,
      "शिक्षा": 3306,
      "gas": 3307,
      "భావన": 3308,
      "सामने": 3309,
      "try": 3310,
      "ਪਾਦ": 3311,
      "విడ": 3312,
      "परंपरागत": 3313,
      "guard": 3314,
      "పూర్వ": 3315,
      "ਅਕਤ": 3316,
      "contributions": 3317,
      "जग": 3318,
      "సంబంధించిన": 3319,
      "added": 3320,
      "संर": 3321,
      "ਅਕਤਸਾਦ": 3322,
      "అభిప్రాయ": 3323,
      "companies": 3324,
      "करते": 3325,
      "ਅਨੁਸਾਰ": 3326,
      "సంఘ": 3327,
      "Dal": 3328,
      "संग": 3329,
      "ప్రస్త": 3330,
      "policies": 3331,
      "संगम": 3332,
      "ਅਬਾਦੀ": 3333,
      "hub": 3334,
      "సూచించ": 3335,
      "ऋषभदेव": 3336,
      "name": 3337,
      "ਧਰਮਾਂ": 3338,
      "సింధూ": 3339,
      "प्रका": 3340,
      "forests": 3341,
      "నెస్": 3342,
      "प्रचलित": 3343,
      "ਕੋਲ": 3344,
      "Em": 3345,
      "పాల్గొన్న": 3346,
      "समृ": 3347,
      "ci": 3348,
      "ਫ਼ੀਸਦੀ": 3349,
      "మాత్రమే": 3350,
      "समृद्ध": 3351,
      "ational": 3352,
      "మనదేశం": 3353,
      "चर": 3354,
      "ank": 3355,
      "ਸੰਸਾਰ": 3356,
      "పుత్ర": 3357,
      "पुराना": 3358,
      "class": 3359,
      "ਤਟ": 3360,
      "సంబంధ": 3361,
      "देख": 3362,
      "ech": 3363,
      "play": 3364,
      "रुप": 3365,
      "సిక్కిం": 3366,
      "ਅੱਤ": 3367,
      "contribut": 3368,
      "आते": 3369,
      "వంతంగా": 3370,
      "ਸਿੰਧੁ": 3371,
      "consolid": 3372,
      "मोहन": 3373,
      "విద్యా": 3374,
      "recent": 3375,
      "हड़": 3376,
      "పోరాడ": 3377,
      "ਖਾਨ": 3378,
      "extens": 3379,
      "हड़प्पा": 3380,
      "ముడి": 3381,
      "ਖਾਨਦਾਨ": 3382,
      "formal": 3383,
      "मैदानी": 3384,
      "పుట్ట": 3385,
      "ressed": 3386,
      "अस्ति": 3387,
      "ਔਰੰ": 3388,
      "త్వ": 3389,
      "president": 3390,
      "अस्तित्व": 3391,
      "ావన": 3392,
      "office": 3393,
      "ਔਰੰਗ": 3394,
      "धारित": 3395,
      "ప్రభావాన్ని": 3396,
      "gender": 3397,
      "तीसरी": 3398,
      "ਔਰੰਗਜ਼ੇ": 3399,
      "remaining": 3400,
      "ఫ్ర": 3401,
      "मग": 3402,
      "scheduled": 3403,
      "మహిళలు": 3404,
      "ਔਰੰਗਜ਼ੇਬ": 3405,
      "मगध": 3406,
      "signed": 3407,
      "చూప": 3408,
      "पूरे": 3409,
      "itated": 3410,
      "ਸਾਬ": 3411,
      "జరిగే": 3412,
      "शस्त्र": 3413,
      "institution": 3414,
      "వ్రా": 3415,
      "ਵੱਡਾ": 3416,
      "village": 3417,
      "आरम्भ": 3418,
      "ముంబ": 3419,
      "belief": 3420,
      "जिनके": 3421,
      "ਆਜ਼ਾਦੀ": 3422,
      "గుప్తుల": 3423,
      "Democ": 3424,
      "जिन्होंने": 3425,
      "ਲੋਕਤੰਤਰ": 3426,
      "బాగా": 3427,
      "Mohenjo": 3428,
      "प्रणा": 3429,
      "అంచ": 3430,
      "daro": 3431,
      "प्रणाली": 3432,
      "ਸਾਗਰ": 3433,
      "organisation": 3434,
      "్యం": 3435,
      "विज्ञा": 3436,
      "orally": 3437,
      "ਪੂਰਬ": 3438,
      "పూర్ణ": 3439,
      "विज्ञान": 3440,
      "transmitted": 3441,
      "ీణ": 3442,
      "कृष": 3443,
      "ਮੀਨੀ": 3444,
      "primary": 3445,
      "ఉద్భవించి": 3446,
      "सकता": 3447,
      "manuscri": 3448,
      "ਹੱਦਾਂ": 3449,
      "బుద్ధిజ": 3450,
      "वंशों": 3451,
      "test": 3452,
      "బూ": 3453,
      "नियं": 3454,
      "influences": 3455,
      "ਸਰਹੱਦ": 3456,
      "వచ్చిన": 3457,
      "मार्ग": 3458,
      "devotion": 3459,
      "ਸਮੁੰ": 3460,
      "विशा": 3461,
      "decade": 3462,
      "tre": 3463,
      "विशाल": 3464,
      "సాక్ష": 3465,
      "ਕਰਦੇ": 3466,
      "Front": 3467,
      "वित": 3468,
      "చేత": 3469,
      "ਜਨਸੰਖਿਆ": 3470,
      "Desert": 3471,
      "पुर्तगाल": 3472,
      "ఆఫ్ఘనిస్తాన్": 3473,
      "nominal": 3474,
      "सहित": 3475,
      "సంస్థ": 3476,
      "ਮਨੁੱਖ": 3477,
      "weapons": 3478,
      "लड़ा": 3479,
      "్యులు": 3480,
      "ਅਫ਼": 3481,
      "oted": 3482,
      "विभाजन": 3483,
      "కళలు": 3484,
      "disputes": 3485,
      "स्वतन्त्रता": 3486,
      "ਉਹਨਾਂ": 3487,
      "నదులు": 3488,
      "oor": 3489,
      "प्रसार": 3490,
      "పుస్తక": 3491,
      "makes": 3492,
      "ਕਾਰੀ": 3493,
      "टल": 3494,
      "సందర్శించ": 3495,
      "kilometres": 3496,
      "स्थिति": 3497,
      "ਇਕੱ": 3498,
      "consists": 3499,
      "ఒల": 3500,
      "पात": 3501,
      "cause": 3502,
      "సంక": 3503,
      "ਸਿੰਧ": 3504,
      "निर्माता": 3505,
      "ose": 3506,
      "పాలకుల": 3507,
      "खर": 3508,
      "mult": 3509,
      "ਪੱਛਮੀ": 3510,
      "దేవాలయాలు": 3511,
      "अगस्त": 3512,
      "populous": 3513,
      "కొనసాగించా": 3514,
      "ਤਿੰਨ": 3515,
      "Myanmar": 3516,
      "होना": 3517,
      "ఖండ": 3518,
      "nings": 3519,
      "इंदि": 3520,
      "ਤਨ": 3521,
      "చరిత్రకారు": 3522,
      "hered": 3523,
      "इंदिरा": 3524,
      "ਯੂਰਪੀ": 3525,
      "జయ": 3526,
      "plains": 3527,
      "परीक्ष": 3528,
      "మతాలు": 3529,
      "capita": 3530,
      "परीक्षण": 3531,
      "ਮੌਜੂ": 3532,
      "wildlife": 3533,
      "దేవ": 3534,
      "श्रेणी": 3535,
      "protected": 3536,
      "ਉਭਰੀ": 3537,
      "వ్యవసాయం": 3538,
      "ऊँची": 3539,
      "originally": 3540,
      "గ్రే": 3541,
      "सहा": 3542,
      "ਸਮਾਜਿ": 3543,
      "seals": 3544,
      "దాని": 3545,
      "सहायक": 3546,
      "laws": 3547,
      "ਸਮਾਜਿਕ": 3548,
      "ీన": 3549,
      "पाया": 3550,
      "practices": 3551,
      "కాకు": 3552,
      "पेक्षा": 3553,
      "revenues": 3554,
      "ਵਿਵ": 3555,
      "వర్ధన": 3556,
      "पूरा": 3557,
      "safe": 3558,
      "ਵਿਵਸਥਾ": 3559,
      "సులు": 3560,
      "ड़ियाँ": 3561,
      "liberal": 3562,
      "Thar": 3563,
      "नामक": 3564,
      "వర్మన": 3565,
      "ਵਿਰਾ": 3566,
      "drain": 3567,
      "छह": 3568,
      "తే": 3569,
      "ਰਚਨਾ": 3570,
      "moist": 3571,
      "उष्ण": 3572,
      "సంస్కృతం": 3573,
      "Janata": 3574,
      "कटि": 3575,
      "చాళుక్యులు": 3576,
      "ਔਰ": 3577,
      "chosen": 3578,
      "कटिबं": 3579,
      "ఆన": 3580,
      "ਔਰਤਾਂ": 3581,
      "Indira": 3582,
      "कटिबंधी": 3583,
      "కీ": 3584,
      "She": 3585,
      "कटिबंधीय": 3586,
      "ਸਥਿਤੀ": 3587,
      "వైపు": 3588,
      "ergency": 3589,
      "भागों": 3590,
      "స్వ": 3591,
      "ministers": 3592,
      "ਲਿਪੀ": 3593,
      "शुष्क": 3594,
      "ప్రాంతము": 3595,
      "NDA": 3596,
      "मही": 3597,
      "ਈਸਾਈ": 3598,
      "UPA": 3599,
      "రకు": 3600,
      "रल": 3601,
      "Non": 3602,
      "హె": 3603,
      "ਮੁਸਲਿ": 3604,
      "नीति": 3605,
      "energy": 3606,
      "త్రి": 3607,
      "नेह": 3608,
      "residents": 3609,
      "ਮੁਸਲਿਮ": 3610,
      "కమ": 3611,
      "मृत्यु": 3612,
      "compromise": 3613,
      "జల": 3614,
      "ਮੈਦਾ": 3615,
      "WHO": 3616,
      "आम": 3617,
      "మతాల": 3618,
      "breath": 3619,
      "चली": 3620,
      "ਮੈਦਾਨਾਂ": 3621,
      "ాకా": 3622,
      "castes": 3623,
      "कार्यकाल": 3624,
      "ਕਬਜ਼ੇ": 3625,
      "ప్రాంతా": 3626,
      "natal": 3627,
      "गुजरा": 3628,
      "మూ": 3629,
      "folk": 3630,
      "रेखा": 3631,
      "ਨਤੀ": 3632,
      "mathematical": 3633,
      "వరి": 3634,
      "प्रदेशों": 3635,
      "Dance": 3636,
      "ਨਤੀਜੇ": 3637,
      "సంఖ్యా": 3638,
      "कार्यपालिका": 3639,
      "kameez": 3640,
      "सदन": 3641,
      "ਵਿਸ਼ਵ": 3642,
      "churidars": 3643,
      "ఒకే": 3644,
      "राज्यसभा": 3645,
      "dishes": 3646,
      "ਵਿਜੈਨ": 3647,
      "సామ్రాజ్యాలు": 3648,
      "सदस्यों": 3649,
      "vege": 3650,
      "గ్గ": 3651,
      "दूसरे": 3652,
      "ricket": 3653,
      "ਵਿਜੈਨਗਰ": 3654,
      "మొదల": 3655,
      "मंत्रि": 3656,
      "Ocean": 3657,
      "ਸੱਭਿਆ": 3658,
      "ఆసియాలో": 3659,
      "मंत्रिम": 3660,
      "ruled": 3661,
      "G": 3662,
      "मंत्रिमण्ड": 3663,
      "లె": 3664,
      "ਸੱਭਿਆਚਾਰ": 3665,
      "only": 3666,
      "मंत्रिमण्डल": 3667,
      "్యూ": 3668,
      "ਸ਼ਾਂਤੀ": 3669,
      "H": 3670,
      "सारी": 3671,
      "చి": 3672,
      "Muslims": 3673,
      "उसी": 3674,
      "వే": 3675,
      "ਸ਼ੁਰੂਆਤ": 3676,
      "Raj": 3677,
      "धिकार": 3678,
      "ఫ్": 3679,
      "ਛੱਡ": 3680,
      "independent": 3681,
      "नगर": 3682,
      "ఫల": 3683,
      "rulers": 3684,
      "संक्षि": 3685,
      "ਈਸਟ": 3686,
      "ప్ల": 3687,
      "Sultanate": 3688,
      "संक्षिप्त": 3689,
      "జం": 3690,
      "Vedic": 3691,
      "ਕੰਪ": 3692,
      "सोवियत": 3693,
      "మేనన": 3694,
      "against": 3695,
      "संबंधों": 3696,
      "ਕੰਪਨੀ": 3697,
      "several": 3698,
      "రాజపుత్రుల": 3699,
      "सामरिक": 3700,
      "ara": 3701,
      "విభజన": 3702,
      "ਵਿਸਤਾਰ": 3703,
      "भर": 3704,
      "half": 3705,
      "అమర": 3706,
      "पैंतीस": 3707,
      "They": 3708,
      "ਮਜ਼ਬੂਤ": 3709,
      "సుల": 3710,
      "प्रदान": 3711,
      "Vijayanagara": 3712,
      "రాజవంశంగా": 3713,
      "ਸਿੱਖਿਆ": 3714,
      "II": 3715,
      "सक्रि": 3716,
      "కోల్": 3717,
      "ut": 3718,
      "सक्रिय": 3719,
      "ਪ੍ਰਭਾਵ": 3720,
      "విభజించబడ": 3721,
      "de": 3722,
      "भागी": 3723,
      "ਲਹਿ": 3724,
      "వర్ణించ": 3725,
      "Hindus": 3726,
      "नौसेना": 3727,
      "తంత్ర": 3728,
      "He": 3729,
      "डर": 3730,
      "ਅਹਿੰ": 3731,
      "ind": 3732,
      "కర": 3733,
      "लोनि": 3734,
      "remained": 3735,
      "ਸਕ": 3736,
      "స్థాపించాడ": 3737,
      "केन्द्री": 3738,
      "company": 3739,
      "క్షణ": 3740,
      "केन्द्रीय": 3741,
      "ਜ਼ਾਦ": 3742,
      "any": 3743,
      "రచనల": 3744,
      "बज": 3745,
      "Bihar": 3746,
      "ਵੰਡਿਆ": 3747,
      "మో": 3748,
      "बजट": 3749,
      "att": 3750,
      "పోరాట": 3751,
      "एल": 3752,
      "ified": 3753,
      "ਬਹੁਗਿਣਤੀ": 3754,
      "వతి": 3755,
      "दस": 3756,
      "Government": 3757,
      "ਪੱਧਰ": 3758,
      "దేవాలయాల": 3759,
      "अमेरिक": 3760,
      "Sikhs": 3761,
      "included": 3762,
      "अमेरिकन": 3763,
      "బా": 3764,
      "ਸੰਘੀ": 3765,
      "died": 3766,
      "तिहासि": 3767,
      "డిస": 3768,
      "ਸੰਸਦੀ": 3769,
      "followed": 3770,
      "तिहासिक": 3771,
      "నార": 3772,
      "defeated": 3773,
      "अमरीकी": 3774,
      "కర్": 3775,
      "ਜਾਤੀ": 3776,
      "distinct": 3777,
      "डालर": 3778,
      "వల": 3779,
      "ਦੌਰਾਨ": 3780,
      "saw": 3781,
      "पर्यटन": 3782,
      "లియ": 3783,
      "emperor": 3784,
      "स्रोत": 3785,
      "ਇਸਦੀ": 3786,
      "చేయడం": 3787,
      "coastal": 3788,
      "योगी": 3789,
      "సి": 3790,
      "har": 3791,
      "ਰਿਤ": 3792,
      "दूसरा": 3793,
      "మే": 3794,
      "ip": 3795,
      "नागा": 3796,
      "ਇਸਦਾ": 3797,
      "order": 3798,
      "పడ్డ": 3799,
      "उपयोग": 3800,
      "At": 3801,
      "కుల": 3802,
      "ਭੂਮਿ": 3803,
      "भाषाएं": 3804,
      "civil": 3805,
      "కటి": 3806,
      "भाषी": 3807,
      "peace": 3808,
      "ਭੂਮਿਕਾ": 3809,
      "కోసల": 3810,
      "प्रवा": 3811,
      "nationalist": 3812,
      "వంశం": 3813,
      "ਨਿਭਾ": 3814,
      "centre": 3815,
      "हॉकी": 3816,
      "్షిక": 3817,
      "produced": 3818,
      "वह": 3819,
      "ਗਰੀ": 3820,
      "్రా": 3821,
      "expansion": 3822,
      "विष्का": 3823,
      "ਅਸ": 3824,
      "ుంగ": 3825,
      "literature": 3826,
      "टेली": 3827,
      "స్తు": 3828,
      "countries": 3829,
      "टेलीवि": 3830,
      "ਲਝੇ": 3831,
      "O": 3832,
      "లన": 3833,
      "इन्हें": 3834,
      "ted": 3835,
      "ਸਾਹਮ": 3836,
      "ంటున్న": 3837,
      "सुमेर": 3838,
      "pur": 3839,
      "భీ": 3840,
      "विद्वा": 3841,
      "ਕਰਨਾ": 3842,
      "June": 3843,
      "ెట్": 3844,
      "खोज": 3845,
      "eventually": 3846,
      "ਸ਼ਣ": 3847,
      "టు": 3848,
      "समु": 3849,
      "nation": 3850,
      "ఇట": 3851,
      "जाकर": 3852,
      "may": 3853,
      "ਹਵਾ": 3854,
      "ఉత్తరా": 3855,
      "धर": 3856,
      "what": 3857,
      "ਟਸ": 3858,
      "రామ": 3859,
      "रियन": 3860,
      "Temple": 3861,
      "Gujarat": 3862,
      "प्रादु": 3863,
      "టే": 3864,
      "ਜੰਗ": 3865,
      "nd": 3866,
      "प्रादुर्भा": 3867,
      "చు": 3868,
      "ਸੰਸਕ੍ਰਿਤੀ": 3869,
      "Eastern": 3870,
      "प्रादुर्भाव": 3871,
      "ఏర్పడ": 3872,
      "ec": 3873,
      "अंत": 3874,
      "స్తారు": 3875,
      "ਖਿਅਤ": 3876,
      "ik": 3877,
      "फैल": 3878,
      "పోయ": 3879,
      "ਸਥਾਨਾਂ": 3880,
      "bl": 3881,
      "लेने": 3882,
      "సంవత్సరాలు": 3883,
      "Ma": 3884,
      "पुरातत्ववि": 3885,
      "ਭਰਤ": 3886,
      "రాన్": 3887,
      "ned": 3888,
      "पुरातत्वविद्": 3889,
      "ంచబడ": 3890,
      "role": 3891,
      "ਰਿਸ਼ਭਦੇਵ": 3892,
      "मिलाने": 3893,
      "మి": 3894,
      "did": 3895,
      "मिट्टी": 3896,
      "ਮਦ": 3897,
      "city": 3898,
      "టో": 3899,
      "प्रोटोइलामाइट": 3900,
      "do": 3901,
      "బౌద్ధుల": 3902,
      "ਪੁਰਾਣ": 3903,
      "तस": 3904,
      "largely": 3905,
      "ంద్": 3906,
      "शक्तिशाली": 3907,
      "scale": 3908,
      "ਕਾਸ਼": 3909,
      "చేర": 3910,
      "औरं": 3911,
      "medieval": 3912,
      "ములో": 3913,
      "ਭੂਮੀ": 3914,
      "similar": 3915,
      "औरंग": 3916,
      "స్య": 3917,
      "U": 3918,
      "औरंगज़े": 3919,
      "ਸ਼ੀਆਂ": 3920,
      "సంస్కర": 3921,
      "ud": 3922,
      "औरंगज़ेब": 3923,
      "ਖਾਸ": 3924,
      "నద": 3925,
      "par": 3926,
      "भक्त": 3927,
      "ఓడించి": 3928,
      "ell": 3929,
      "पृथ्वी": 3930,
      "ਹੁੰਦੀ": 3931,
      "ress": 3932,
      "ుస్త": 3933,
      "इन्होंने": 3934,
      "Al": 3935,
      "ਜੰਬੂ": 3936,
      "సాహిత్యం": 3937,
      "वेदो": 3938,
      "ma": 3939,
      "చెల్": 3940,
      "वेदोदय": 3941,
      "ਜਾਣਿਆ": 3942,
      "uk": 3943,
      "కులాల": 3944,
      "अभिमन्यु": 3945,
      "fish": 3946,
      "ਅੱਗੇ": 3947,
      "ఆంగ్ల": 3948,
      "चक्र": 3949,
      "To": 3950,
      "బహు": 3951,
      "चक्रव": 3952,
      "groups": 3953,
      "ਪਾਤ": 3954,
      "క్షి": 3955,
      "चक्रवर्ती": 3956,
      "humans": 3957,
      "ਹਮਲਾ": 3958,
      "వర్ష": 3959,
      "प्रान्त": 3960,
      "declared": 3961,
      "legislature": 3962,
      "देमा": 3963,
      "నాయక్": 3964,
      "ਕੁਝ": 3965,
      "includes": 3966,
      "विजे": 3967,
      "ికి": 3968,
      "ਦੋਨਾਂ": 3969,
      "late": 3970,
      "विजेता": 3971,
      "ఆచార": 3972,
      "occurred": 3973,
      "नगरी": 3974,
      "పని": 3975,
      "ਉਂਦੇ": 3976,
      "gained": 3977,
      "मंड": 3978,
      "యాల": 3979,
      "ਸਾਰੀ": 3980,
      "winds": 3981,
      "मंडल": 3982,
      "చేసుకున్నారు": 3983,
      "cent": 3984,
      "दृष्टिको": 3985,
      "ਕਰਯੋਗ": 3986,
      "లాస": 3987,
      "ult": 3988,
      "पाल": 3989,
      "పాలి": 3990,
      "ash": 3991,
      "ਮਹਾਦੀਪ": 3992,
      "हिन्द": 3993,
      "ంప": 3994,
      "ue": 3995,
      "महासागर": 3996,
      "ਸ਼ਾਣ": 3997,
      "des": 3998,
      "మార్గం": 3999,
      "मालदी": 4000,
      "Kal": 4001,
      "శాతవాహనుల": 4002,
      "ਚਾਲੁ": 4003,
      "मालदीव": 4004,
      "wards": 4005,
      "కను": 4006,
      "बंगाल": 4007,
      "lasted": 4008,
      "ਲਵ": 4009,
      "వ్రాయబడి": 4010,
      "चुकी": 4011,
      "levels": 4012,
      "చ్": 4013,
      "ਆਸਪਾ": 4014,
      "October": 4015,
      "उनका": 4016,
      "రణం": 4017,
      "Some": 4018,
      "सेनाओं": 4019,
      "ਆਸਪਾਸ": 4020,
      "కరువుల": 4021,
      "princes": 4022,
      "मैदानों": 4023,
      "ਸੰਗਮ": 4024,
      "సమయ": 4025,
      "percent": 4026,
      "लगाता": 4027,
      "నత": 4028,
      "using": 4029,
      "लगातार": 4030,
      "ਗੋਲ": 4031,
      "industrial": 4032,
      "రుస": 4033,
      "अन्ततः": 4034,
      "various": 4035,
      "ਦਰਸ਼ਨ": 4036,
      "పేర్కొన్న": 4037,
      "चलने": 4038,
      "spreading": 4039,
      "సరి": 4040,
      "ईस्ट": 4041,
      "ਅਨੇਕਾਂ": 4042,
      "valley": 4043,
      "బు": 4044,
      "कंप": 4045,
      "brought": 4046,
      "ਹੋਂਦ": 4047,
      "ును": 4048,
      "जिसने": 4049,
      "series": 4050,
      "ర్లు": 4051,
      "प्रभावशाली": 4052,
      "rebellion": 4053,
      "ਜੋਰ": 4054,
      "యా": 4055,
      "आंदो": 4056,
      "break": 4057,
      "ਸਿੱਖਾਂ": 4058,
      "స్థానం": 4059,
      "आंदोलन": 4060,
      "cont": 4061,
      "Th": 4062,
      "विरोध": 4063,
      "భూ": 4064,
      "ਪੁਰਤਗਾਲ": 4065,
      "ann": 4066,
      "व्यक्ति": 4067,
      "ట్టలు": 4068,
      "ਰੋਕ": 4069,
      "ight": 4070,
      "साक्षर": 4071,
      "ఓడించా": 4072,
      "ities": 4073,
      "साक्षरता": 4074,
      "నాలు": 4075,
      "ਵੀਹਵੀਂ": 4076,
      "ten": 4077,
      "पुरुषों": 4078,
      "వా": 4079,
      "ਰਾਜਨੀਤਕ": 4080,
      "old": 4081,
      "एवम": 4082,
      "మ్": 4083,
      "yan": 4084,
      "महि": 4085,
      "ਪਰਿ": 4086,
      "ఆల": 4087,
      "ons": 4088,
      "सूचना": 4089,
      "హర": 4090,
      "ga": 4091,
      "ਸਥਾਪਨਾ": 4092,
      "सेवाओं": 4093,
      "ప్రారంభం": 4094,
      "fer": 4095,
      "प्रगति": 4096,
      "ਚੱਲਿਆ": 4097,
      "soon": 4098,
      "త్వం": 4099,
      "हद": 4100,
      "ning": 4101,
      "్న": 4102,
      "ਰੁਪ": 4103,
      "अस": 4104,
      "six": 4105,
      "సమాఖ్య": 4106,
      "वन": 4107,
      "particular": 4108,
      "ਪਿਤਾ": 4109,
      "ఏర్పర": 4110,
      "जंगलों": 4111,
      "cing": 4112,
      "యంలో": 4113,
      "ਜਾਂਦੇ": 4114,
      "access": 4115,
      "जगहों": 4116,
      "చేసుకు": 4117,
      "dominion": 4118,
      "निवास": 4119,
      "ਚੰਦਰ": 4120,
      "సౌకర్య": 4121,
      "Kerala": 4122,
      "महात्मा": 4123,
      "ਫਲਸ": 4124,
      "ుకు": 4125,
      "structure": 4126,
      "उनमें": 4127,
      "జరిగి": 4128,
      "historical": 4129,
      "सम्रा": 4130,
      "ਫਲਸਰੂਪ": 4131,
      "mainly": 4132,
      "ుతో": 4133,
      "आंत": 4134,
      "Plain": 4135,
      "ਅੰਤਰ": 4136,
      "ించబడిన": 4137,
      "आंतरिक": 4138,
      "notably": 4139,
      "నారు": 4140,
      "आता": 4141,
      "ਐਲਾ": 4142,
      "exported": 4143,
      "రిష": 4144,
      "संग्रा": 4145,
      "Pallavas": 4146,
      "ਰਾਂਤ": 4147,
      "వం": 4148,
      "संग्राम": 4149,
      "temples": 4150,
      "ఆరంభ": 4151,
      "शामिल": 4152,
      "Akbar": 4153,
      "ਸੀਆਂ": 4154,
      "మొ": 4155,
      "स्वरुप": 4156,
      "Z": 4157,
      "ਇੰਦ": 4158,
      "వెళ్ళ": 4159,
      "मेहर": 4160,
      "ow": 4161,
      "inc": 4162,
      "मेहरगढ़": 4163,
      "మన్": 4164,
      "ਇੰਦਰਾ": 4165,
      "ct": 4166,
      "चरम": 4167,
      "లుపు": 4168,
      "ਐਮਰ": 4169,
      "comp": 4170,
      "निर्भ": 4171,
      "రె": 4172,
      "ack": 4173,
      "निर्भर": 4174,
      "పట్టణ": 4175,
      "ਐਮਰਜੈਂ": 4176,
      "prov": 4177,
      "कारों": 4178,
      "అద": 4179,
      "ਐਮਰਜੈਂਸੀ": 4180,
      "ked": 4181,
      "अवधि": 4182,
      "గ్ర": 4183,
      "au": 4184,
      "सम्मि": 4185,
      "ਸੀਮਾ": 4186,
      "రిక": 4187,
      "sur": 4188,
      "सम्मिलित": 4189,
      "చోళు": 4190,
      "ick": 4191,
      "ਇਸਨੂੰ": 4192,
      "महाजन": 4193,
      "ాత్": 4194,
      "adi": 4195,
      "महाजनपद": 4196,
      "ਲੱਗਦੀ": 4197,
      "mass": 4198,
      "చెప్ప": 4199,
      "धर्मों": 4200,
      "Commonwealth": 4201,
      "లం": 4202,
      "ਕਰੋ": 4203,
      "आधारित": 4204,
      "existing": 4205,
      "తాన్": 4206,
      "मध्यम": 4207,
      "annual": 4208,
      "ਕਰੋੜ": 4209,
      "భాగాల": 4210,
      "सभी": 4211,
      "united": 4212,
      "ుకుని": 4213,
      "ਟਕ": 4214,
      "violent": 4215,
      "उभरा": 4216,
      "డిపోయ": 4217,
      "force": 4218,
      "क्षेत्रों": 4219,
      "ਉਪਜਾ": 4220,
      "ఉండ": 4221,
      "larger": 4222,
      "चोल": 4223,
      "ਉਪਜਾਊ": 4224,
      "చేయబడ్డా": 4225,
      "affairs": 4226,
      "प्रशासन": 4227,
      "పాకిస్": 4228,
      "associated": 4229,
      "कला": 4230,
      "ਪਠਾਰ": 4231,
      "related": 4232,
      "రంగా": 4233,
      "गोल": 4234,
      "systems": 4235,
      "ਬ੍ਰ": 4236,
      "పోష": 4237,
      "शास्त्री": 4238,
      "ective": 4239,
      "రమైన": 4240,
      "त्थान": 4241,
      "ਵੱਡੀਆਂ": 4242,
      "ologically": 4243,
      "నల": 4244,
      "चालु": 4245,
      "reform": 4246,
      "ਨਦੀਆਂ": 4247,
      "ఆధార": 4248,
      "दुस": 4249,
      "Classical": 4250,
      "बढ़ने": 4251,
      "imperial": 4252,
      "ਵਰਖਾ": 4253,
      "సార": 4254,
      "स्थानीय": 4255,
      "dates": 4256,
      "ਜਵਾਬ": 4257,
      "బ్": 4258,
      "मले": 4259,
      "probably": 4260,
      "rapidly": 4261,
      "ठित": 4262,
      "ంచాల": 4263,
      "ਗਰਮ": 4264,
      "merchants": 4265,
      "आकर्म": 4266,
      "ెన్న": 4267,
      "ਕੜੀ": 4268,
      "coasts": 4269,
      "आकर्मण": 4270,
      "రుగు": 4271,
      "ith": 4272,
      "पैमा": 4273,
      "నవి": 4274,
      "ਜਨਤਾ": 4275,
      "ust": 4276,
      "गैर": 4277,
      "సాధారణం": 4278,
      "ਖੱਬੇ": 4279,
      "Ind": 4280,
      "स्वयं": 4281,
      "భాషల": 4282,
      "ater": 4283,
      "रिवा": 4284,
      "ਅਖੀ": 4285,
      "కాకతీయ": 4286,
      "col": 4287,
      "नाश": 4288,
      "జా": 4289,
      "ures": 4290,
      "ਅਖੀਰ": 4291,
      "पतन": 4292,
      "again": 4293,
      "इच्छु": 4294,
      "ਸੰਸਦ": 4295,
      "adv": 4296,
      "సైన్యా": 4297,
      "इच्छुक": 4298,
      "Bi": 4299,
      "ఆధారపడి": 4300,
      "ਹਾਸਲ": 4301,
      "हालां": 4302,
      "ata": 4303,
      "పోర": 4304,
      "हालांकि": 4305,
      "amb": 4306,
      "ਲਾਲ": 4307,
      "్త": 4308,
      "अंग्रेजों": 4309,
      "ars": 4310,
      "ముల": 4311,
      "ਉਸਨੇ": 4312,
      "ising": 4313,
      "बहा": 4314,
      "రచన": 4315,
      "te": 4316,
      "करवा": 4317,
      "ਡਰ": 4318,
      "తుంగ": 4319,
      "sal": 4320,
      "भारती": 4321,
      "ਤਿਆ": 4322,
      "అత్య": 4323,
      "ve": 4324,
      "भारतीयों": 4325,
      "విస్తరించి": 4326,
      "coll": 4327,
      "बदला": 4328,
      "ਫਿਰ": 4329,
      "common": 4330,
      "ముంద": 4331,
      "हत्या": 4332,
      "eration": 4333,
      "ਗਠਜੋੜ": 4334,
      "్ల": 4335,
      "हिन्दुओं": 4336,
      "ently": 4337,
      "ప్రజ": 4338,
      "असफल": 4339,
      "ਸਿਰਫ": 4340,
      "script": 4341,
      "పర్యా": 4342,
      "प्रशास": 4343,
      "increasing": 4344,
      "ਭਰ": 4345,
      "కూడుకున": 4346,
      "प्रशासनिक": 4347,
      "ering": 4348,
      "మైదాన": 4349,
      "नियंत्रण": 4350,
      "ening": 4351,
      "ਜਮਹੂ": 4352,
      "థా": 4353,
      "पटल": 4354,
      "rig": 4355,
      "ਜਮਹੂਰੀ": 4356,
      "వర్": 4357,
      "सवीं": 4358,
      "Bal": 4359,
      "Jawaharlal": 4360,
      "प्राप्ति": 4361,
      "సీ": 4362,
      "ਪੰਜ": 4363,
      "Jammu": 4364,
      "अहिंसा": 4365,
      "వంత": 4366,
      "ਲਗਾ": 4367,
      "Republic": 4368,
      "पिता": 4369,
      "నుం": 4370,
      "Party": 4371,
      "धित": 4372,
      "యించ": 4373,
      "ਲਾਗੂ": 4374,
      "ties": 4375,
      "चंद्र": 4376,
      "బంగ్లాదేశ్": 4377,
      "ਸੰਪੰ": 4378,
      "ake": 4379,
      "र्मिक": 4380,
      "చివర": 4381,
      "ila": 4382,
      "दायि": 4383,
      "ਸੰਪੰਨ": 4384,
      "దేవాలయ": 4385,
      "Old": 4386,
      "अन": 4387,
      "చారం": 4388,
      "according": 4389,
      "ਦਹਾ": 4390,
      "गुट": 4391,
      "బడ్డారు": 4392,
      "changed": 4393,
      "विकासशील": 4394,
      "ਦਹਾਕੇ": 4395,
      "text": 4396,
      "ిస్త": 4397,
      "तौर": 4398,
      "limited": 4399,
      "వేరు": 4400,
      "ਸਮੱਸਿਆਵਾਂ": 4401,
      "ऊपर": 4402,
      "seats": 4403,
      "నిర్": 4404,
      "खण्ड": 4405,
      "therefore": 4406,
      "ਮੰਨ": 4407,
      "गोंड": 4408,
      "migration": 4409,
      "భూమి": 4410,
      "ਅਰੁਣਾ": 4411,
      "study": 4412,
      "हिस्सा": 4413,
      "మామ": 4414,
      "figure": 4415,
      "यस": 4416,
      "ਅਰੁਣਾਚਲ": 4417,
      "షా": 4418,
      "eous": 4419,
      "राई": 4420,
      "ਤਰ੍": 4421,
      "వకా": 4422,
      "side": 4423,
      "पठा": 4424,
      "ళ్ళ": 4425,
      "fo": 4426,
      "पठार": 4427,
      "ਤਰ੍ਹਾਂ": 4428,
      "Man": 4429,
      "భరత": 4430,
      "ऊँचा": 4431,
      "highly": 4432,
      "ਤਾਨ": 4433,
      "ువుల": 4434,
      "ऊँचाई": 4435,
      "Gangetic": 4436,
      "పూర్": 4437,
      "मील": 4438,
      "ਕਸ਼ਮੀਰੀ": 4439,
      "Par": 4440,
      "అంద": 4441,
      "जिसकी": 4442,
      "presence": 4443,
      "ਬੋਲੀਆਂ": 4444,
      "లేద": 4445,
      "नदियों": 4446,
      "occupation": 4447,
      "ర్ల": 4448,
      "तल": 4449,
      "akh": 4450,
      "ਭਾਗੀ": 4451,
      "హింస": 4452,
      "क्षेप": 4453,
      "Ram": 4454,
      "ਭਾਗੀਦਾ": 4455,
      "స్తుంద": 4456,
      "पुराने": 4457,
      "key": 4458,
      "provided": 4459,
      "अपेक्षा": 4460,
      "డ్డాయి": 4461,
      "ਅਤਿ": 4462,
      "notable": 4463,
      "कृत": 4464,
      "తకు": 4465,
      "ਅਫ": 4466,
      "commerce": 4467,
      "पहुँच": 4468,
      "శాస్త్ర": 4469,
      "Brahmaputra": 4470,
      "नई": 4471,
      "శ్వ": 4472,
      "ਨੀਆਂ": 4473,
      "vari": 4474,
      "खंड": 4475,
      "ప్రాచ": 4476,
      "ਸੰਖਿ": 4477,
      "mental": 4478,
      "पहाड़ी": 4479,
      "బార్": 4480,
      "itions": 4481,
      "सतपु": 4482,
      "ਸੰਖਿਪਤ": 4483,
      "టి": 4484,
      "alliance": 4485,
      "सतपुड़ा": 4486,
      "ముగి": 4487,
      "Several": 4488,
      "ਜਿਆ": 4489,
      "हती": 4490,
      "ల్క్": 4491,
      "hotspots": 4492,
      "वर्गी": 4493,
      "ਸਬੰ": 4494,
      "shores": 4495,
      "నియా": 4496,
      "त्तर": 4497,
      "black": 4498,
      "గర్": 4499,
      "ਸੰਨ": 4500,
      "नम": 4501,
      "ba": 4502,
      "స్వతంత్ర": 4503,
      "खित": 4504,
      "ṇ": 4505,
      "ਰੂਸ": 4506,
      "అవశేషాల": 4507,
      "अर्ध": 4508,
      "reg": 4509,
      "ఉద్భవించ": 4510,
      "ਸਾਮਰਿਕ": 4511,
      "ea": 4512,
      "लीय": 4513,
      "ాల్": 4514,
      "igh": 4515,
      "सकते": 4516,
      "ਫੈਲਿਆ": 4517,
      "ఉపనిషత్తుల": 4518,
      "gen": 4519,
      "महीने": 4520,
      "ਹਾਲ": 4521,
      "పల్లవుల": 4522,
      "ok": 4523,
      "वर्षा": 4524,
      "గుర": 4525,
      "ement": 4526,
      "धिक": 4527,
      "ਸਹਿਯੋਗ": 4528,
      "ved": 4529,
      "తిని": 4530,
      "वस्तु": 4531,
      "mer": 4532,
      "ਅਮਰੀਕਾ": 4533,
      "ముస్లి": 4534,
      "इनका": 4535,
      "def": 4536,
      "రాజ్యా": 4537,
      "अक्टू": 4538,
      "ਆਰਾਂ": 4539,
      "spec": 4540,
      "ీలక": 4541,
      "अक्टूबर": 4542,
      "read": 4543,
      "ਏਨ": 4544,
      "ష్": 4545,
      "जिससे": 4546,
      "hy": 4547,
      "విశ్వవిద్యాలయ": 4548,
      "लोकतांत्रिक": 4549,
      "ile": 4550,
      "ਬੰਨ": 4551,
      "రిశ్ర": 4552,
      "सरकारों": 4553,
      "ict": 4554,
      "ਕਾਫੀ": 4555,
      "టె": 4556,
      "संसदी": 4557,
      "bar": 4558,
      "ale": 4559,
      "संसदीय": 4560,
      "చంద": 4561,
      "ਕਦੇ": 4562,
      "diff": 4563,
      "ज़्यादा": 4564,
      "ఆర": 4565,
      "ਪੁਰਾਤੱ": 4566,
      "equ": 4567,
      "केंद्री": 4568,
      "మానం": 4569,
      "dev": 4570,
      "केंद्रीय": 4571,
      "విద్య": 4572,
      "ਪੁਰਾਤੱਤਵ": 4573,
      "cor": 4574,
      "पंथी": 4575,
      "హమ్మద": 4576,
      "ਆਗ": 4577,
      "run": 4578,
      "मोदी": 4579,
      "నాడు": 4580,
      "fort": 4581,
      "पार्टियों": 4582,
      "ਸਨਾ": 4583,
      "ెన్": 4584,
      "pet": 4585,
      "बडी": 4586,
      "పల్లవ": 4587,
      "ths": 4588,
      "ਵਿਦਵਾਨ": 4589,
      "वाम": 4590,
      "బర్": 4591,
      "tur": 4592,
      "मनमोहन": 4593,
      "ਕਿਉਂ": 4594,
      "Ex": 4595,
      "घोषि": 4596,
      "house": 4597,
      "భవించ": 4598,
      "ਕਿਉਂਕਿ": 4599,
      "घोषित": 4600,
      "cha": 4601,
      "స్వర్ణ": 4602,
      "लाल": 4603,
      "ecting": 4604,
      "ਹੜੱ": 4605,
      "బలహీన": 4606,
      "नेहरू": 4607,
      "Im": 4608,
      "చారిత్రక": 4609,
      "ਹੜੱਪਾ": 4610,
      "aras": 4611,
      "पाई": 4612,
      "బలహీనపడ": 4613,
      "either": 4614,
      "रहते": 4615,
      "ਬਾਬਰ": 4616,
      "కొర్రమ": 4617,
      "factor": 4618,
      "नेट": 4619,
      "ਅਕਾਲ": 4620,
      "జ్యోతి": 4621,
      "wanted": 4622,
      "राव": 4623,
      "ధ్వంసం": 4624,
      "involved": 4625,
      "थल": 4626,
      "ਰਮ": 4627,
      "turned": 4628,
      "అనుబంధ": 4629,
      "हारी": 4630,
      "rest": 4631,
      "ਪ੍ਰਿ": 4632,
      "అమెరికా": 4633,
      "भरी": 4634,
      "oration": 4635,
      "ఆంధ్ర": 4636,
      "नया": 4637,
      "ਪ੍ਰਿਅ": 4638,
      "shared": 4639,
      "ఆక్రమణదారుల": 4640,
      "चलाया": 4641,
      "assassinated": 4642,
      "ਪ੍ਰਿਅਵਰਤ": 4643,
      "ఇవ్వబడి": 4644,
      "ऐसे": 4645,
      "ble": 4646,
      "बनने": 4647,
      "short": 4648,
      "ਹਿਮ": 4649,
      "ఎదుర్కొ": 4650,
      "गुजरात": 4651,
      "service": 4652,
      "ਹਿਮਵਰਸ਼": 4653,
      "ఏప్రిల్": 4654,
      "शैली": 4655,
      "ruling": 4656,
      "meas": 4657,
      "बंट": 4658,
      "కనుగొనబడ్డాయి": 4659,
      "ਅਜਨਾਭਵਰਸ਼": 4660,
      "immediately": 4661,
      "रूपरेखा": 4662,
      "కరీంనగర్": 4663,
      "ਮੱਧਕਾਲੀਨ": 4664,
      "best": 4665,
      "न्याय": 4666,
      "కలకత్తా": 4667,
      "prevent": 4668,
      "न्यायपालिका": 4669,
      "కలగలుపు": 4670,
      "ਅਧਿਕਾਰਤ": 4671,
      "urs": 4672,
      "अथ": 4673,
      "కాపరులు": 4674,
      "ਹਿਸਾਬ": 4675,
      "married": 4676,
      "अथवा": 4677,
      "కార్యక్రమాల": 4678,
      "Vaj": 4679,
      "लोकसभा": 4680,
      "ਸੱਤ": 4681,
      "కాశీవి": 4682,
      "hymns": 4683,
      "केन्द्रशासित": 4684,
      "గిరిజన": 4685,
      "disputed": 4686,
      "ਜੂਨ": 4687,
      "यद्य": 4688,
      "గోదావర": 4689,
      "contributed": 4690,
      "यद्यपि": 4691,
      "ਮਹਾਸਾਗਰ": 4692,
      "iled": 4693,
      "టిబెట్": 4694,
      "सम्ब": 4695,
      "organised": 4696,
      "డ్రై": 4697,
      "ਕਰਦਾ": 4698,
      "सौहा": 4699,
      "aved": 4700,
      "తత్వవేత్తలకు": 4701,
      "सौहार्द": 4702,
      "uni": 4703,
      "ਮਿਆਂ": 4704,
      "తెలిసి": 4705,
      "एशन": 4706,
      "advanced": 4707,
      "ద్వితీయ": 4708,
      "ਮਿਆਂਮਾਰ": 4709,
      "mented": 4710,
      "पुलि": 4711,
      "ద్వితీయార్ధం": 4712,
      "policy": 4713,
      "पुलिस": 4714,
      "ਸ਼੍ਰੀ": 4715,
      "నాగభట్ట": 4716,
      "works": 4717,
      "अभिया": 4718,
      "ਸ਼੍ਰੀਲੰ": 4719,
      "నియోజకవర్గం": 4720,
      "adopted": 4721,
      "अभियानों": 4722,
      "పంజాబీ": 4723,
      "Kaveri": 4724,
      "बैठ": 4725,
      "ਸ਼੍ਰੀਲੰਕਾ": 4726,
      "close": 4727,
      "పంజాబ్": 4728,
      "बैठक": 4729,
      "Malay": 4730,
      "ਮਾਲਦੀ": 4731,
      "పుష్పం": 4732,
      "भागीदारी": 4733,
      "international": 4734,
      "ప్రాకృత": 4735,
      "सशस्त्र": 4736,
      "ਮਾਲਦੀਵ": 4737,
      "rep": 4738,
      "ప్రాముఖ్యత": 4739,
      "सैनिक": 4740,
      "creating": 4741,
      "ਬਾਰ": 4742,
      "బాధ్యతల": 4743,
      "बल": 4744,
      "bra": 4745,
      "బానిసత్వం": 4746,
      "क्षक": 4747,
      "next": 4748,
      "ਇੰਡੋਨੇ": 4749,
      "బ్రహ్మపుత్ర": 4750,
      "कमां": 4751,
      "Shiva": 4752,
      "ਸਮੁੰਦਰੀ": 4753,
      "భక్తిశ్రద్ధలతో": 4754,
      "कमांडर": 4755,
      "current": 4756,
      "Rajputs": 4757,
      "ऑप": 4758,
      "మార్పుచెంద": 4759,
      "ਸਟ": 4760,
      "southwest": 4761,
      "ऑपरे": 4762,
      "మిహిరాకుల": 4763,
      "ਅਫ਼ਰੀਕਾ": 4764,
      "reforms": 4765,
      "ऑपरेशन": 4766,
      "మెహర్గఢ్": 4767,
      "annually": 4768,
      "निवेश": 4769,
      "విజయనగర": 4770,
      "ਵੱਖਰੇ": 4771,
      "pollution": 4772,
      "विमान": 4773,
      "విదేహ": 4774,
      "ਵਾਲਿਆਂ": 4775,
      "mega": 4776,
      "समझौ": 4777,
      "వివాదాస్పద": 4778,
      "biodiversity": 4779,
      "क्रय": 4780,
      "ਬਣਾਇਆ": 4781,
      "విస్తృత": 4782,
      "dependent": 4783,
      "वृद्धि": 4784,
      "వృక్షం": 4785,
      "orne": 4786,
      "ਮਨੁੱਖੀ": 4787,
      "अंति": 4788,
      "వైష్ణవిజ": 4789,
      "Gondwana": 4790,
      "अंतिम": 4791,
      "ਵਿਭਿੰਨਤਾ": 4792,
      "sediment": 4793,
      "వ్యవహారాల": 4794,
      "हटा": 4795,
      "above": 4796,
      "శతాబ్ధ": 4797,
      "ਸ਼ੀਏ": 4798,
      "ऑफ": 4799,
      "ranges": 4800,
      "శాతకర్ణి": 4801,
      "स्टाफ": 4802,
      "habitat": 4803,
      "ਭਰਿਆ": 4804,
      "శైవిజం": 4805,
      "बढ़ा": 4806,
      "endemism": 4807,
      "శ్రీశైల": 4808,
      "ਹਜ਼ਾ": 4809,
      "Soviet": 4810,
      "पुर्तगाली": 4811,
      "సుమేరియను": 4812,
      "ere": 4813,
      "सिया": 4814,
      "ਫੈਲ": 4815,
      "తదితర": 4816,
      "lar": 4817,
      "अभियान": 4818,
      "ਉਭਾਰ": 4819,
      "నిడివి": 4820,
      "ese": 4821,
      "लागू": 4822,
      "మైలురాయి": 4823,
      "inv": 4824,
      "पस": 4825,
      "ਮੌਜੂਦ": 4826,
      "div": 4827,
      "విస్తీర్ణం": 4828,
      "निर्या": 4829,
      "alled": 4830,
      "ਦ੍ਰਾ": 4831,
      "ప్రతిపత్తి": 4832,
      "समू": 4833,
      "Ne": 4834,
      "నారాయణ": 4835,
      "समूह": 4836,
      "ਦ੍ਰਾਵਿੜ": 4837,
      "ively": 4838,
      "పద్ధతి": 4839,
      "तीसरे": 4840,
      "ood": 4841,
      "ਖੇਤਰਾਂ": 4842,
      "ప్రయోజన": 4843,
      "मात्र": 4844,
      "tak": 4845,
      "బొంబాయి": 4846,
      "सुधार": 4847,
      "ived": 4848,
      "ਬਦਲ": 4849,
      "విమోచన": 4850,
      "उत्ख": 4851,
      "gl": 4852,
      "ਵਿਰਾਸਤ": 4853,
      "వ్యక్తి": 4854,
      "उत्खन": 4855,
      "sa": 4856,
      "char": 4857,
      "बहुमू": 4858,
      "వ్యూహా": 4859,
      "ੜਿਆ": 4860,
      "portion": 4861,
      "बहुमूल्य": 4862,
      "ఉపయోగిస్త": 4863,
      "ਰਾਜਨੀਤਿ": 4864,
      "sing": 4865,
      "रत्न": 4866,
      "దసరా": 4867,
      "icts": 4868,
      "आने": 4869,
      "నరసింహగుప్తా": 4870,
      "ਰਾਜਨੀਤਿਕ": 4871,
      "self": 4872,
      "रसा": 4873,
      "ప్రణాళ": 4874,
      "ਇਕ": 4875,
      "domestic": 4876,
      "राजस्थान": 4877,
      "బిరుద": 4878,
      "ries": 4879,
      "मीणा": 4880,
      "ਸਹਿਜੇ": 4881,
      "మినహా": 4882,
      "liber": 4883,
      "कामका": 4884,
      "సృష్టించ": 4885,
      "temper": 4886,
      "ਪਤਾ": 4887,
      "कामकाज": 4888,
      "ిచెట్టు": 4889,
      "wing": 4890,
      "राजभाषा": 4891,
      "ਸਾਮਰਾਜਾਂ": 4892,
      "occas": 4893,
      "కావేరి": 4894,
      "लिपि": 4895,
      "untouchability": 4896,
      "బృంద": 4897,
      "ਸਮੂ": 4898,
      "वज": 4899,
      "improv": 4900,
      "చదరంగ": 4901,
      "वजह": 4902,
      "thereafter": 4903,
      "ਪੂਰਬੀ": 4904,
      "ంకెలు": 4905,
      "करे": 4906,
      "headed": 4907,
      "ాత్మక": 4908,
      "ਚਾਰਾਂ": 4909,
      "severely": 4910,
      "आठ": 4911,
      "ఇప్పటివరక": 4912,
      "room": 4913,
      "आठवीं": 4914,
      "ਯਹੂ": 4915,
      "కనిష్క": 4916,
      "uncommon": 4917,
      "रियों": 4918,
      "ਯਹੂਦੀ": 4919,
      "కొందరు": 4920,
      "model": 4921,
      "मना": 4922,
      "ుకోవడం": 4923,
      "framework": 4924,
      "ईद": 4925,
      "ਦੂਜੀ": 4926,
      "President": 4927,
      "కనుమలు": 4928,
      "कर्ना": 4929,
      "Sabha": 4930,
      "ਯੁਗੀ": 4931,
      "చోటు": 4932,
      "कर्नाटक": 4933,
      "delegates": 4934,
      "బోధ": 4935,
      "कप": 4936,
      "ਵਿਆ": 4937,
      "transformed": 4938,
      "ీకృత": 4939,
      "पुरी": 4940,
      "extend": 4941,
      "ਚੱਲਣ": 4942,
      "కర్నాటక": 4943,
      "अगले": 4944,
      "divorce": 4945,
      "వ్యక్తుల": 4946,
      "मनो": 4947,
      "ee": 4948,
      "ਸਦੀਆਂ": 4949,
      "సింహ": 4950,
      "खाना": 4951,
      "whereas": 4952,
      "ਵਿਸਥਾ": 4953,
      "సినిమా": 4954,
      "बारे": 4955,
      "drew": 4956,
      "involving": 4957,
      "पिय": 4958,
      "ఇటుకల": 4959,
      "ਵਿਸਥਾਰ": 4960,
      "borders": 4961,
      "जहां": 4962,
      "ఉత్సవాలు": 4963,
      "ਮੀਰ": 4964,
      "farmers": 4965,
      "पुरातत्त्व": 4966,
      "కృష్ణ": 4967,
      "family": 4968,
      "अक": 4969,
      "పిలవ": 4970,
      "ਤੀਵਾਦੀ": 4971,
      "medic": 4972,
      "विद्वान": 4973,
      "ట్యాంకుల": 4974,
      "ਪ੍ਰਭੂ": 4975,
      "food": 4976,
      "अवशे": 4977,
      "త్వరలో": 4978,
      "civilian": 4979,
      "अवशेषों": 4980,
      "ਪ੍ਰਭੂਸੱਤਾ": 4981,
      "స్వరూపం": 4982,
      "consumption": 4983,
      "अतः": 4984,
      "పరంపర": 4985,
      "pa": 4986,
      "ਤਬਦੀ": 4987,
      "कहलाता": 4988,
      "నేరేడు": 4989,
      "ously": 4990,
      "आविष्का": 4991,
      "ਤਬਦੀਲੀਆਂ": 4992,
      "Sim": 4993,
      "వెళ్ల": 4994,
      "आविष्कार": 4995,
      "live": 4996,
      "స్థిరపడ్డా": 4997,
      "ਜਨਤਕ": 4998,
      "कृषक": 4999,
      "initi": 5000,
      "ఆర్యన్": 5001,
      "उपयोगी": 5002,
      "Hindustan": 5003,
      "ਪ੍ਰਭਾਵਸ਼ਾਲੀ": 5004,
      "కుటుంబ": 5005,
      "ताम्बा": 5006,
      "villages": 5007,
      "సిక్కిజం": 5008,
      "ਲਹਿਰ": 5009,
      "pastoral": 5010,
      "ताम्बे": 5011,
      "సిద్ధాంత": 5012,
      "idel": 5013,
      "अन्वे": 5014,
      "ਖ਼ਤਮ": 5015,
      "రూపాంతర": 5016,
      "original": 5017,
      "अन्वेष": 5018,
      "ਆਜ਼ਾਦ": 5019,
      "రేబియ": 5020,
      "plant": 5021,
      "अन्वेषकों": 5022,
      "ఎల్లోరా": 5023,
      "ār": 5024,
      "चान्हू": 5025,
      "ਡੋਮੀਨੀ": 5026,
      "towns": 5027,
      "యూనియన్": 5028,
      "डेरों": 5029,
      "wood": 5030,
      "ਡੋਮੀਨੀਅਨ": 5031,
      "వివాహం": 5032,
      "विजनौ": 5033,
      "make": 5034,
      "జన్మ": 5035,
      "विजनौत": 5036,
      "ਨੁਕ": 5037,
      "lived": 5038,
      "శాస్త్రవేత్తల": 5039,
      "प्रवाह": 5040,
      "subsequently": 5041,
      "ਨੁਕਸਾਨ": 5042,
      "పీఠభూమి": 5043,
      "सूखे": 5044,
      "attract": 5045,
      "వారసుల": 5046,
      "प्रोटा": 5047,
      "asi": 5048,
      "ਤੰਤਰੀ": 5049,
      "గుహల": 5050,
      "प्रोटाइलामाइट": 5051,
      "artists": 5052,
      "ਮਿਲੀ": 5053,
      "అడ్డగిం": 5054,
      "बसी": 5055,
      "mathematicians": 5056,
      "briefly": 5057,
      "टेरा": 5058,
      "కట్టడాల": 5059,
      "ਨਾਮਾ": 5060,
      "devast": 5061,
      "धातुयुग": 5062,
      "హాకీ": 5063,
      "ਪ੍ਰਤੀ": 5064,
      "cot": 5065,
      "मिलानेवाला": 5066,
      "రైల్వేశాఖ": 5067,
      "building": 5068,
      "वेत्ता": 5069,
      "బోనాల": 5070,
      "ਵਿਅ": 5071,
      "innov": 5072,
      "वेत्ताओं": 5073,
      "కూర్చబడ": 5074,
      "ਵਿਅਕਤੀ": 5075,
      "Arav": 5076,
      "लगाया": 5077,
      "స్వర్ణయుగం": 5078,
      "expanding": 5079,
      "अजा": 5080,
      "ਰਤਾ": 5081,
      "పోటీ": 5082,
      "ject": 5083,
      "परिषद": 5084,
      "ేయులు": 5085,
      "osing": 5086,
      "ਬੇਸ": 5087,
      "वान": 5088,
      "గీతం": 5089,
      "Northeast": 5090,
      "धीन": 5091,
      "ਤੇਜ਼ੀ": 5092,
      "territorial": 5093,
      "సుదీర్ఘకాల": 5094,
      "बाबर": 5095,
      "ulk": 5096,
      "ఐక్య": 5097,
      "ਸੇਵਾ": 5098,
      "बता": 5099,
      "stant": 5100,
      "పిలిచ": 5101,
      "तिथिक्रम": 5102,
      "Ba": 5103,
      "ਵਰਗ": 5104,
      "బీహార": 5105,
      "रंभ": 5106,
      "Following": 5107,
      "యజ్ఞ": 5108,
      "ਬਲ": 5109,
      "aris": 5110,
      "विभक्त": 5111,
      "టైటి": 5112,
      "lying": 5113,
      "अजनाभवर्ष": 5114,
      "ਉਂਦੀਆਂ": 5115,
      "రోమ": 5116,
      "ethnic": 5117,
      "उता": 5118,
      "ਗਰੀਬੀ": 5119,
      "ప్రోత్సహించ": 5120,
      "supp": 5121,
      "उतानपाद": 5122,
      "హిందీ": 5123,
      "sil": 5124,
      "मनुओं": 5125,
      "ਅਸਮਾਨਤਾ": 5126,
      "Thailand": 5127,
      "తృత్వ": 5128,
      "घटना": 5129,
      "drop": 5130,
      "ਵਧਣ": 5131,
      "మాదిరి": 5132,
      "बैकु": 5133,
      "sia": 5134,
      "గాంధార": 5135,
      "बैकुण्ठ": 5136,
      "ਉੱਚ": 5137,
      "Dis": 5138,
      "పరిశోధ": 5139,
      "धाम": 5140,
      "lies": 5141,
      "ਸੁਲਝੇ": 5142,
      "సింధూనది": 5143,
      "तपोरिया": 5144,
      "open": 5145,
      "ప్రతినిధ": 5146,
      "सुषा": 5147,
      "historically": 5148,
      "ਸਾਹਮਣਾ": 5149,
      "బెంగాలీ": 5150,
      "लोनिया": 5151,
      "greenhouse": 5152,
      "ਲਿੰਗ": 5153,
      "రక్షించడ": 5154,
      "बैकुं": 5155,
      "olution": 5156,
      "dominance": 5157,
      "बैकुंठ": 5158,
      "నిలిపి": 5159,
      "ਬਾਲ": 5160,
      "uring": 5161,
      "अर्रा": 5162,
      "ఏర్పర్చ": 5163,
      "ਜੰਗਲਾਂ": 5164,
      "ral": 5165,
      "शैता": 5166,
      "కలహాల": 5167,
      "continent": 5168,
      "शैतान": 5169,
      "క్రింద": 5170,
      "ਸ਼ਾਮ": 5171,
      "pop": 5172,
      "सूर्य": 5173,
      "విమాన": 5174,
      "ਸ਼ਾਮਲ": 5175,
      "ultan": 5176,
      "राजवंशों": 5177,
      "జారీ": 5178,
      "cons": 5179,
      "इण्डि": 5180,
      "ਗਤ": 5181,
      "అరబ్బు": 5182,
      "domin": 5183,
      "इण्डिया": 5184,
      "వాటిలో": 5185,
      "decl": 5186,
      "ਸ਼ੀਲਤਾ": 5187,
      "सात": 5188,
      "సెస్": 5189,
      "produ": 5190,
      "दृष्टिकोण": 5191,
      "ਦੇਖਿਆ": 5192,
      "sever": 5193,
      "విష్ణు": 5194,
      "अफ": 5195,
      "raph": 5196,
      "వారసుడ": 5197,
      "ਸੁਰੱ": 5198,
      "अफगा": 5199,
      "sha": 5200,
      "నాణేల": 5201,
      "अफगानि": 5202,
      "rec": 5203,
      "ਸੁਰੱਖਿਅਤ": 5204,
      "విన్స": 5205,
      "अफगानिस्तान": 5206,
      "dra": 5207,
      "ఆక్రమణ": 5208,
      "ਉਤਪੱ": 5209,
      "olved": 5210,
      "नेपाल": 5211,
      "దగిన": 5212,
      "abad": 5213,
      "बांग्ला": 5214,
      "ਉਤਪੱਤੀ": 5215,
      "కారణమ": 5216,
      "eff": 5217,
      "बांग्लादेश": 5218,
      "ਹਿੰਦੀ": 5219,
      "ఖ్యాత": 5220,
      "iqu": 5221,
      "इंडोने": 5222,
      "ష్ణ": 5223,
      "Med": 5224,
      "इंडोनेशिया": 5225,
      "ਖਦੇ": 5226,
      "associ": 5227,
      "ఓడిపోయ": 5228,
      "उत्पन्न": 5229,
      "comple": 5230,
      "ਸਮਰਾ": 5231,
      "ాండర్": 5232,
      "युगी": 5233,
      "paint": 5234,
      "కావాలన": 5235,
      "युगीन": 5236,
      "ਸਮਰਾਟ": 5237,
      "employ": 5238,
      "దిద్దుక": 5239,
      "ईसाई": 5240,
      "allow": 5241,
      "ਪੁੱਤ": 5242,
      "మహారాష్ట్ర": 5243,
      "यहू": 5244,
      "character": 5245,
      "ట్రా": 5246,
      "यहूदी": 5247,
      "cut": 5248,
      "ਰੀਮਦ": 5249,
      "కలాచ": 5250,
      "पारसी": 5251,
      "retur": 5252,
      "ਭਾਗਵਤ": 5253,
      "ఎగు": 5254,
      "तटों": 5255,
      "round": 5256,
      "consider": 5257,
      "समग्र": 5258,
      "ఏర్పరుచుకున": 5259,
      "ਸ਼ਬਦ": 5260,
      "init": 5261,
      "सिख": 5262,
      "ర్ష": 5263,
      "ਮਤਲ": 5264,
      "child": 5265,
      "सम्प्रभु": 5266,
      "తిరిగ": 5267,
      "bodi": 5268,
      "प्रभु": 5269,
      "యమున": 5270,
      "ਮਤਲਬ": 5271,
      "ute": 5272,
      "विभाजित": 5273,
      "విక్ర": 5274,
      "ਤਰਿਕ": 5275,
      "ratic": 5276,
      "अधिराज्य": 5277,
      "హొయ": 5278,
      "recogn": 5279,
      "महिला": 5280,
      "ਪ੍ਰਕਾਸ਼": 5281,
      "జాతులు": 5282,
      "ential": 5283,
      "तेज़ी": 5284,
      "ఇతరదేశాల": 5285,
      "San": 5286,
      "ਲੀਨ": 5287,
      "अन्तरि": 5288,
      "చెప్పుకో": 5289,
      "ii": 5290,
      "उल्ले": 5291,
      "ਤੀਜਾ": 5292,
      "cost": 5293,
      "ప్రతీహర": 5294,
      "उल्लेख": 5295,
      "elect": 5296,
      "అంతర్": 5297,
      "ਅਕਸਰ": 5298,
      "उल्लेखनीय": 5299,
      "victories": 5300,
      "యాస": 5301,
      "द्वितीय": 5302,
      "atri": 5303,
      "ਦੇਸ": 5304,
      "డయ్య": 5305,
      "ग़री": 5306,
      "Relig": 5307,
      "న్యాయస్థాన": 5308,
      "ਪੱਥ": 5309,
      "aled": 5310,
      "ग़रीबी": 5311,
      "మేధో": 5312,
      "cleared": 5313,
      "रखने": 5314,
      "ਪੱਥਰ": 5315,
      "ప్రారంభించాలన": 5316,
      "ianism": 5317,
      "बाल": 5318,
      "ਭੀਮ": 5319,
      "పొందాయి": 5320,
      "claiming": 5321,
      "इत्या": 5322,
      "ంగల్": 5323,
      "democratic": 5324,
      "इत्यादि": 5325,
      "ਭੀਮਬੇ": 5326,
      "democracy": 5327,
      "సిద్ద": 5328,
      "सहिष्णु": 5329,
      "railways": 5330,
      "ਭੀਮਬੇਟ": 5331,
      "సామంత": 5332,
      "सहिष्णुता": 5333,
      "houses": 5334,
      "సహా": 5335,
      "संरक्षि": 5336,
      "ਭੀਮਬੇਟਕਾ": 5337,
      "amend": 5338,
      "ధో": 5339,
      "संरक्षित": 5340,
      "welfare": 5341,
      "ਪ੍ਰਾਚੀਨਤਮ": 5342,
      "హిత": 5343,
      "कल": 5344,
      "aksh": 5345,
      "గోడ": 5346,
      "त्पत्ति": 5347,
      "parties": 5348,
      "ਪਹਿਲੀਆਂ": 5349,
      "వహిస్త": 5350,
      "उत्पत्ति": 5351,
      "Demographics": 5352,
      "ਇਹੀ": 5353,
      "పాలాస్": 5354,
      "श्रीम": 5355,
      "regist": 5356,
      "citizens": 5357,
      "श्रीमद्भा": 5358,
      "పర్వ": 5359,
      "ਸਿਖਰ": 5360,
      "Still": 5361,
      "श्रीमद्भाग": 5362,
      "బుల్": 5363,
      "ਸੂਤਰ": 5364,
      "ises": 5365,
      "श्रीमद्भागवत": 5366,
      "షులు": 5367,
      "males": 5368,
      "पुराण": 5369,
      "వెల్ల": 5370,
      "ਸੂਤਰਪਾਤ": 5371,
      "females": 5372,
      "वर्णि": 5373,
      "డ్స్": 5374,
      "ਵਿਦਵਾ": 5375,
      "top": 5376,
      "वर्णित": 5377,
      "చీరల": 5378,
      "care": 5379,
      "कथा": 5380,
      "ਵਿਦਵਾਨਾਂ": 5381,
      "కల్ప": 5382,
      "colleges": 5383,
      "बेटे": 5384,
      "నెహ్": 5385,
      "standar": 5386,
      "ਇਤਹਾਸ": 5387,
      "सम्राट": 5388,
      "భోజ": 5389,
      "iger": 5390,
      "शब्द": 5391,
      "ਕਰੀਬ": 5392,
      "varna": 5393,
      "స్టర్": 5394,
      "प्रकाश": 5395,
      "cked": 5396,
      "రోడ్ల": 5397,
      "ਸਾਬਤ": 5398,
      "हिन्दुस्तान": 5399,
      "numerals": 5400,
      "ఎల్ల": 5401,
      "बोला": 5402,
      "advent": 5403,
      "ਦ੍ਰ": 5404,
      "సామాన": 5405,
      "काव्य": 5406,
      "lder": 5407,
      "విధాలు": 5408,
      "ਦ੍ਰਵਿੜ": 5409,
      "spor": 5410,
      "अन्तर्ग": 5411,
      "్యత": 5412,
      "isolation": 5413,
      "अन्तर्गत": 5414,
      "ਜਾਤੀਆਂ": 5415,
      "్రాంత": 5416,
      "hunter": 5417,
      "नामों": 5418,
      "ਬੀਆਂ": 5419,
      "స్థాపకుడుగా": 5420,
      "gatherers": 5421,
      "आर्या": 5422,
      "క్రమ": 5423,
      "extremely": 5424,
      "आर्यावर्त": 5425,
      "ਉਸਾਰੀ": 5426,
      "ogamy": 5427,
      "మధ": 5428,
      "होमो": 5429,
      "she": 5430,
      "ਜ਼ਿਕਰਯੋਗ": 5431,
      "ట్నం": 5432,
      "पहुँचे": 5433,
      "astr": 5434,
      "మహమ్మద": 5435,
      "ज्ञात": 5436,
      "ਵਿਸ਼ੇਸ਼": 5437,
      "defined": 5438,
      "సరస్": 5439,
      "भीम": 5440,
      "fortified": 5441,
      "ਵੱਲੋਂ": 5442,
      "జొన్నల": 5443,
      "भीमबे": 5444,
      "feature": 5445,
      "పునాద": 5446,
      "भीमबेट": 5447,
      "Sarn": 5448,
      "ਯੂਨਾ": 5449,
      "ప్రముఖమైన": 5450,
      "भीमबेटका": 5451,
      "additional": 5452,
      "ਓੜ": 5453,
      "ఉంటాయి": 5454,
      "देखने": 5455,
      "Gr": 5456,
      "custom": 5457,
      "मिलता": 5458,
      "వాహన": 5459,
      "ਓੜਕ": 5460,
      "length": 5461,
      "स्थाई": 5462,
      "నియంత్రణ": 5463,
      "ਕੁਸ਼ਾਣ": 5464,
      "cuis": 5465,
      "बस्तियों": 5466,
      "ానీ": 5467,
      "speaking": 5468,
      "खेती": 5469,
      "విజయ": 5470,
      "ਤੀਜੀ": 5471,
      "creativity": 5472,
      "जानव": 5473,
      "ప్రశం": 5474,
      "ਸੁਨਹਿ": 5475,
      "Ajanta": 5476,
      "जानवरों": 5477,
      "పక్షి": 5478,
      "Caves": 5479,
      "काली": 5480,
      "ਸੁਨਹਿਰੀ": 5481,
      "పోషకుల": 5482,
      "adem": 5483,
      "शह": 5484,
      "ార్క్": 5485,
      "artistic": 5486,
      "ਚਾਲੁਕੀ": 5487,
      "शहरों": 5488,
      "రూప": 5489,
      "Shast": 5490,
      "निर्वा": 5491,
      "ਚਾਲੁਕੀਆ": 5492,
      "literary": 5493,
      "వేర": 5494,
      "उत्पादन": 5495,
      "strongly": 5496,
      "విష": 5497,
      "ਗੁਲਾਮ": 5498,
      "वेदों": 5499,
      "Tibet": 5500,
      "హర్యానాలో": 5501,
      "इतिहासकारों": 5502,
      "Lakshadweep": 5503,
      "ਚੋਲ": 5504,
      "ెట్రో": 5505,
      "कुलीन": 5506,
      "uris": 5507,
      "ప్రాణ": 5508,
      "ਪੱਲਵ": 5509,
      "cloth": 5510,
      "शाही": 5511,
      "పంప": 5512,
      "Urdu": 5513,
      "जिन्हे": 5514,
      "ਹਨਾਂ": 5515,
      "జూన": 5516,
      "repeatedly": 5517,
      "शहरीकरण": 5518,
      "ਵਿਗਿਆਨ": 5519,
      "కాశ్మీరు": 5520,
      "ials": 5521,
      "गौतम": 5522,
      "గుజరాతు": 5523,
      "Carnatic": 5524,
      "बुद्ध": 5525,
      "ਕਲਾ": 5526,
      "Jharkhand": 5527,
      "నడిపించట": 5528,
      "आकर्षि": 5529,
      "gods": 5530,
      "ਖਗੋਲ": 5531,
      "హ్": 5532,
      "आकर्षित": 5533,
      "relative": 5534,
      "జో": 5535,
      "सम्प": 5536,
      "ਸ਼ਾਸਤਰ": 5537,
      "warri": 5538,
      "ప్రదేశములో": 5539,
      "आदर्श": 5540,
      "win": 5541,
      "ਵਧੇ": 5542,
      "అధికారంలో": 5543,
      "हिस्सों": 5544,
      "amed": 5545,
      "వేదాంత": 5546,
      "पत्य": 5547,
      "overran": 5548,
      "ਨਗਰ": 5549,
      "సిక్కుమత": 5550,
      "न्नति": 5551,
      "tun": 5552,
      "ਨਿਕਲਿਆ": 5553,
      "ప్రదేశం": 5554,
      "सतर": 5555,
      "kn": 5556,
      "kets": 5557,
      "मुक्त": 5558,
      "ికార్": 5559,
      "ਕਰਕੇ": 5560,
      "och": 5561,
      "यूना": 5562,
      "ాంతా": 5563,
      "ਖੇਪ": 5564,
      "Be": 5565,
      "कुषाण": 5566,
      "తరం": 5567,
      "Christianity": 5568,
      "स्वर्णि": 5569,
      "పిలు": 5570,
      "ਮਰਾ": 5571,
      "Mumbai": 5572,
      "स्वर्णिम": 5573,
      "చైతన్య": 5574,
      "ਆਇਆ": 5575,
      "comprising": 5576,
      "कहलाया": 5577,
      "ఇంటి": 5578,
      "imple": 5579,
      "प्राय": 5580,
      "ਡੱਚ": 5581,
      "ద్రా": 5582,
      "flowering": 5583,
      "प्रायद्वीप": 5584,
      "మౌ": 5585,
      "usually": 5586,
      "ਇੱਛੁ": 5587,
      "चेर": 5588,
      "దశ": 5589,
      "diseas": 5590,
      "पांड्य": 5591,
      "ਇੱਛੁਕ": 5592,
      "historians": 5593,
      "విజయం": 5594,
      "रण": 5595,
      "discrimin": 5596,
      "వ్యా": 5597,
      "ਅੰਦ": 5598,
      "भक्ति": 5599,
      "oro": 5600,
      "రూపు": 5601,
      "प्रचलन": 5602,
      "response": 5603,
      "ਅੰਦਰੂ": 5604,
      "బ్రా": 5605,
      "गणि": 5606,
      "emen": 5607,
      "భూభాగాన్ని": 5608,
      "ਅੰਦਰੂਨੀ": 5609,
      "archaic": 5610,
      "गणित": 5611,
      "మొదలైన": 5612,
      "Lat": 5613,
      "खगोल": 5614,
      "ਸ਼ਾਸਕੀ": 5615,
      "ప్రయాణికు": 5616,
      "cattle": 5617,
      "शास्त्र": 5618,
      "ਇਦਾ": 5619,
      "కళా": 5620,
      "settlement": 5621,
      "शासनकाल": 5622,
      "ూర్": 5623,
      "dif": 5624,
      "फले": 5625,
      "ਕਿਆ": 5626,
      "complex": 5627,
      "టెక్": 5628,
      "फूले": 5629,
      "siz": 5630,
      "ਰੋਕਣ": 5631,
      "ొంది": 5632,
      "उत्थान": 5633,
      "ris": 5634,
      "మార్చి": 5635,
      "चालुक्यों": 5636,
      "ਸਫ਼": 5637,
      "push": 5638,
      "ఆఫ్ఘనిస్తాను": 5639,
      "उत्तरा": 5640,
      "onic": 5641,
      "ਸਫ਼ਲ": 5642,
      "లిన": 5643,
      "शासकों": 5644,
      "super": 5645,
      "ంతియ": 5646,
      "शासक": 5647,
      "chains": 5648,
      "ਪੂਰੇ": 5649,
      "ిజం": 5650,
      "सक्ष": 5651,
      "volcan": 5652,
      "ਵਿਰੁੱ": 5653,
      "స్వతంత్రుల": 5654,
      "सक्षम": 5655,
      "Climate": 5656,
      "wet": 5657,
      "दुसरे": 5658,
      "వహించ": 5659,
      "ਵਿਰੁੱਧ": 5660,
      "dry": 5661,
      "जारी": 5662,
      "కల్పించ": 5663,
      "ਅਸਫਲ": 5664,
      "deciduous": 5665,
      "नये": 5666,
      "ళ్ళు": 5667,
      "Eurasia": 5668,
      "सामान्य": 5669,
      "రజ": 5670,
      "ਬਗ਼ਾ": 5671,
      "threatened": 5672,
      "पुन": 5673,
      "కోట్ల": 5674,
      "ਬਗ਼ਾਵਤ": 5675,
      "uck": 5676,
      "इसने": 5677,
      "శాసన": 5678,
      "cheetah": 5679,
      "घरा": 5680,
      "ਸੁਤੰਤਰ": 5681,
      "కోల": 5682,
      "Lankan": 5683,
      "मार": 5684,
      "కబడ్డీ": 5685,
      "iance": 5686,
      "ਸੁਤੰਤਰਤਾ": 5687,
      "थाई": 5688,
      "సన్యాస": 5689,
      "produce": 5690,
      "लैंड": 5691,
      "ਜਾਂਦੀ": 5692,
      "Organization": 5693,
      "మాల్వా": 5694,
      "इस्लामी": 5695,
      "highest": 5696,
      "సభ": 5697,
      "ਸਿੱਧੇ": 5698,
      "पैमाने": 5699,
      "inth": 5700,
      "హిందూమత": 5701,
      "रीति": 5702,
      "Ni": 5703,
      "ਪ੍ਰਬੰਧ": 5704,
      "లే": 5705,
      "विनाश": 5706,
      "ints": 5707,
      "తమిళం": 5708,
      "ਪ੍ਰਬੰਧਕੀ": 5709,
      "pically": 5710,
      "प्रश": 5711,
      "ఆస": 5712,
      "narrow": 5713,
      "मज": 5714,
      "ਕਾਬੂ": 5715,
      "గౌడ": 5716,
      "ams": 5717,
      "मजबूत": 5718,
      "ਕੋਣਾ": 5719,
      "డో": 5720,
      "ade": 5721,
      "तकनी": 5722,
      "తాం": 5723,
      "pt": 5724,
      "प्रभावित": 5725,
      "ਕੋਣਾਰਕ": 5726,
      "tween": 5727,
      "ప్రతీహార": 5728,
      "डच": 5729,
      "abl": 5730,
      "ਰਜ": 5731,
      "డుతున్న": 5732,
      "ब्रिटे": 5733,
      "ajor": 5734,
      "ప్రసంగ": 5735,
      "ब्रिटेन": 5736,
      "ਹਾਸਿ": 5737,
      "stitut": 5738,
      "ఆశ": 5739,
      "उन्होंने": 5740,
      "angu": 5741,
      "ਹਾਸਿਕ": 5742,
      "కొల": 5743,
      "कता": 5744,
      "remain": 5745,
      "ుకునే": 5746,
      "फाय": 5747,
      "iss": 5748,
      "ਪ੍ਰਸਾਰ": 5749,
      "పొందిన": 5750,
      "फायदा": 5751,
      "alth": 5752,
      "ਪਟਲ": 5753,
      "రాష్ట్రాలుగా": 5754,
      "उठा": 5755,
      "thor": 5756,
      "tar": 5757,
      "उठाया": 5758,
      "వనరు": 5759,
      "ਸਮਾਜਕ": 5760,
      "mus": 5761,
      "करवाने": 5762,
      "ముగించా": 5763,
      "ਅਨੇਕ": 5764,
      "twor": 5765,
      "आपस": 5766,
      "సామ": 5767,
      "anted": 5768,
      "जोर": 5769,
      "మె": 5770,
      "ਰੱਖੀ": 5771,
      "Va": 5772,
      "कामया": 5773,
      "అవి": 5774,
      "ਨੈਸ਼ਨ": 5775,
      "sculpt": 5776,
      "कामयाब": 5777,
      "ఉండవచ్చ": 5778,
      "begin": 5779,
      "देते": 5780,
      "ਨੈਸ਼ਨਲ": 5781,
      "మానవ": 5782,
      "phere": 5783,
      "अशांति": 5784,
      "ద్వైత": 5785,
      "coal": 5786,
      "ਗਤੀ": 5787,
      "फैला": 5788,
      "డించ": 5789,
      "ables": 5790,
      "वालों": 5791,
      "ਪ੍ਰਾਪਤੀ": 5792,
      "irm": 5793,
      "నాయ": 5794,
      "देखो": 5795,
      "ief": 5796,
      "ద్ర": 5797,
      "ਵਿਸ਼ਾ": 5798,
      "आपके": 5799,
      "Hindust": 5800,
      "జోర్": 5801,
      "देखते": 5802,
      "cav": 5803,
      "ਵਿਸ਼ਾਲ": 5804,
      "పండుగ": 5805,
      "कम्प": 5806,
      "sport": 5807,
      "వీరి": 5808,
      "ਅਹਿੰਸਾ": 5809,
      "expor": 5810,
      "कम्पनी": 5811,
      "ఎడ": 5812,
      "bot": 5813,
      "विरु": 5814,
      "ਅਲ": 5815,
      "ప్రాచ్య": 5816,
      "onds": 5817,
      "विरुद्ध": 5818,
      "ਮਹਾਤ": 5819,
      "ఉపయోగించుకున": 5820,
      "Kos": 5821,
      "सीधे": 5822,
      "శం": 5823,
      "speak": 5824,
      "रखी": 5825,
      "ਮਹਾਤਮਾ": 5826,
      "cos": 5827,
      "పశ": 5828,
      "बीसवीं": 5829,
      "fi": 5830,
      "ਆਗੂ": 5831,
      "భవన": 5832,
      "अहिंसावादी": 5833,
      "phas": 5834,
      "నో": 5835,
      "संबो": 5836,
      "ਕਨਾ": 5837,
      "cer": 5838,
      "పాత": 5839,
      "संबोधित": 5840,
      "express": 5841,
      "ਭਗਤ": 5842,
      "మాడి": 5843,
      "क्रांति": 5844,
      "ˈ": 5845,
      "కుది": 5846,
      "आजा": 5847,
      "ː": 5848,
      "ਚਲੇ": 5849,
      "బంగ": 5850,
      "नेता": 5851,
      "δ": 5852,
      "ਅੰਗਰੇਜ਼ਾਂ": 5853,
      "జిన్": 5854,
      "चन्द्र": 5855,
      "ν": 5856,
      "Ἰ": 5857,
      "चले": 5858,
      "సంప్రదాయాల": 5859,
      "ਅੰਤਰਮ": 5860,
      "Kingdom": 5861,
      "तदु": 5862,
      "గురువు": 5863,
      "ਐਲਾਨ": 5864,
      "where": 5865,
      "तदुपरा": 5866,
      "కోట": 5867,
      "Ridge": 5868,
      "तदुपरान्त": 5869,
      "శక్తుల": 5870,
      "ਗਰੁੱ": 5871,
      "Dominion": 5872,
      "जातीय": 5873,
      "వ్య": 5874,
      "ਮਿਸ਼ਨ": 5875,
      "princely": 5876,
      "धार्मिक": 5877,
      "చివే": 5878,
      "um": 5879,
      "शिकार": 5880,
      "ਕਾਂਗਰਸੀ": 5881,
      "సమకాలీన": 5882,
      "Marathas": 5883,
      "असं": 5884,
      "బౌద్ధమతంలో": 5885,
      "August": 5886,
      "ਪਾਰਸੀ": 5887,
      "धर्मनिरपेक्ष": 5888,
      "విస్తరించడం": 5889,
      "while": 5890,
      "जनतांत्रिक": 5891,
      "ਲੈਣ": 5892,
      "ruler": 5893,
      "పట్ట": 5894,
      "तत्का": 5895,
      "Chola": 5896,
      "నామ": 5897,
      "ਅਗਸਤ": 5898,
      "तत्कालीन": 5899,
      "members": 5900,
      "్వు": 5901,
      "आपात": 5902,
      "death": 5903,
      "ਅਸੰ": 5904,
      "ోచన": 5905,
      "आपातकाल": 5906,
      "capital": 5907,
      "నెల": 5908,
      "ਅਸੰਤੋ": 5909,
      "River": 5910,
      "अक्षु": 5911,
      "అందర": 5912,
      "same": 5913,
      "अक्षुण्ण": 5914,
      "ਅਸੰਤੋਸ਼": 5915,
      "వర్గీకర": 5916,
      "army": 5917,
      "राष्ट्रों": 5918,
      "ਹੁੰਦੇ": 5919,
      "తీర్ధంకరుల": 5920,
      "cl": 5921,
      "सामना": 5922,
      "వారీ": 5923,
      "ended": 5924,
      "पहला": 5925,
      "ਨਿਰਪੇ": 5926,
      "each": 5927,
      "ుట్ట": 5928,
      "गये": 5929,
      "defeat": 5930,
      "ਨਿਰਪੇਕਸ਼": 5931,
      "ఆర్య": 5932,
      "सुधा": 5933,
      "founded": 5934,
      "తనేసర": 5935,
      "आकृ": 5936,
      "ਤਤ": 5937,
      "expanded": 5938,
      "ర్కుల": 5939,
      "पूरी": 5940,
      "dynasties": 5941,
      "ਤਤਕਾਲੀਨ": 5942,
      "ఇన్": 5943,
      "र्कटि": 5944,
      "like": 5945,
      "ోద్యమ": 5946,
      "र्कटिका": 5947,
      "sea": 5948,
      "ਸ਼ਣਾ": 5949,
      "కొనసాగింద": 5950,
      "सेमी": 5951,
      "ass": 5952,
      "ਖੰਡ": 5953,
      "వర్గ": 5954,
      "यूरे": 5955,
      "few": 5956,
      "Under": 5957,
      "यूरेशि": 5958,
      "ుత్": 5959,
      "ਰਾਸ਼ਟਰੋਂ": 5960,
      "Hyderabad": 5961,
      "यूरेशियन": 5962,
      "ాములు": 5963,
      "ਚੁੱਕੀ": 5964,
      "From": 5965,
      "अवसा": 5966,
      "పీ": 5967,
      "civilisation": 5968,
      "गतिशील": 5969,
      "నులు": 5970,
      "ਗੁਟ": 5971,
      "Mauryan": 5972,
      "पर्वतमा": 5973,
      "నిర్వ": 5974,
      "ਪਹਿਲਾ": 5975,
      "plants": 5976,
      "पर्वतमाला": 5977,
      "శాస్త్రజ్ఞుల": 5978,
      "monsoon": 5979,
      "नए": 5980,
      "ਦਸ਼": 5981,
      "సంపన్న": 5982,
      "ish": 5983,
      "पहाड़ों": 5984,
      "కరం": 5985,
      "Mah": 5986,
      "ਦਸ਼ਕ": 5987,
      "पर्वतश्रेणी": 5988,
      "పావ": 5989,
      "On": 5990,
      "ब्रह्म": 5991,
      "ਧਾਰੀ": 5992,
      "peak": 5993,
      "ేశం": 5994,
      "ब्रह्मपुत्र": 5995,
      "Lanka": 5996,
      "రాజ్యాలలో": 5997,
      "ਤੇਜੀ": 5998,
      "शिवा": 5999,
      "Chinese": 6000,
      "షన్": 6001,
      "प्रवे": 6002,
      "island": 6003,
      "ਵਿਕਾਸਸ਼ੀਲ": 6004,
      "గ్జ": 6005,
      "प्रवेश": 6006,
      "ce": 6007,
      "బంగ్లాదేశ్ల": 6008,
      "ਜ਼ਿਆਦਾਤਰ": 6009,
      "ast": 6010,
      "कंक": 6011,
      "నియ": 6012,
      "ev": 6013,
      "कंकड": 6014,
      "ਪਰਿਭਾ": 6015,
      "ఈస్ట": 6016,
      "act": 6017,
      "मिश्रि": 6018,
      "ਥਾਰ": 6019,
      "ళి": 6020,
      "ib": 6021,
      "मिश्रित": 6022,
      "తము": 6023,
      "les": 6024,
      "भाबर": 6025,
      "ਮਾਰੂ": 6026,
      "En": 6027,
      "త్తు": 6028,
      "तराई": 6029,
      "strong": 6030,
      "ਮਾਰੂਥਲ": 6031,
      "స్తాన్": 6032,
      "दल": 6033,
      "seas": 6034,
      "వంద": 6035,
      "दलों": 6036,
      "ਬ੍ਰਹਮ": 6037,
      "territory": 6038,
      "ప్రయాణ": 6039,
      "नवी": 6040,
      "powers": 6041,
      "ਬ੍ਰਹਮਪੁੱਤਰ": 6042,
      "ాయ": 6043,
      "नवीन": 6044,
      "Oxford": 6045,
      "నె": 6046,
      "कहीं": 6047,
      "evolved": 6048,
      "ਮਾਨਸੂ": 6049,
      "మణి": 6050,
      "मिलते": 6051,
      "flourished": 6052,
      "ਮਾਨਸੂਨ": 6053,
      "కాలు": 6054,
      "स्थल": 6055,
      "decline": 6056,
      "originated": 6057,
      "चट्टा": 6058,
      "జయించి": 6059,
      "ਮੌਸਮ": 6060,
      "climate": 6061,
      "चट्टानों": 6062,
      "ఇదే": 6063,
      "ਪ੍ਰਾਂਤ": 6064,
      "reptiles": 6065,
      "विंध्या": 6066,
      "హా": 6067,
      "ay": 6068,
      "विंध्याचल": 6069,
      "శిల": 6070,
      "ਪਹਾ": 6071,
      "tra": 6072,
      "पहाड़ियाँ": 6073,
      "కల్": 6074,
      "ਪਹਾੜਾਂ": 6075,
      "ens": 6076,
      "नर्म": 6077,
      "ఆచర": 6078,
      "la": 6079,
      "नर्मदा": 6080,
      "ਸੰਪੂਰਣ": 6081,
      "ఆగమ": 6082,
      "ward": 6083,
      "बहती": 6084,
      "ందా": 6085,
      "moved": 6086,
      "ਮੁਨਾ": 6087,
      "किना": 6088,
      "శి": 6089,
      "divided": 6090,
      "किनारे": 6091,
      "ਜਿੱਥੇ": 6092,
      "Guptas": 6093,
      "విత": 6094,
      "घाट": 6095,
      "succeeded": 6096,
      "యత": 6097,
      "ਕਿਨਾ": 6098,
      "होकर": 6099,
      "Australian": 6100,
      "్యాలు": 6101,
      "कोपे": 6102,
      "amphibians": 6103,
      "ਹੌਲ": 6104,
      "డబ": 6105,
      "कोपेन": 6106,
      "ited": 6107,
      "క్రి": 6108,
      "ਰਹਿੰਦਾ": 6109,
      "border": 6110,
      "वर्गीकरण": 6111,
      "పర్య": 6112,
      "smaller": 6113,
      "मिलती": 6114,
      "ਉਥੇ": 6115,
      "జ్ఞా": 6116,
      "Lord": 6117,
      "अल्पा": 6118,
      "ਮਕ": 6119,
      "మేన": 6120,
      "movements": 6121,
      "अल्पाइन": 6122,
      "అత": 6123,
      "General": 6124,
      "जैसी": 6125,
      "ਪੱਖੀ": 6126,
      "Most": 6127,
      "ువైన": 6128,
      "र्वोत्तर": 6129,
      "units": 6130,
      "ਕਾਰਾਂ": 6131,
      "ోగ": 6132,
      "लिखित": 6133,
      "deep": 6134,
      "ిస్తాన్": 6135,
      "मानी": 6136,
      "ਜਵਾਹਰ": 6137,
      "communities": 6138,
      "ాజ్": 6139,
      "मौसम": 6140,
      "consolidated": 6141,
      "ਵਾਲੀ": 6142,
      "పున": 6143,
      "विभाग": 6144,
      "Arabic": 6145,
      "హన్స": 6146,
      "तुलनात्मक": 6147,
      "declined": 6148,
      "ਆਸਾਨ": 6149,
      "చౌ": 6150,
      "निम्नवत": 6151,
      "Homo": 6152,
      "ਜਿੱਤਾਂ": 6153,
      "చేప": 6154,
      "दिसं": 6155,
      "Sangam": 6156,
      "da": 6157,
      "दिसंबर": 6158,
      "రకాల": 6159,
      "ਮੌਤ": 6160,
      "maritime": 6161,
      "मार्च": 6162,
      "ద్ధి": 6163,
      "ਬਹਾ": 6164,
      "native": 6165,
      "औसत": 6166,
      "ితమైంది": 6167,
      "continental": 6168,
      "ताप": 6169,
      "లాహోర్": 6170,
      "ਸ਼ਾਸਤਰੀ": 6171,
      "du": 6172,
      "तापमान": 6173,
      "ఆధారపడ": 6174,
      "ਬਾਹਰ": 6175,
      "ins": 6176,
      "डिग्री": 6177,
      "ేట్": 6178,
      "emb": 6179,
      "सेल्सि": 6180,
      "ਬਦਲਾ": 6181,
      "వ్రాయ": 6182,
      "we": 6183,
      "सेल्सियस": 6184,
      "రంగం": 6185,
      "loc": 6186,
      "ਮੋਰ": 6187,
      "र्वाधिक": 6188,
      "పంచా": 6189,
      "ats": 6190,
      "लौटना": 6191,
      "ਮੋਰਚੇ": 6192,
      "level": 6193,
      "త్యంత": 6194,
      "क्रमशः": 6195,
      "prot": 6196,
      "నిర్మ": 6197,
      "ਨਵੇਂ": 6198,
      "रहता": 6199,
      "Governor": 6200,
      "టాన్": 6201,
      "तमिलना": 6202,
      "Mahatma": 6203,
      "ਦੁਬਾ": 6204,
      "పల": 6205,
      "तमिलनाडु": 6206,
      "perhaps": 6207,
      "వాడ": 6208,
      "ਦੁਬਾਰਾ": 6209,
      "settled": 6210,
      "शहर": 6211,
      "క్ర": 6212,
      "Mar": 6213,
      "मुम्ब": 6214,
      "ਕਿਸੇ": 6215,
      "ందేల": 6216,
      "still": 6217,
      "मुम्बई": 6218,
      "ਪੂਰਨ": 6219,
      "ుర": 6220,
      "soldiers": 6221,
      "लका": 6222,
      "కాకతీయుల": 6223,
      "although": 6224,
      "राजनीति": 6225,
      "ਕਾਮ": 6226,
      "royal": 6227,
      "ఆద": 6228,
      "शक्तियों": 6229,
      "Pradesh": 6230,
      "ਕਾਮਯਾ": 6231,
      "త్రా": 6232,
      "स्पष्ट": 6233,
      "scholars": 6234,
      "ిడి": 6235,
      "वाले": 6236,
      "ਕਾਮਯਾਬ": 6237,
      "fought": 6238,
      "దళం": 6239,
      "मान्य": 6240,
      "waters": 6241,
      "ਕਾਰਜਕਾਲ": 6242,
      "విస్తరించిన": 6243,
      "मान्यता": 6244,
      "Karnataka": 6245,
      "రాష్ట్రం": 6246,
      "पार्टियां": 6247,
      "gh": 6248,
      "ਯੂਪੀ": 6249,
      "సాధారణ": 6250,
      "नरें": 6251,
      "eng": 6252,
      "ਯੂਪੀਏ": 6253,
      "రాజ్యంలో": 6254,
      "नरेंद्र": 6255,
      "ord": 6256,
      "cy": 6257,
      "वामपंथी": 6258,
      "నుండ": 6259,
      "ਵਧੀ": 6260,
      "ond": 6261,
      "बन्ध": 6262,
      "అధికారి": 6263,
      "ਮਨ": 6264,
      "ard": 6265,
      "सत्ता": 6266,
      "గురి": 6267,
      "rev": 6268,
      "बांट": 6269,
      "అలె": 6270,
      "ਜਾਣ": 6271,
      "pass": 6272,
      "दौर": 6273,
      "యుద్ధాల": 6274,
      "ਪਹਿਲੇ": 6275,
      "rap": 6276,
      "जवा": 6277,
      "గ్రా": 6278,
      "change": 6279,
      "जवाहर": 6280,
      "ਗੁਜ": 6281,
      "నౌజ": 6282,
      "ists": 6283,
      "जवाहरलाल": 6284,
      "ిన్నత్వ": 6285,
      "mission": 6286,
      "ਜੁਲਾ": 6287,
      "बनीं": 6288,
      "రీలు": 6289,
      "ology": 6290,
      "नवग": 6291,
      "ਜੁਲਾਈ": 6292,
      "Pol": 6293,
      "ల్చా": 6294,
      "नवगठित": 6295,
      "Japan": 6296,
      "హార": 6297,
      "ਰਾਸ਼ਟਰਪਤੀ": 6298,
      "साई": 6299,
      "nam": 6300,
      "ిఫ": 6301,
      "जीतकर": 6302,
      "dominions": 6303,
      "ਚਾਲ": 6304,
      "ప్రజా": 6305,
      "मोर्चा": 6306,
      "Crown": 6307,
      "ర్చు": 6308,
      "ਕਾਨੂੰ": 6309,
      "anti": 6310,
      "परंतु": 6311,
      "ున్న": 6312,
      "except": 6313,
      "अल्प": 6314,
      "ਦਸਤਾ": 6315,
      "వంశీయుల": 6316,
      "September": 6317,
      "वक्त": 6318,
      "ਦਸਤਾਵੇ": 6319,
      "వివర": 6320,
      "When": 6321,
      "डीए": 6322,
      "చెలా": 6323,
      "temple": 6324,
      "ऐसी": 6325,
      "ਦਸਤਾਵੇਜ਼": 6326,
      "will": 6327,
      "రణ": 6328,
      "उभरी": 6329,
      "affected": 6330,
      "ਮੂਲ": 6331,
      "పట్టణాల": 6332,
      "यूपी": 6333,
      "lost": 6334,
      "ెగి": 6335,
      "यूपीए": 6336,
      "ਅਰਧ": 6337,
      "Assam": 6338,
      "ాతన": 6339,
      "तान्त्रि": 6340,
      "authority": 6341,
      "ਦਰਸਾ": 6342,
      "ైట్": 6343,
      "तान्त्रिक": 6344,
      "provincial": 6345,
      "ందువ": 6346,
      "संचा": 6347,
      "Pand": 6348,
      "ਇਸੇ": 6349,
      "ల్కా": 6350,
      "संचालित": 6351,
      "because": 6352,
      "ਦਿੰਦਾ": 6353,
      "ులలో": 6354,
      "बंटवा": 6355,
      "formation": 6356,
      "famine": 6357,
      "बंटवारा": 6358,
      "ిశ్రమ": 6359,
      "ਤਿਬਤ": 6360,
      "flows": 6361,
      "सरकारी": 6362,
      "పతి": 6363,
      "ਸੰਧੀ": 6364,
      "likely": 6365,
      "ढाँचा": 6366,
      "డీ": 6367,
      "tribut": 6368,
      "फ़ेडे": 6369,
      "గార్": 6370,
      "ਕਹਿੰ": 6371,
      "evidence": 6372,
      "फ़ेडेरल": 6373,
      "న్నింటి": 6374,
      "ਘਰੇ": 6375,
      "wan": 6376,
      "विधा": 6377,
      "డ్గ": 6378,
      "victory": 6379,
      "विधायि": 6380,
      "ਘਰੇਲੂ": 6381,
      "ేజ్": 6382,
      "Afghanistan": 6383,
      "विधायिका": 6384,
      "తంగా": 6385,
      "Mughals": 6386,
      "ਉਤਪਾਦ": 6387,
      "परिषद्": 6388,
      "పాక": 6389,
      "stone": 6390,
      "चुनाव": 6391,
      "ਹਾਜ਼": 6392,
      "founder": 6393,
      "ప్రదేశ": 6394,
      "प्रत्य": 6395,
      "controlled": 6396,
      "ఆధీన": 6397,
      "ਤਕਰੀਬ": 6398,
      "प्रत्यक्ष": 6399,
      "architectural": 6400,
      "స్థావరాల": 6401,
      "विधि": 6402,
      "traders": 6403,
      "ਤਕਰੀਬਨ": 6404,
      "చెప్పబడ": 6405,
      "नागरिक": 6406,
      "ipur": 6407,
      "కోడ": 6408,
      "ਰਹਿੰਦੇ": 6409,
      "Mongol": 6410,
      "शक्तियाँ": 6411,
      "పటం": 6412,
      "Iran": 6413,
      "नियु": 6414,
      "ਕੰਮ": 6415,
      "ాధి": 6416,
      "ther": 6417,
      "नियुक्ति": 6418,
      "ਨਕਾ": 6419,
      "ిగించ": 6420,
      "pi": 6421,
      "राष्ट्रपति": 6422,
      "ాబ్": 6423,
      "ru": 6424,
      "प्राव": 6425,
      "ਸਾਰੇ": 6426,
      "og": 6427,
      "ఆఫ్ఘన": 6428,
      "प्रावधान": 6429,
      "St": 6430,
      "ਮਿਲਦੀਆਂ": 6431,
      "కోర": 6432,
      "योग्य": 6433,
      "comm": 6434,
      "డ్": 6435,
      "अनिवा": 6436,
      "ਰਮਾ": 6437,
      "resp": 6438,
      "చేయబడ": 6439,
      "अनिवार्य": 6440,
      "hip": 6441,
      "ਆਪਸ": 6442,
      "ఫి": 6443,
      "न्यायाधिकार": 6444,
      "ric": 6445,
      "నుప": 6446,
      "क्शन": 6447,
      "ke": 6448,
      "ਸਾਕਸ਼": 6449,
      "సన": 6450,
      "न्यायाल": 6451,
      "acc": 6452,
      "ਪੁਰਸ਼ਾਂ": 6453,
      "ిల్ల": 6454,
      "न्यायालयों": 6455,
      "ened": 6456,
      "opp": 6457,
      "हनन": 6458,
      "సుర": 6459,
      "ਭਾਗੀਦਾਰੀ": 6460,
      "yas": 6461,
      "इलावा": 6462,
      "ఆఫ్రిక": 6463,
      "ਮੁਸਲ": 6464,
      "ox": 6465,
      "दायित्व": 6466,
      "మతి": 6467,
      "br": 6468,
      "केंद्रशासित": 6469,
      "ున": 6470,
      "ਸਮਿੱ": 6471,
      "ath": 6472,
      "हरिया": 6473,
      "స్థ": 6474,
      "ਸਮਿੱਲਤ": 6475,
      "past": 6476,
      "हरियाणा": 6477,
      "ఖో": 6478,
      "killed": 6479,
      "दाद": 6480,
      "ਬੋਲੀ": 6481,
      "రుణ": 6482,
      "demand": 6483,
      "दादरा": 6484,
      "దుర్గ": 6485,
      "Nations": 6486,
      "ਅਫਰੀਕਾ": 6487,
      "हवे": 6488,
      "వాయ": 6489,
      "arrived": 6490,
      "हवेली": 6491,
      "ਨਿਭਾਈ": 6492,
      "taking": 6493,
      "ఆరంభం": 6494,
      "दमन": 6495,
      "forced": 6496,
      "ీకా": 6497,
      "ਸੋਵਿ": 6498,
      "सम्बन्ध": 6499,
      "But": 6500,
      "్మే": 6501,
      "सौहार्दपूर्ण": 6502,
      "earlier": 6503,
      "ਸੋਵਿਅਤ": 6504,
      "తేద": 6505,
      "बनाए": 6506,
      "winter": 6507,
      "ుతున్న": 6508,
      "ਸਬੰਧਾਂ": 6509,
      "must": 6510,
      "अग्र": 6511,
      "భాగాలు": 6512,
      "free": 6513,
      "अग्रणी": 6514,
      "ਵੱਖਰਾ": 6515,
      "పే": 6516,
      "defence": 6517,
      "मंत्रण": 6518,
      "ਬੈਠ": 6519,
      "జె": 6520,
      "representatives": 6521,
      "हस्त": 6522,
      "పండి": 6523,
      "Chief": 6524,
      "हस्तक्षेप": 6525,
      "ਬੈਠਕ": 6526,
      "Ge": 6527,
      "దేశాల్లో": 6528,
      "युद्धों": 6529,
      "Sindh": 6530,
      "ਸਰਗਰਮ": 6531,
      "ఖాన": 6532,
      "बढ़ो": 6533,
      "effects": 6534,
      "చెందిం": 6535,
      "आपू": 6536,
      "ਸ਼ਠ": 6537,
      "data": 6538,
      "ఘా": 6539,
      "आपूर्ति": 6540,
      "foundations": 6541,
      "ਵੇਖੋ": 6542,
      "శాన": 6543,
      "आपूर्तिक": 6544,
      "aged": 6545,
      "ుకున్న": 6546,
      "आपूर्तिकर्ता": 6547,
      "hol": 6548,
      "ਨੀਤੀ": 6549,
      "ించే": 6550,
      "इजरा": 6551,
      "sixteen": 6552,
      "ਵੇਸ਼": 6553,
      "భాగాన్ని": 6554,
      "इजराय": 6555,
      "multiple": 6556,
      "split": 6557,
      "इजरायल": 6558,
      "మనవ": 6559,
      "ਕੋਸ਼ਿ": 6560,
      "Narmada": 6561,
      "संगठ": 6562,
      "కేంద్రాలు": 6563,
      "ਕੋਸ਼ਿਸ਼": 6564,
      "considered": 6565,
      "संगठन": 6566,
      "వంశాల": 6567,
      "sapiens": 6568,
      "एशियाई": 6569,
      "పోరాటం": 6570,
      "ਹਥਿਆਰਾਂ": 6571,
      "beyond": 6572,
      "एसो": 6573,
      "ాప": 6574,
      "ਗ਼ੈਰ": 6575,
      "compared": 6576,
      "एसोसि": 6577,
      "ర్థ": 6578,
      "post": 6579,
      "एसोसिएशन": 6580,
      "ਫ਼ੌਜੀ": 6581,
      "వంశ": 6582,
      "Uttar": 6583,
      "कर्मि": 6584,
      "నికి": 6585,
      "Nepal": 6586,
      "ਸਮੱਝੌ": 6587,
      "कर्मियों": 6588,
      "భారతదేశమ": 6589,
      "prominence": 6590,
      "महाद्वी": 6591,
      "ਸਮੱਝੌਤੇ": 6592,
      "patronage": 6593,
      "ప్పటికినీ": 6594,
      "महाद्वीपों": 6595,
      "ji": 6596,
      "ేట": 6597,
      "ਹਸਤਾ": 6598,
      "बहुप": 6599,
      "distance": 6600,
      "వత్": 6601,
      "बहुपक्षी": 6602,
      "patronised": 6603,
      "ਹਸਤਾਖਰ": 6604,
      "చేయడ": 6605,
      "बहुपक्षीय": 6606,
      "Cholas": 6607,
      "ిలో": 6608,
      "ਊਰ": 6609,
      "Since": 6610,
      "मंचों": 6611,
      "పండ": 6612,
      "cross": 6613,
      "खास": 6614,
      "ਊਰਜਾ": 6615,
      "్క": 6616,
      "mainland": 6617,
      "खासकर": 6618,
      "ਸਪ": 6619,
      "శీత": 6620,
      "traded": 6621,
      "शिखर": 6622,
      "నిరంతరం": 6623,
      "oceanic": 6624,
      "घनि": 6625,
      "ਏਨਏ": 6626,
      "ṭ": 6627,
      "ోత్త": 6628,
      "घनिष्ठ": 6629,
      "dom": 6630,
      "ਏਨਏਸ": 6631,
      "డ్డ": 6632,
      "सैनि": 6633,
      "ime": 6634,
      "వెల": 6635,
      "सैनिकों": 6636,
      "ਏਨਏਸਜੀ": 6637,
      "coun": 6638,
      "హిమాలయాల": 6639,
      "विद्य": 6640,
      "dit": 6641,
      "ਛੁੱਟ": 6642,
      "టాట": 6643,
      "विद्यमान": 6644,
      "ran": 6645,
      "ైనా": 6646,
      "बलों": 6647,
      "ley": 6648,
      "ਸੈਨਿ": 6649,
      "స్థావరం": 6650,
      "ज्यादा": 6651,
      "cre": 6652,
      "ਸੈਨਿਕਾਂ": 6653,
      "పొంద": 6654,
      "सन्": 6655,
      "dem": 6656,
      "uj": 6657,
      "रखते": 6658,
      "తెలంగాణలో": 6659,
      "ਸ਼ਸ": 6660,
      "ama": 6661,
      "मुद्दों": 6662,
      "యర్": 6663,
      "ਸ਼ਸਤਰ": 6664,
      "ights": 6665,
      "जापा": 6666,
      "బండ": 6667,
      "oral": 6668,
      "जापान": 6669,
      "ింప": 6670,
      "ਸ਼ਸਤਰਬੰ": 6671,
      "chi": 6672,
      "असैनिक": 6673,
      "కళల": 6674,
      "ਸ਼ਸਤਰਬੰਦ": 6675,
      "ti": 6676,
      "समझौते": 6677,
      "రచ": 6678,
      "ub": 6679,
      "हस्ता": 6680,
      "ਬਜ": 6681,
      "రిగా": 6682,
      "ool": 6683,
      "हस्ताक्षर": 6684,
      "పొంది": 6685,
      "aps": 6686,
      "ਬਜਟ": 6687,
      "अन्तर": 6688,
      "్టు": 6689,
      "fin": 6690,
      "ऊर्जा": 6691,
      "ਡਾਲ": 6692,
      "ability": 6693,
      "ంభ": 6694,
      "एनए": 6695,
      "anda": 6696,
      "ఆయనకు": 6697,
      "ਡਾਲਰ": 6698,
      "एनएस": 6699,
      "geograph": 6700,
      "ంస్": 6701,
      "एनएसजी": 6702,
      "oth": 6703,
      "ਮਾਮ": 6704,
      "ుక్త": 6705,
      "छूट": 6706,
      "minor": 6707,
      "అంత": 6708,
      "ਮਾਮਲੇ": 6709,
      "school": 6710,
      "छठा": 6711,
      "నిర్మాణాల": 6712,
      "dep": 6713,
      "डम": 6714,
      "ਦਹਿ": 6715,
      "నాయకుల": 6716,
      "With": 6717,
      "आवं": 6718,
      "ਦਹਿਸ਼ਤ": 6719,
      "మాత్రమ": 6720,
      "addition": 6721,
      "रूपए": 6722,
      "పెం": 6723,
      "No": 6724,
      "राशि": 6725,
      "ਅੱਤਵਾ": 6726,
      "rain": 6727,
      "సర": 6728,
      "सकल": 6729,
      "light": 6730,
      "ਅੱਤਵਾਦੀਆਂ": 6731,
      "గ్": 6732,
      "घरे": 6733,
      "proportion": 6734,
      "ిజ": 6735,
      "घरेलू": 6736,
      "ਸਮੇ": 6737,
      "tri": 6738,
      "సాగించ": 6739,
      "पोर्ट": 6740,
      "az": 6741,
      "ਸਮੇਤ": 6742,
      "నిరంతర": 6743,
      "मामले": 6744,
      "officially": 6745,
      "రే": 6746,
      "अमेरिकी": 6747,
      "referred": 6748,
      "ਅਜਿ": 6749,
      "జే": 6750,
      "वार्षि": 6751,
      "newly": 6752,
      "ਫੈਲਾ": 6753,
      "తాల": 6754,
      "वार्षिक": 6755,
      "appointed": 6756,
      "nationalism": 6757,
      "आयातक": 6758,
      "యన్": 6759,
      "ਨਸ਼ਾ": 6760,
      "date": 6761,
      "रैंक": 6762,
      "ింట": 6763,
      "ਸਬੰਧ": 6764,
      "New": 6765,
      "उपा": 6766,
      "సంప్రదాయక": 6767,
      "ters": 6768,
      "दिए": 6769,
      "ఠా": 6770,
      "ਤਣਾ": 6771,
      "might": 6772,
      "रियास": 6773,
      "నుక": 6774,
      "ਮਤਭੇ": 6775,
      "tered": 6776,
      "रियासतों": 6777,
      "నప్పటికినీ": 6778,
      "Long": 6779,
      "इयों": 6780,
      "ਮਤਭੇਦ": 6781,
      "bur": 6782,
      "अधिकारी": 6783,
      "తస్తుల": 6784,
      "Amritsar": 6785,
      "ਕੜੀਆਂ": 6786,
      "वरि": 6787,
      "జీ": 6788,
      "entered": 6789,
      "वरिष्ठ": 6790,
      "ਹਵਾਲੇ": 6791,
      "ray": 6792,
      "ణాలు": 6793,
      "वायुसेना": 6794,
      "meet": 6795,
      "చోళుల": 6796,
      "ਪੜ੍": 6797,
      "निय": 6798,
      "seen": 6799,
      "అజ": 6800,
      "राम": 6801,
      "combined": 6802,
      "ਪਤਨ": 6803,
      "్ట": 6804,
      "गोवा": 6805,
      "itself": 6806,
      "చిర": 6807,
      "ਰਸ਼ਟਿ": 6808,
      "ested": 6809,
      "प्रदर्शन": 6810,
      "కంద": 6811,
      "final": 6812,
      "कार्र": 6813,
      "ਸਨਾਤਨ": 6814,
      "లోయల": 6815,
      "describes": 6816,
      "कार्रवा": 6817,
      "ਵਿਦੇ": 6818,
      "వివరాల": 6819,
      "marriage": 6820,
      "कार्रवाई": 6821,
      "ఆధారాల": 6822,
      "minority": 6823,
      "सियाचि": 6824,
      "ਮਿਲੇ": 6825,
      "Ban": 6826,
      "నియంత్రించ": 6827,
      "सियाचिन": 6828,
      "significantly": 6829,
      "ਲੱਗੇ": 6830,
      "కే": 6831,
      "ग्लेशि": 6832,
      "forces": 6833,
      "సమర్": 6834,
      "ग्लेशियर": 6835,
      "ਕੋਈ": 6836,
      "Kalinga": 6837,
      "ాలకు": 6838,
      "टर": 6839,
      "Gre": 6840,
      "ਧਾਰਿਤ": 6841,
      "కున్న": 6842,
      "कंपनि": 6843,
      "mentioned": 6844,
      "ల్లి": 6845,
      "कंपनियों": 6846,
      "syncretic": 6847,
      "ਬਾਰੇ": 6848,
      "బల": 6849,
      "योजना": 6850,
      "rising": 6851,
      "ਵਰਣ": 6852,
      "పార్": 6853,
      "साझे": 6854,
      "successful": 6855,
      "prior": 6856,
      "साझेदारी": 6857,
      "పోరాటాల": 6858,
      "ਵਰਣਨ": 6859,
      "sources": 6860,
      "लड़ाकू": 6861,
      "గు": 6862,
      "ਆਉਂਦਾ": 6863,
      "characterised": 6864,
      "पन": 6865,
      "పెట్ట": 6866,
      "prop": 6867,
      "मुद्रा": 6868,
      "ుళ": 6869,
      "ਸ਼ਿਲਾ": 6870,
      "concept": 6871,
      "क्रयशक्ति": 6872,
      "దుర్": 6873,
      "ਮਹਾਜਨ": 6874,
      "cra": 6875,
      "तीव्र": 6876,
      "ీలు": 6877,
      "respectively": 6878,
      "बैंक": 6879,
      "ਮਹਾਜਨਪ": 6880,
      "అప": 6881,
      "council": 6882,
      "गीण": 6883,
      "పట్టాల": 6884,
      "ander": 6885,
      "ਮਹਾਜਨਪਦ": 6886,
      "ऐतिहासिक": 6887,
      "శక": 6888,
      "Odisha": 6889,
      "जीडी": 6890,
      "ਮਹ": 6891,
      "internal": 6892,
      "సింగ": 6893,
      "जीडीपी": 6894,
      "Madhav": 6895,
      "ారామ": 6896,
      "ਮਹਤਵਪੂਰਣ": 6897,
      "अधिकतर": 6898,
      "Roman": 6899,
      "కుండి": 6900,
      "नगरों": 6901,
      "production": 6902,
      "ਗਣਰਾਜਾਂ": 6903,
      "ెర": 6904,
      "फ़्टवे": 6905,
      "linked": 6906,
      "డే": 6907,
      "ਤਦ": 6908,
      "contempor": 6909,
      "फ़्टवेयर": 6910,
      "చారి": 6911,
      "Kannada": 6912,
      "नागरि": 6913,
      "ਰਾਜਾਵਾਂ": 6914,
      "తె": 6915,
      "Nag": 6916,
      "नागरिकों": 6917,
      "ਤੁਰਕ": 6918,
      "కుడు": 6919,
      "maintained": 6920,
      "जीविका": 6921,
      "ఆచారాల": 6922,
      "adh": 6923,
      "आव": 6924,
      "ਅਗਲੇ": 6925,
      "carried": 6926,
      "ఆఫ్ఘ": 6927,
      "आवश्य": 6928,
      "vara": 6929,
      "ਅਕਬ": 6930,
      "ోరమ": 6931,
      "आवश्यक": 6932,
      "network": 6933,
      "తలు": 6934,
      "देता": 6935,
      "ਹਿੰਦੂਆਂ": 6936,
      "faith": 6937,
      "రంగాల": 6938,
      "करोड": 6939,
      "Bengali": 6940,
      "ਵਾਇਆ": 6941,
      "నలు": 6942,
      "अमरीका": 6943,
      "Ad": 6944,
      "కద": 6945,
      "रात": 6946,
      "zone": 6947,
      "ਬਗਾ": 6948,
      "వాన్": 6949,
      "रसायन": 6950,
      "latitude": 6951,
      "ਬਗਾਵਤ": 6952,
      "లూ": 6953,
      "चम": 6954,
      "Coastal": 6955,
      "zones": 6956,
      "मशी": 6957,
      "చైనీ": 6958,
      "ਖਿਤ": 6959,
      "Cold": 6960,
      "मशीन": 6961,
      "చెల": 6962,
      "ਮਧਿ": 6963,
      "covering": 6964,
      "उर्व": 6965,
      "ఆధ": 6966,
      "ī": 6967,
      "लाइ": 6968,
      "రో": 6969,
      "ਮਧਿਅਕਾਲ": 6970,
      "ort": 6971,
      "कालिक": 6972,
      "జనపద": 6973,
      "ਕ੍ਰਮ": 6974,
      "ition": 6975,
      "शत्रु": 6976,
      "ందుకు": 6977,
      "pol": 6978,
      "पुरुष": 6979,
      "ਜੋਤੀ": 6980,
      "పస": 6981,
      "ugh": 6982,
      "मुस": 6983,
      "వృద్ధ": 6984,
      "bas": 6985,
      "ਸਵਾ": 6986,
      "मुसल": 6987,
      "రం": 6988,
      "ific": 6989,
      "मध्यप्रदेश": 6990,
      "ਉੱਤਾਨ": 6991,
      "Com": 6992,
      "సాంరాజ్య": 6993,
      "मुख्यरूप": 6994,
      "fe": 6995,
      "రిజ": 6996,
      "ਉੱਤਾਨਪਾਦ": 6997,
      "महाराष्ट्र": 6998,
      "uc": 6999,
      "చరి": 7000,
      "रव": 7001,
      "ban": 7002,
      "ਸੌਂਪ": 7003,
      "వర్త": 7004,
      "रेजि": 7005,
      "ful": 7006,
      "ెల్ల": 7007,
      "ਆਗਨੀ": 7008,
      "por": 7009,
      "रेजिमें": 7010,
      "ెక్": 7011,
      "indi": 7012,
      "रेजिमेंट": 7013,
      "ਆਗਨੀਧਰ": 7014,
      "ిచ్చ": 7015,
      "ature": 7016,
      "उड़ी": 7017,
      "ਜੰਬੂਦ": 7018,
      "కొని": 7019,
      "origin": 7020,
      "उड़ीसा": 7021,
      "ేననీ": 7022,
      "estim": 7023,
      "असम": 7024,
      "ਜੰਬੂਦਵੀ": 7025,
      "represent": 7026,
      "లన్నింటి": 7027,
      "बोली": 7028,
      "ained": 7029,
      "ਜੰਬੂਦਵੀਪ": 7030,
      "మార్గా": 7031,
      "समान": 7032,
      "writ": 7033,
      "శ్రమ": 7034,
      "इस्ते": 7035,
      "ਸਪੁਰ": 7036,
      "ident": 7037,
      "జర్": 7038,
      "इस्तेमाल": 7039,
      "dam": 7040,
      "ਸਪੁਰਦ": 7041,
      "ధర": 7042,
      "समाप्ति": 7043,
      "tern": 7044,
      "ేక": 7045,
      "निश्चि": 7046,
      "rom": 7047,
      "ਧੁੰਨੀ": 7048,
      "ుకొన": 7049,
      "निश्चित": 7050,
      "sec": 7051,
      "ਕ੍ਰਿਤੀ": 7052,
      "గే": 7053,
      "अनुसूची": 7054,
      "ains": 7055,
      "sim": 7056,
      "करेगी": 7057,
      "జిల్లాల": 7058,
      "ਉਪਮਹਾਦੀਪ": 7059,
      "ref": 7060,
      "सियों": 7061,
      "రునా": 7062,
      "ਥਿਅਨ": 7063,
      "ues": 7064,
      "पारं": 7065,
      "యమైన": 7066,
      "ales": 7067,
      "पारंप": 7068,
      "భిన్న": 7069,
      "ਇੱਛ": 7070,
      "pts": 7071,
      "पारंपरिक": 7072,
      "నిర": 7073,
      "ਇੱਛਕ": 7074,
      "ily": 7075,
      "मूल्यों": 7076,
      "గిన": 7077,
      "ton": 7078,
      "मनाए": 7079,
      "ਪ੍ਰਸਾਦ": 7080,
      "ఆక్రమ": 7081,
      "core": 7082,
      "दिवाली": 7083,
      "ప్రారంభించి": 7084,
      "Bhar": 7085,
      "ਮਨੋ": 7086,
      "होली": 7087,
      "ిపోయ": 7088,
      "ire": 7089,
      "दशहरा": 7090,
      "ਮਨੋਜ": 7091,
      "labour": 7092,
      "భా": 7093,
      "उल": 7094,
      "eri": 7095,
      "ెగ": 7096,
      "नृत्य": 7097,
      "accoun": 7098,
      "రూ": 7099,
      "झार": 7100,
      "De": 7101,
      "పుర": 7102,
      "झारखंड": 7103,
      "cle": 7104,
      "ధీనంలో": 7105,
      "racy": 7106,
      "मर": 7107,
      "ూప": 7108,
      "ms": 7109,
      "क्रिके": 7110,
      "హే": 7111,
      "Bah": 7112,
      "क्रिकेट": 7113,
      "విభ": 7114,
      "Re": 7115,
      "ध्यान": 7116,
      "ాగి": 7117,
      "gain": 7118,
      "हराया": 7119,
      "mix": 7120,
      "కాళ": 7121,
      "जनक": 7122,
      "Title": 7123,
      "నాగరి": 7124,
      "पड़": 7125,
      "Summary": 7126,
      "ేమా": 7127,
      "मानते": 7128,
      "instead": 7129,
      "త్రాలు": 7130,
      "दिव": 7131,
      "upon": 7132,
      "లాహోర్ల": 7133,
      "दिवस": 7134,
      "replaced": 7135,
      "ద్ధ": 7136,
      "टेलीविज़": 7137,
      "Calcutta": 7138,
      "త్వంగ": 7139,
      "टेलीविज़न": 7140,
      "throughout": 7141,
      "ర్చ": 7142,
      "फिल्म": 7143,
      "predominantly": 7144,
      "district": 7145,
      "मरा": 7146,
      "హత": 7147,
      "mount": 7148,
      "टेलीविजन": 7149,
      "దాయం": 7150,
      "expected": 7151,
      "प्रसारण": 7152,
      "తృ": 7153,
      "proved": 7154,
      "उपग्र": 7155,
      "ఉత్పత్త": 7156,
      "val": 7157,
      "उपग्रह": 7158,
      "ేరి": 7159,
      "elling": 7160,
      "मनोरं": 7161,
      "లెగ": 7162,
      "opposed": 7163,
      "मनोरंजन": 7164,
      "ర్వ": 7165,
      "previous": 7166,
      "कने": 7167,
      "దండ": 7168,
      "alism": 7169,
      "खानपा": 7170,
      "దళ": 7171,
      "itar": 7172,
      "खानपान": 7173,
      "big": 7174,
      "చ్చ": 7175,
      "पसन्द": 7176,
      "hundred": 7177,
      "ేడు": 7178,
      "देखें": 7179,
      "iding": 7180,
      "్వా": 7181,
      "कड़ियाँ": 7182,
      "ination": 7183,
      "అరు": 7184,
      "सहस्र": 7185,
      "private": 7186,
      "తిక": 7187,
      "surround": 7188,
      "स्थायी": 7189,
      "అనున": 7190,
      "exercised": 7191,
      "दौरा": 7192,
      "మిని": 7193,
      "nominated": 7194,
      "दौरान": 7195,
      "చుట": 7196,
      "definition": 7197,
      "उत्खननों": 7198,
      "నమే": 7199,
      "illegal": 7200,
      "गयी": 7201,
      "formerly": 7202,
      "ంజల": 7203,
      "बस्तियाँ": 7204,
      "nine": 7205,
      "రాజపుత్ర": 7206,
      "समुद्र": 7207,
      "governed": 7208,
      "ేజయ": 7209,
      "खानाब": 7210,
      "Ac": 7211,
      "టికి": 7212,
      "खानाबदो": 7213,
      "legislation": 7214,
      "వర్ణ": 7215,
      "खानाबदोश": 7216,
      "Council": 7217,
      "లైన": 7218,
      "गड़े": 7219,
      "cabinet": 7220,
      "హన్": 7221,
      "गड़ेरियों": 7222,
      "responsible": 7223,
      "ాలో": 7224,
      "भांति": 7225,
      "dh": 7226,
      "Meh": 7227,
      "जंगली": 7228,
      "నవ": 7229,
      "home": 7230,
      "परिवा": 7231,
      "చీ": 7232,
      "mortality": 7233,
      "परिवारों": 7234,
      "వీర": 7235,
      "varied": 7236,
      "पशु": 7237,
      "resources": 7238,
      "पशुओं": 7239,
      "ుత": 7240,
      "person": 7241,
      "इधर": 7242,
      "టన్": 7243,
      "udi": 7244,
      "उधर": 7245,
      "కూల": 7246,
      "owned": 7247,
      "भटक": 7248,
      "ప్రదేశము": 7249,
      "networks": 7250,
      "भटकते": 7251,
      "్నా": 7252,
      "output": 7253,
      "नुकी": 7254,
      "Despite": 7255,
      "గుజరా": 7256,
      "नुकीले": 7257,
      "crop": 7258,
      "ేష": 7259,
      "लेना": 7260,
      "environ": 7261,
      "ాస్": 7262,
      "सीखा": 7263,
      "ography": 7264,
      "వల్": 7265,
      "मनुष्यों": 7266,
      "tribes": 7267,
      "తమైంది": 7268,
      "extensive": 7269,
      "यूलि": 7270,
      "మనమ": 7271,
      "nomadic": 7272,
      "यूलिथ": 7273,
      "గమన": 7274,
      "establishment": 7275,
      "चिलियन": 7276,
      "దిగ్": 7277,
      "peoples": 7278,
      "औजा": 7279,
      "నేసర్": 7280,
      "lasting": 7281,
      "औजारों": 7282,
      "numerous": 7283,
      "శీ": 7284,
      "वानर": 7285,
      "olithic": 7286,
      "ిస్తున్న": 7287,
      "मनुष्यत्व": 7288,
      "Rev": 7289,
      "తీర్ధంకర": 7290,
      "बीजा": 7291,
      "widespread": 7292,
      "లయా": 7293,
      "बीजारो": 7294,
      "ems": 7295,
      "మహ": 7296,
      "बीजारोप": 7297,
      "initially": 7298,
      "ీకరించ": 7299,
      "बीजारोपण": 7300,
      "fossils": 7301,
      "పేర్కొ": 7302,
      "मुस्टे": 7303,
      "product": 7304,
      "టలు": 7305,
      "मुस्टेरियन": 7306,
      "cum": 7307,
      "techniques": 7308,
      "रेन": 7309,
      "పాండ": 7310,
      "towards": 7311,
      "रेनडि": 7312,
      "ఓడ": 7313,
      "Yamuna": 7314,
      "रेनडियन": 7315,
      "సమకాలీ": 7316,
      "ax": 7317,
      "मानवो": 7318,
      "ంక": 7319,
      "epics": 7320,
      "मानवोचित": 7321,
      "వార్": 7322,
      "longest": 7323,
      "सभ्यताएं": 7324,
      "ైట": 7325,
      "ie": 7326,
      "जैसा": 7327,
      "ఖ్య": 7328,
      "hold": 7329,
      "यूथि": 7330,
      "పనిచే": 7331,
      "reaching": 7332,
      "यूथिल": 7333,
      "సై": 7334,
      "asa": 7335,
      "कहलाती": 7336,
      "coins": 7337,
      "్రి": 7338,
      "संभ": 7339,
      "introdu": 7340,
      "ంగం": 7341,
      "संभव": 7342,
      "conquest": 7343,
      "రాజధాన": 7344,
      "संभवतः": 7345,
      "heav": 7346,
      "శాస్త్రజ్ఞు": 7347,
      "सुमेरियन": 7348,
      "cavalry": 7349,
      "ిచ్చిన": 7350,
      "thus": 7351,
      "फरा": 7352,
      "చేరి": 7353,
      "outside": 7354,
      "किश": 7355,
      "ఉపయోగించ": 7356,
      "olk": 7357,
      "सुसा": 7358,
      "వస్తు": 7359,
      "kh": 7360,
      "तपा": 7361,
      "ప్రభావితమ": 7362,
      "Greeks": 7363,
      "मुस्या": 7364,
      "ura": 7365,
      "కొనసాగుత": 7366,
      "मुस्यान": 7367,
      "helped": 7368,
      "త్రిక": 7369,
      "कांसे": 7370,
      "Trade": 7371,
      "టర్": 7372,
      "स्तरो": 7373,
      "management": 7374,
      "దళాల": 7375,
      "पानी": 7376,
      "abhata": 7377,
      "కారులు": 7378,
      "जमी": 7379,
      "entire": 7380,
      "సాధించా": 7381,
      "चिक": 7382,
      "visited": 7383,
      "జరుపుక": 7384,
      "चिकनी": 7385,
      "May": 7386,
      "ాట": 7387,
      "मोटा": 7388,
      "autonomy": 7389,
      "account": 7390,
      "पुरातत्ववेत्ताओं": 7391,
      "ద్వై": 7392,
      "hil": 7393,
      "जिसको": 7394,
      "వీట": 7395,
      "Lal": 7396,
      "ग्रन्थों": 7397,
      "కోర్": 7398,
      "administrators": 7399,
      "नूह": 7400,
      "ిటీ": 7401,
      "moving": 7402,
      "शुरूआ": 7403,
      "ాండ": 7404,
      "Vir": 7405,
      "शुरूआती": 7406,
      "జన్ల": 7407,
      "exc": 7408,
      "अजातस": 7409,
      "వళ": 7410,
      "flee": 7411,
      "संरक्षक": 7412,
      "మం": 7413,
      "Krishna": 7414,
      "त्रिपि": 7415,
      "క్కడే": 7416,
      "southeast": 7417,
      "त्रिपिटक": 7418,
      "Bhakti": 7419,
      "ుండే": 7420,
      "अर्था": 7421,
      "sw": 7422,
      "జ్ఞుడు": 7423,
      "शिला": 7424,
      "Sikkim": 7425,
      "వరు": 7426,
      "गणराज्यों": 7427,
      "retreat": 7428,
      "మిలియన్": 7429,
      "संके": 7430,
      "ensive": 7431,
      "రక్ష": 7432,
      "interv": 7433,
      "संकेत": 7434,
      "ణి": 7435,
      "strateg": 7436,
      "अधीन": 7437,
      "శివ": 7438,
      "considerable": 7439,
      "काबु": 7440,
      "కొనసాగి": 7441,
      "lon": 7442,
      "काबुल": 7443,
      "సైన్": 7444,
      "delta": 7445,
      "मुगल": 7446,
      "return": 7447,
      "ఖర": 7448,
      "आज़ा": 7449,
      "deb": 7450,
      "స్మ": 7451,
      "आज़ादी": 7452,
      "ences": 7453,
      "సంత": 7454,
      "बताते": 7455,
      "famines": 7456,
      "ాలకూ": 7457,
      "प्रागै": 7458,
      "roughly": 7459,
      "బౌద్ధమత": 7460,
      "प्रागैतिहासिक": 7461,
      "Over": 7462,
      "మహే": 7463,
      "कालक्रम": 7464,
      "causes": 7465,
      "రాయ": 7466,
      "ज्योति": 7467,
      "driv": 7468,
      "గలిగిన": 7469,
      "शाश्व": 7470,
      "Maldives": 7471,
      "habitats": 7472,
      "शाश्वत": 7473,
      "గౌ": 7474,
      "ift": 7475,
      "सृष्टि": 7476,
      "సందర్శ": 7477,
      "ene": 7478,
      "इनके": 7479,
      "నిర్మాణం": 7480,
      "increase": 7481,
      "उत्ता": 7482,
      "ధీ": 7483,
      "rift": 7484,
      "उत्तानपाद": 7485,
      "్డారు": 7486,
      "equator": 7487,
      "ध्रुव": 7488,
      "రాజవంశాల": 7489,
      "archipel": 7490,
      "सौंप": 7491,
      "ఒకట": 7492,
      "monsoons": 7493,
      "आग्नी": 7494,
      "మార్చ": 7495,
      "bird": 7496,
      "आग्नीध्र": 7497,
      "మైనవి": 7498,
      "International": 7499,
      "जम्बू": 7500,
      "exceeding": 7501,
      "ఫె": 7502,
      "जम्बूद्वीप": 7503,
      "Ś": 7504,
      "బ్యా": 7505,
      "सौंपा": 7506,
      "ṅ": 7507,
      "ుంటు": 7508,
      "ज्येष्ठ": 7509,
      "wh": 7510,
      "చైతన": 7511,
      "स्वायं": 7512,
      "ough": 7513,
      "ంజో": 7514,
      "yn": 7515,
      "स्वायंभु": 7516,
      "ౌలి": 7517,
      "een": 7518,
      "स्वायंभुव": 7519,
      "శైల": 7520,
      "ced": 7521,
      "इनकी": 7522,
      "ఉల్": 7523,
      "ser": 7524,
      "सर्व": 7525,
      "బ్ర": 7526,
      "olog": 7527,
      "जय": 7528,
      "develop": 7529,
      "హైదరాబాద": 7530,
      "स्वारो": 7531,
      "follow": 7532,
      "కని": 7533,
      "स्वारोचि": 7534,
      "ared": 7535,
      "వహ": 7536,
      "स्वारोचिष": 7537,
      "upta": 7538,
      "జాన్": 7539,
      "रैवत": 7540,
      "und": 7541,
      "గుర్తిం": 7542,
      "वेन": 7543,
      "ration": 7544,
      "హర్యానా": 7545,
      "प्रचे": 7546,
      "osed": 7547,
      "ాస్కర": 7548,
      "प्रचेतस": 7549,
      "ital": 7550,
      "రోడ్": 7551,
      "घटनाएं": 7552,
      "ild": 7553,
      "ined": 7554,
      "वेद": 7555,
      "విప": 7556,
      "wa": 7557,
      "छहों": 7558,
      "దల": 7559,
      "ided": 7560,
      "सतयुग": 7561,
      "గుర్తి": 7562,
      "cept": 7563,
      "लीस": 7564,
      "నమోద": 7565,
      "ush": 7566,
      "सत्य": 7567,
      "శ్మీరు": 7568,
      "Dec": 7569,
      "निकट": 7570,
      "ఉపఖండం": 7571,
      "cover": 7572,
      "देमाब": 7573,
      "హిందువుల": 7574,
      "fact": 7575,
      "देमाबन्द": 7576,
      "నాద": 7577,
      "antic": 7578,
      "तप": 7579,
      "దక్కన": 7580,
      "sel": 7581,
      "तपसी": 7582,
      "Brah": 7583,
      "ుపూర్వ": 7584,
      "उन्हीं": 7585,
      "legislat": 7586,
      "థానే": 7587,
      "ग्रीक": 7588,
      "Me": 7589,
      "ఆధిపత్య": 7590,
      "वरु": 7591,
      "expans": 7592,
      "ద్వీ": 7593,
      "वरुण": 7594,
      "utch": 7595,
      "మహిళ": 7596,
      "ula": 7597,
      "सीरिया": 7598,
      "మహిళల": 7599,
      "jo": 7600,
      "बेबी": 7601,
      "పాల్గొ": 7602,
      "iles": 7603,
      "बेबीलोनिया": 7604,
      "జొన్న": 7605,
      "upt": 7606,
      "देमाबं": 7607,
      "నదుల": 7608,
      "kill": 7609,
      "देमाबंद": 7610,
      "ched": 7611,
      "వాస్త": 7612,
      "अर्राट": 7613,
      "grad": 7614,
      "స్థాపకుడు": 7615,
      "भारी": 7616,
      "tal": 7617,
      "ప్రభా": 7618,
      "ग्रन्थ": 7619,
      "export": 7620,
      "ంగ్ల": 7621,
      "भरे": 7622,
      "Ak": 7623,
      "బెంగ": 7624,
      "पड़े": 7625,
      "wealth": 7626,
      "దేశమ": 7627,
      "भयान": 7628,
      "araja": 7629,
      "ెహ్ర": 7630,
      "भयानक": 7631,
      "atures": 7632,
      "ోపాలిట": 7633,
      "अह": 7634,
      "merch": 7635,
      "plac": 7636,
      "अहरि": 7637,
      "ఖ్యాన": 7638,
      "ival": 7639,
      "अहरिमन": 7640,
      "మాట్లాడ": 7641,
      "Sind": 7642,
      "मिल्ट": 7643,
      "న్యాయ": 7644,
      "ices": 7645,
      "मिल्टन": 7646,
      "క్కడ": 7647,
      "sho": 7648,
      "संपूर्ण": 7649,
      "మేధ": 7650,
      "atives": 7651,
      "विजयी": 7652,
      "భిప్రాయ": 7653,
      "annex": 7654,
      "प्रारंभ": 7655,
      "మాణాలు": 7656,
      "techn": 7657,
      "ल्ल्वों": 7658,
      "భివృద్ధి": 7659,
      "appoint": 7660,
      "न्त्री": 7661,
      "ుకున్నారు": 7662,
      "inst": 7663,
      "न्द्रा": 7664,
      "itude": 7665,
      "ఉన్నాయ": 7666,
      "स्क्री": 7667,
      "legal": 7668,
      "స్కర్": 7669,
      "स्ट्रे": 7670,
      "fac": 7671,
      "ించుకోవ": 7672,
      "स्त्रि": 7673,
      "olving": 7674,
      "ధారణ": 7675,
      "administr": 7676,
      "ప్రభ": 7677,
      "anj": 7678,
      "మల్": 7679,
      "Sund": 7680,
      "ాసనం": 7681,
      "iant": 7682,
      "రాచీ": 7683,
      "hous": 7684,
      "ప్రోత్సహ": 7685,
      "here": 7686,
      "tier": 7687,
      "పట్టణీకర": 7688,
      "decis": 7689,
      "ల్గొ": 7690,
      "invest": 7691,
      "దీర్ఘకాల": 7692,
      "itation": 7693,
      "కుమార": 7694,
      "pract": 7695,
      "కారణ": 7696,
      "Harapp": 7697,
      "చాళుక్యు": 7698,
      "avira": 7699,
      "బ్రిట": 7700,
      "neighbour": 7701,
      "కృతుల": 7702,
      "anta": 7703,
      "ota": 7704,
      "ెళ్ళా": 7705,
      "Sat": 7706,
      "వేత్తల": 7707,
      "cu": 7708,
      "పీఠ": 7709,
      "encompass": 7710,
      "గీత": 7711,
      "raid": 7712,
      "విశ్వవిద్యా": 7713,
      "god": 7714,
      "్మదీయ": 7715,
      "wild": 7716,
      "ారతమ": 7717,
      "ls": 7718,
      "ుకోవచ్చ": 7719,
      "ements": 7720,
      "పంచ": 7721,
      "need": 7722,
      "see": 7723,
      "కృష": 7724,
      "drawn": 7725,
      "చాళు": 7726,
      "favour": 7727,
      "పయోగ": 7728,
      "geographically": 7729,
      "మహబూబ్": 7730,
      "governing": 7731,
      "దర్శి": 7732,
      "resent": 7733,
      "నరసింహ": 7734,
      "fell": 7735,
      "threats": 7736,
      "అంతర్జా": 7737,
      "cases": 7738,
      "ఉదా": 7739,
      "drafted": 7740,
      "Ireland": 7741,
      "ishing": 7742,
      "్గఢ్": 7743,
      "distinctions": 7744,
      "మిహిర": 7745,
      "document": 7746,
      "ళుక్య": 7747,
      "marital": 7748,
      "వ్యాప": 7749,
      "bans": 7750,
      "తీయార్ధ": 7751,
      "ground": 7752,
      "దాయక": 7753,
      "decolon": 7754,
      "ీర్ణ": 7755,
      "received": 7756,
      "opposition": 7757,
      "ఇస్లామ": 7758,
      "stress": 7759,
      "్ట్రాన": 7760,
      "stopped": 7761,
      "ీషు": 7762,
      "lines": 7763,
      "వ్యవ": 7764,
      "province": 7765,
      "సాహి": 7766,
      "Sett": 7767,
      "హిమా": 7768,
      "chose": 7769,
      "ాబాద్": 7770,
      "crisis": 7771,
      "ాంతము": 7772,
      "strike": 7773,
      "భౌ": 7774,
      "bodies": 7775,
      "purchas": 7776,
      "ించుకున్నా": 7777,
      "taken": 7778,
      "వెబ్": 7779,
      "usp": 7780,
      "వాహనుల": 7781,
      "view": 7782,
      "కర్నా": 7783,
      "fel": 7784,
      "ాశ్రయ": 7785,
      "quarter": 7786,
      "సిద్ధ": 7787,
      "arrang": 7788,
      "పరచ": 7789,
      "complete": 7790,
      "దారులు": 7791,
      "survived": 7792,
      "యాణి": 7793,
      "af": 7794,
      "host": 7795,
      "ర్తించ": 7796,
      "brok": 7797,
      "ాంతర": 7798,
      "milit": 7799,
      "సౌ": 7800,
      "achievement": 7801,
      "ణాసి": 7802,
      "speed": 7803,
      "ందరి": 7804,
      "absence": 7805,
      "చక్ర": 7806,
      "exclusively": 7807,
      "ఎన్": 7808,
      "Rajya": 7809,
      "డటం": 7810,
      "Untouchability": 7811,
      "legislatures": 7812,
      "అభి": 7813,
      "future": 7814,
      "దంబ": 7815,
      "female": 7816,
      "ూర్తి": 7817,
      "ini": 7818,
      "పర్ష": 7819,
      "decisively": 7820,
      "నిజామ": 7821,
      "consequ": 7822,
      "చుకుని": 7823,
      "vice": 7824,
      "యాత్ర": 7825,
      "missing": 7826,
      "జమ్మ": 7827,
      "contrast": 7828,
      "ాణిక": 7829,
      "ogen": 7830,
      "divide": 7831,
      "భక్త": 7832,
      "Economy": 7833,
      "రస్వత": 7834,
      "uted": 7835,
      "జున": 7836,
      "clothes": 7837,
      "ిరప": 7838,
      "Just": 7839,
      "మిలి": 7840,
      "mag": 7841,
      "శ్రీవ": 7842,
      "sust": 7843,
      "ఉద్య": 7844,
      "participation": 7845,
      "లింగ": 7846,
      "gress": 7847,
      "గిరి": 7848,
      "neither": 7849,
      "recognised": 7850,
      "రద్": 7851,
      "abolished": 7852,
      "ాయణ": 7853,
      "ritual": 7854,
      "సృ": 7855,
      "occupations": 7856,
      "ేసే": 7857,
      "Ori": 7858,
      "టై": 7859,
      "atomically": 7860,
      "ేశి": 7861,
      "persistent": 7862,
      "ణించ": 7863,
      "loosely": 7864,
      "వద్": 7865,
      "Ary": 7866,
      "realms": 7867,
      "చరిత": 7868,
      "concepts": 7869,
      "ధారా": 7870,
      "Empires": 7871,
      "కేత": 7872,
      "pillar": 7873,
      "ైన్యం": 7874,
      "urg": 7875,
      "ౌళ": 7876,
      "Golden": 7877,
      "ొల": 7878,
      "forming": 7879,
      "షకులు": 7880,
      "mud": 7881,
      "సుమ": 7882,
      "manufacturing": 7883,
      "గీకర": 7884,
      "Rebellion": 7885,
      "partitioned": 7886,
      "ండియా": 7887,
      "dated": 7888,
      "చ్చింది": 7889,
      "intermittently": 7890,
      "సాహ": 7891,
      "DNA": 7892,
      "గాంధ": 7893,
      "Sch": 7894,
      "హొ": 7895,
      "varying": 7896,
      "ేరే": 7897,
      "genetic": 7898,
      "స్త్రీ": 7899,
      "Further": 7900,
      "ఆడ": 7901,
      "garh": 7902,
      "తుప": 7903,
      "grain": 7904,
      "producing": 7905,
      "మాట": 7906,
      "humped": 7907,
      "ోష": 7908,
      "zebu": 7909,
      "ధులు": 7910,
      "bronze": 7911,
      "ఉత్": 7912,
      "scripts": 7913,
      "నందు": 7914,
      "identity": 7915,
      "హ్మ": 7916,
      "Veda": 7917,
      "జుల": 7918,
      "Rig": 7919,
      "్వంత": 7920,
      "epic": 7921,
      "neighbours": 7922,
      "ప్రత్య": 7923,
      "Painted": 7924,
      "నియో": 7925,
      "farther": 7926,
      "పురా": 7927,
      "naval": 7928,
      "ప్పటి": 7929,
      "earth": 7930,
      "బడతా": 7931,
      "rice": 7932,
      "సుక": 7933,
      "Mahavira": 7934,
      "థాన్": 7935,
      "teachings": 7936,
      "హారా": 7937,
      "stretching": 7938,
      "కర్త": 7939,
      "reference": 7940,
      "clans": 7941,
      "శ్ర": 7942,
      "emergence": 7943,
      "స్టి": 7944,
      "lowest": 7945,
      "ాజ": 7946,
      "natural": 7947,
      "శించ": 7948,
      "experi": 7949,
      "ఉపయ": 7950,
      "regulated": 7951,
      "ార్ట": 7952,
      "Three": 7953,
      "స్థాపించా": 7954,
      "regarded": 7955,
      "ోటల": 7956,
      "inscriptions": 7957,
      "రంగ": 7958,
      "Amaravati": 7959,
      "Ellora": 7960,
      "సొ": 7961,
      "Ksh": 7962,
      "సల": 7963,
      "cur": 7964,
      "బె": 7965,
      "grandson": 7966,
      "మాల్": 7967,
      "ihira": 7968,
      "సవాలు": 7969,
      "sacrifices": 7970,
      "వాస్తు": 7971,
      "Brahman": 7972,
      "స్సుల": 7973,
      "anned": 7974,
      "చూ": 7975,
      "Kar": 7976,
      "pura": 7977,
      "చక్": 7978,
      "weakening": 7979,
      "ర్థి": 7980,
      "Pallava": 7981,
      "ర్తి": 7982,
      "Telugu": 7983,
      "త్స": 7984,
      "developing": 7985,
      "విజ": 7986,
      "absolute": 7987,
      "ాగం": 7988,
      "bh": 7989,
      "ాత్ర": 7990,
      "younger": 7991,
      "స్మా": 7992,
      "cosmopolitan": 7993,
      "ష్వ": 7994,
      "frag": 7995,
      "structed": 7996,
      "ీకులు": 7997,
      "erable": 7998,
      "ించినాయి": 7999,
      "individual": 8000,
      "ిల్లీ": 8001,
      "ounded": 8002,
      "తుక": 8003,
      "avarsha": 8004,
      "తల": 8005,
      "Mahā": 8006,
      "ేశారు": 8007,
      "trig": 8008,
      "లిపి": 8009,
      "Maithili": 8010,
      "మద్": 8011,
      "Vietnam": 8012,
      "అహ": 8013,
      "atiya": 8014,
      "amples": 8015,
      "్థ": 8016,
      "passing": 8017,
      "ాదన": 8018,
      "destru": 8019,
      "ప్రామ": 8020,
      "raiders": 8021,
      "ంద్ర": 8022,
      "thereby": 8023,
      "తెలు": 8024,
      "mast": 8025,
      "త్సా": 8026,
      "atis": 8027,
      "పునర": 8028,
      "irrigation": 8029,
      "వాత": 8030,
      "worship": 8031,
      "legacy": 8032,
      "్యాంకు": 8033,
      "inspired": 8034,
      "పాన్": 8035,
      "protection": 8036,
      "ఉద్": 8037,
      "enabled": 8038,
      "పోల": 8039,
      "Cher": 8040,
      "కరణ": 8041,
      "perman": 8042,
      "త్తమ": 8043,
      "seven": 8044,
      "ర్వా": 8045,
      "Nadu": 8046,
      "చద": 8047,
      "regionally": 8048,
      "తంగ": 8049,
      "scripture": 8050,
      "eas": 8051,
      "రించిన": 8052,
      "resistance": 8053,
      "ఖ్": 8054,
      "granted": 8055,
      "ాడే": 8056,
      "subdu": 8057,
      "సాకా": 8058,
      "treat": 8059,
      "టం": 8060,
      "Agency": 8061,
      "సన్": 8062,
      "Dog": 8063,
      "క్తే": 8064,
      "outposts": 8065,
      "ਫ਼ੁੱ": 8066,
      "్లవ": 8067,
      "agore": 8068,
      "దూ": 8069,
      "Char": 8070,
      "ਸ਼ਾਂ": 8071,
      "ux": 8072,
      "జాత": 8073,
      "fiel": 8074,
      "ਸ਼ਾੰ": 8075,
      "నిస్తాన్": 8076,
      "Mor": 8077,
      "తుంద": 8078,
      "ਕਾਂ": 8079,
      "socio": 8080,
      "విశ్వా": 8081,
      "sought": 8082,
      "ਕਿੰ": 8083,
      "నాణ": 8084,
      "stood": 8085,
      "ప్రశ": 8086,
      "divisions": 8087,
      "ਕਿੱ": 8088,
      "శోధ": 8089,
      "Chandra": 8090,
      "ਕੁੰ": 8091,
      "దమ": 8092,
      "isional": 8093,
      "separatist": 8094,
      "వేయ": 8095,
      "ਕੁੱ": 8096,
      "Nav": 8097,
      "ధత": 8098,
      "ਖ਼ਾ": 8099,
      "Gar": 8100,
      "గోవ": 8101,
      "osite": 8102,
      "ాబు": 8103,
      "ਖਾਂ": 8104,
      "nut": 8105,
      "పాలిటి": 8106,
      "ਖਿੱ": 8107,
      "pottery": 8108,
      "ుంబ": 8109,
      "Teth": 8110,
      "ਗੋਂ": 8111,
      "దులు": 8112,
      "horizon": 8113,
      "వాస్": 8114,
      "constitutes": 8115,
      "ਚਾਂ": 8116,
      "చార": 8117,
      "stable": 8118,
      "ਚਿੰ": 8119,
      "parallel": 8120,
      "ాకర": 8121,
      "leads": 8122,
      "ముద్ర": 8123,
      "ਚੁੱ": 8124,
      "eper": 8125,
      "గో": 8126,
      "sand": 8127,
      "ਚੋਂ": 8128,
      "దినాల": 8129,
      "coral": 8130,
      "ఇత": 8131,
      "ਜ਼ਾ": 8132,
      "atolls": 8133,
      "క్యా": 8134,
      "rainfall": 8135,
      "ਜ਼ੀ": 8136,
      "నాది": 8137,
      "separated": 8138,
      "ਜ਼ੋ": 8139,
      "వచ్చి": 8140,
      "zo": 8141,
      "చిత": 8142,
      "white": 8143,
      "ਜਾਂ": 8144,
      "hosts": 8145,
      "యాన": 8146,
      "Res": 8147,
      "ਜਿੱ": 8148,
      "ిళ్ళ": 8149,
      "projected": 8150,
      "రాయబ": 8151,
      "ਜੁੱ": 8152,
      "petroleum": 8153,
      "ఒమ": 8154,
      "reported": 8155,
      "ਜੋਂ": 8156,
      "ణా": 8157,
      "pled": 8158,
      "నాయి": 8159,
      "plus": 8160,
      "ਟਾਂ": 8161,
      "ేరియ": 8162,
      "thousand": 8163,
      "ਠਾਂ": 8164,
      "డవ": 8165,
      "supplied": 8166,
      "theory": 8167,
      "పత్తి": 8168,
      "ਡਾਂ": 8169,
      "mixed": 8170,
      "స్లామ": 8171,
      "ਡਿੱ": 8172,
      "giant": 8173,
      "హాక": 8174,
      "oun": 8175,
      "భో": 8176,
      "ਣਾਂ": 8177,
      "cult": 8178,
      "స్తీ": 8179,
      "ਤਾਂ": 8180,
      "ually": 8181,
      "పాల్": 8182,
      "uch": 8183,
      "ਤੀਂ": 8184,
      "తరాజ్య": 8185,
      "glo": 8186,
      "ళం": 8187,
      "soci": 8188,
      "ਤੋਂ": 8189,
      "ప్రతీ": 8190,
      "theast": 8191,
      "ਦਾਂ": 8192,
      "sign": 8193,
      "శాల": 8194,
      "import": 8195,
      "శాం": 8196,
      "ਦਿੰ": 8197,
      "liter": 8198,
      "ండమ": 8199,
      "sm": 8200,
      "ਦਿੱ": 8201,
      "్తాన్": 8202,
      "amm": 8203,
      "పల్ల": 8204,
      "ਦੋਂ": 8205,
      "administ": 8206,
      "కొన": 8207,
      "krit": 8208,
      "ਧਾਂ": 8209,
      "ణే": 8210,
      "orig": 8211,
      "ਨਾਂ": 8212,
      "రుడు": 8213,
      "lik": 8214,
      "రాజుల": 8215,
      "histor": 8216,
      "ਨੀਂ": 8217,
      "ility": 8218,
      "ర్మా": 8219,
      "tic": 8220,
      "ਨੂੰ": 8221,
      "విభజ": 8222,
      "Pers": 8223,
      "క్త": 8224,
      "ਨੈੱ": 8225,
      "oup": 8226,
      "జనా": 8227,
      "fed": 8228,
      "ਨੌਂ": 8229,
      "ిహా": 8230,
      "gu": 8231,
      "కట్ట": 8232,
      "consid": 8233,
      "ਪਾਂ": 8234,
      "హారు": 8235,
      "sum": 8236,
      "ਪਾੰ": 8237,
      "కడ": 8238,
      "क्क्न": 8239,
      "Tem": 8240,
      "ouse": 8241,
      "क्ष्य": 8242,
      "అర్": 8243,
      "ਪਿੱ": 8244,
      "Gujar": 8245,
      "ड्यों": 8246,
      "ెన": 8247,
      "ਪੂੂ": 8248,
      "rench": 8249,
      "ण्डों": 8250,
      "హిం": 8251,
      "Chand": 8252,
      "त्यों": 8253,
      "ణంగా": 8254,
      "ਪੈਂ": 8255,
      "ieval": 8256,
      "त्रों": 8257,
      "రిటీ": 8258,
      "ਫ਼ਾ": 8259,
      "ada": 8260,
      "त्वों": 8261,
      "పత్తు": 8262,
      "lab": 8263,
      "त्स्य": 8264,
      "ਫ਼ਿ": 8265,
      "పించ": 8266,
      "vis": 8267,
      "न्तु्": 8268,
      "రాచ": 8269,
      "dest": 8270,
      "ਫ਼ੀ": 8271,
      "न्द्र": 8272,
      "రతీయ": 8273,
      "rial": 8274,
      "न्ध्र": 8275,
      "ਫ਼ੈ": 8276,
      "camp": 8277,
      "ుఖ్య": 8278,
      "न्मों": 8279,
      "exts": 8280,
      "ూల": 8281,
      "ਫੁੱ": 8282,
      "न्स्ट": 8283,
      "refer": 8284,
      "నాల": 8285,
      "प्रां": 8286,
      "ision": 8287,
      "ਮਾਂ": 8288,
      "్మిం": 8289,
      "फ्राँ": 8290,
      "osition": 8291,
      "పెద్దద": 8292,
      "ਮੁੱ": 8293,
      "migr": 8294,
      "फ्रां": 8295,
      "ముఖ్యమైనవ": 8296,
      "sol": 8297,
      "फ्रें": 8298,
      "ਮੈਂ": 8299,
      "ప్రవ": 8300,
      "omy": 8301,
      "म्प्र": 8302,
      "ਯੁੱ": 8303,
      "ిస్తు": 8304,
      "itud": 8305,
      "म्यां": 8306,
      "న్ల": 8307,
      "Kad": 8308,
      "र्ज़ा": 8309,
      "ਰਾਂ": 8310,
      "hom": 8311,
      "నడిపి": 8312,
      "र्द्ध": 8313,
      "maint": 8314,
      "ਰਿੰ": 8315,
      "జరి": 8316,
      "र्द्र": 8317,
      "estic": 8318,
      "జూ": 8319,
      "र्रों": 8320,
      "ਰੁੱ": 8321,
      "start": 8322,
      "తాయ": 8323,
      "र्वां": 8324,
      "isol": 8325,
      "ਲਾਂ": 8326,
      "అర": 8327,
      "ल्में": 8328,
      "promin": 8329,
      "మీప": 8330,
      "स्त्र": 8331,
      "Vaish": 8332,
      "ਲੇਂ": 8333,
      "ోరా": 8334,
      "क्की": 8335,
      "prev": 8336,
      "ਲੈਂ": 8337,
      "మల": 8338,
      "क्के": 8339,
      "agre": 8340,
      "stand": 8341,
      "क्ता": 8342,
      "సవ": 8343,
      "ਵਾਂ": 8344,
      "ivity": 8345,
      "क्यू": 8346,
      "కుట": 8347,
      "ਵੀਂ": 8348,
      "conduct": 8349,
      "क्यो": 8350,
      "ామర": 8351,
      "learn": 8352,
      "क्रा": 8353,
      "దం": 8354,
      "ਵੋੱ": 8355,
      "anced": 8356,
      "क्रि": 8357,
      "సే": 8358,
      "ਸ਼ਾ": 8359,
      "lack": 8360,
      "क्री": 8361,
      "ీయుల": 8362,
      "quality": 8363,
      "क्लि": 8364,
      "ਸ਼ਿ": 8365,
      "తులు": 8366,
      "poll": 8367,
      "क्षि": 8368,
      "మున": 8369,
      "pri": 8370,
      "ਸ਼ੀ": 8371,
      "ख्या": 8372,
      "గ్రామాల": 8373,
      "Panch": 8374,
      "ख्यि": 8375,
      "ਸ਼ੇ": 8376,
      "Bas": 8377,
      "ైక": 8378,
      "ग्नि": 8379,
      "odiversity": 8380,
      "ములు": 8381,
      "ਸ਼ੈ": 8382,
      "ग्रं": 8383,
      "placed": 8384,
      "తలకు": 8385,
      "ग्रा": 8386,
      "doc": 8387,
      "ਸ਼ੱ": 8388,
      "యిన": 8389,
      "ग्री": 8390,
      "ounced": 8391,
      "ోద": 8392,
      "ਸਾਂ": 8393,
      "exerc": 8394,
      "ग्रु": 8395,
      "నంత": 8396,
      "reser": 8397,
      "ग्रे": 8398,
      "ਸਾੰ": 8399,
      "ాపా": 8400,
      "eg": 8401,
      "ग्वि": 8402,
      "ਸਿੰ": 8403,
      "త్ర": 8404,
      "town": 8405,
      "च्चा": 8406,
      "తు": 8407,
      "agos": 8408,
      "च्छा": 8409,
      "ਸਿੱ": 8410,
      "fav": 8411,
      "గుజరాత": 8412,
      "च्छी": 8413,
      "oblig": 8414,
      "ਸੀਂ": 8415,
      "ిచే": 8416,
      "च्छे": 8417,
      "ention": 8418,
      "అమ": 8419,
      "ज़ों": 8420,
      "ਸੁੱ": 8421,
      "rece": 8422,
      "ిలీ": 8423,
      "ज्ञा": 8424,
      "oured": 8425,
      "ਹਾਂ": 8426,
      "యతి": 8427,
      "ज्या": 8428,
      "hor": 8429,
      "నిల": 8430,
      "ज्यी": 8431,
      "Polit": 8432,
      "ਹਿੱ": 8433,
      "సంగం": 8434,
      "ज्यु": 8435,
      "ides": 8436,
      "ਹੁੰ": 8437,
      "రాస్": 8438,
      "ट्रा": 8439,
      "railway": 8440,
      "rup": 8441,
      "ट्रो": 8442,
      "బీ": 8443,
      "ੜਾਂ": 8444,
      "report": 8445,
      "ड़़ा": 8446,
      "ినప్పటికీ": 8447,
      "ਅੰ": 8448,
      "Soc": 8449,
      "ड़ें": 8450,
      "ొట": 8451,
      "Ah": 8452,
      "ड़ों": 8453,
      "విక": 8454,
      "ਅੱ": 8455,
      "varn": 8456,
      "ण्ठा": 8457,
      "ుకో": 8458,
      "ਆਂ": 8459,
      "Brahmin": 8460,
      "ण्डा": 8461,
      "మాల": 8462,
      "feud": 8463,
      "ण्डि": 8464,
      "ਇਿ": 8465,
      "ీక": 8466,
      "El": 8467,
      "ण्डे": 8468,
      "టులు": 8469,
      "Shaiv": 8470,
      "ਇੰ": 8471,
      "त्कृ": 8472,
      "ీల": 8473,
      "toler": 8474,
      "त्ती": 8475,
      "ਇੱ": 8476,
      "hydro": 8477,
      "స్థిర": 8478,
      "त्तु": 8479,
      "Through": 8480,
      "ల్పిం": 8481,
      "ਉੱ": 8482,
      "त्मि": 8483,
      "refl": 8484,
      "ారి": 8485,
      "त्यं": 8486,
      "oda": 8487,
      "ਐੱ": 8488,
      "రాష్ట్రా": 8489,
      "त्या": 8490,
      "subordin": 8491,
      "ికీ": 8492,
      "ਕਾ": 8493,
      "Until": 8494,
      "त्यौ": 8495,
      "ులక": 8496,
      "swathes": 8497,
      "त्रा": 8498,
      "ਕਿ": 8499,
      "ప్రత": 8500,
      "smoothly": 8501,
      "त्रि": 8502,
      "ਕੀ": 8503,
      "హక": 8504,
      "reflected": 8505,
      "त्री": 8506,
      "్లీ": 8507,
      "elements": 8508,
      "त्रो": 8509,
      "ਕੁ": 8510,
      "committee": 8511,
      "ంటు": 8512,
      "त्वि": 8513,
      "equivalent": 8514,
      "ਕੇ": 8515,
      "జిం": 8516,
      "थ्या": 8517,
      "Census": 8518,
      "టించబడి": 8519,
      "द्दी": 8520,
      "ਕੈ": 8521,
      "patriline": 8522,
      "విభజించ": 8523,
      "द्दे": 8524,
      "rence": 8525,
      "ਕੋ": 8526,
      "ిం": 8527,
      "द्धा": 8528,
      "moreover": 8529,
      "దిల": 8530,
      "द्धि": 8531,
      "course": 8532,
      "ਕੌ": 8533,
      "ప్రదేశముల": 8534,
      "द्रि": 8535,
      "unpre": 8536,
      "ਕ੍": 8537,
      "సిన": 8538,
      "द्री": 8539,
      "pared": 8540,
      "rush": 8541,
      "द्रो": 8542,
      "ంసి": 8543,
      "ਕੰ": 8544,
      "draw": 8545,
      "द्वा": 8546,
      "సారు": 8547,
      "ਕੱ": 8548,
      "Sup": 8549,
      "द्वि": 8550,
      "ేరుగా": 8551,
      "Crit": 8552,
      "द्वे": 8553,
      "కలా": 8554,
      "ਖ਼": 8555,
      "clif": 8556,
      "ध्या": 8557,
      "ంజ": 8558,
      "ਖਾ": 8559,
      "counter": 8560,
      "ध्रु": 8561,
      "కలి": 8562,
      "rendering": 8563,
      "न्चा": 8564,
      "ਖਿ": 8565,
      "ఆక": 8566,
      "maintain": 8567,
      "न्टा": 8568,
      "ించగలిగిన": 8569,
      "Jud": 8570,
      "ਖੁ": 8571,
      "न्ता": 8572,
      "ాశ": 8573,
      "Mig": 8574,
      "न्ति": 8575,
      "ਖੂ": 8576,
      "settling": 8577,
      "ాటికి": 8578,
      "न्तु": 8579,
      "kir": 8580,
      "క్య": 8581,
      "ਖੇ": 8582,
      "न्धा": 8583,
      "possess": 8584,
      "రమ": 8585,
      "न्नौ": 8586,
      "untouchables": 8587,
      "ਖੋ": 8588,
      "విల": 8589,
      "न्मा": 8590,
      "joint": 8591,
      "లము": 8592,
      "ਖੰ": 8593,
      "agreement": 8594,
      "न्मी": 8595,
      "జనస": 8596,
      "facil": 8597,
      "न्यू": 8598,
      "ਗ਼": 8599,
      "దిర్": 8600,
      "Instead": 8601,
      "न्सा": 8602,
      "ਗਾ": 8603,
      "ధ్య": 8604,
      "condition": 8605,
      "न्हे": 8606,
      "న్య": 8607,
      "accommo": 8608,
      "न्हो": 8609,
      "ਗਿ": 8610,
      "everywhere": 8611,
      "స్తా": 8612,
      "प्रा": 8613,
      "quite": 8614,
      "ਗੀ": 8615,
      "రఫ": 8616,
      "प्रे": 8617,
      "prof": 8618,
      "ుని": 8619,
      "प्रो": 8620,
      "ਗੁ": 8621,
      "expressing": 8622,
      "ిత్ర": 8623,
      "प्ला": 8624,
      "sym": 8625,
      "ਗੂ": 8626,
      "శో": 8627,
      "प्ले": 8628,
      "pointed": 8629,
      "తాబ": 8630,
      "फ्रि": 8631,
      "twice": 8632,
      "ਗੈ": 8633,
      "ంచడం": 8634,
      "ब्दि": 8635,
      "rum": 8636,
      "ਗੋ": 8637,
      "ియన్ల": 8638,
      "ब्बि": 8639,
      "fashion": 8640,
      "determin": 8641,
      "ब्रा": 8642,
      "ాటక": 8643,
      "ਗੌ": 8644,
      "peninsula": 8645,
      "ब्रु": 8646,
      "చర": 8647,
      "ਗ੍": 8648,
      "block": 8649,
      "ब्रे": 8650,
      "నాగరిక": 8651,
      "irregularities": 8652,
      "ब्लि": 8653,
      "పాలిట": 8654,
      "ਗੰ": 8655,
      "passages": 8656,
      "म्बि": 8657,
      "ఫర": 8658,
      "ਗੱ": 8659,
      "conspicuous": 8660,
      "म्बी": 8661,
      "ఇను": 8662,
      "reserve": 8663,
      "म्बु": 8664,
      "ਘਾ": 8665,
      "నడ": 8666,
      "Lok": 8667,
      "म्बे": 8668,
      "ాద": 8669,
      "directives": 8670,
      "ਘਿ": 8671,
      "म्भा": 8672,
      "ోయ": 8673,
      "goals": 8674,
      "म्या": 8675,
      "ਘੁ": 8676,
      "endeavor": 8677,
      "ంచు": 8678,
      "म्यु": 8679,
      "recommended": 8680,
      "డుకు": 8681,
      "ਘੋ": 8682,
      "र्को": 8683,
      "panchayat": 8684,
      "టాయి": 8685,
      "र्चे": 8686,
      "committees": 8687,
      "ਚਾ": 8688,
      "విద్": 8689,
      "र्ज़": 8690,
      "Article": 8691,
      "కాశ": 8692,
      "ਚਿ": 8693,
      "derecognized": 8694,
      "र्जा": 8695,
      "ిపో": 8696,
      "Articles": 8697,
      "र्जि": 8698,
      "ਚੀ": 8699,
      "విస్త": 8700,
      "promulgation": 8701,
      "र्जी": 8702,
      "ਚੁ": 8703,
      "్ర": 8704,
      "insur": 8705,
      "र्टि": 8706,
      "ోకు": 8707,
      "struments": 8708,
      "र्ता": 8709,
      "ਚੇ": 8710,
      "Ministers": 8711,
      "ొర": 8712,
      "र्ति": 8713,
      "ratio": 8714,
      "ਚੋ": 8715,
      "ిలి": 8716,
      "र्थि": 8717,
      "proportional": 8718,
      "ేమ": 8719,
      "र्थी": 8720,
      "ਚੌ": 8721,
      "ote": 8722,
      "మర": 8723,
      "र्धा": 8724,
      "ission": 8725,
      "ਚੱ": 8726,
      "సము": 8727,
      "र्फ़": 8728,
      "Chaudh": 8729,
      "ూచి": 8730,
      "र्भी": 8731,
      "Ras": 8732,
      "ਛਾ": 8733,
      "ునవి": 8734,
      "र्मा": 8735,
      "reserved": 8736,
      "ਛੀ": 8737,
      "ుట": 8738,
      "र्मी": 8739,
      "Sched": 8740,
      "Fed": 8741,
      "र्या": 8742,
      "నం": 8743,
      "ਛੂ": 8744,
      "geographical": 8745,
      "र्रा": 8746,
      "ుబ": 8747,
      "ਛੇ": 8748,
      "crowd": 8749,
      "र्वं": 8750,
      "ిజి": 8751,
      "ṣ": 8752,
      "र्षि": 8753,
      "స్థావర": 8754,
      "ਛੋ": 8755,
      "peri": 8756,
      "ल्कि": 8757,
      "రమై": 8758,
      "ਛੱ": 8759,
      "contin": 8760,
      "ल्टा": 8761,
      "ద్దు": 8762,
      "istan": 8763,
      "ल्टी": 8764,
      "ਜ਼": 8765,
      "ూస": 8766,
      "Mus": 8767,
      "ल्या": 8768,
      "్గ": 8769,
      "stit": 8770,
      "ਜਾ": 8771,
      "व्यं": 8772,
      "్ట్": 8773,
      "dern": 8774,
      "व्या": 8775,
      "ਜਿ": 8776,
      "rough": 8777,
      "ిస్తున్నా": 8778,
      "व्यु": 8779,
      "yst": 8780,
      "కామ": 8781,
      "ਜੀ": 8782,
      "श्यी": 8783,
      "relig": 8784,
      "దార": 8785,
      "श्री": 8786,
      "minist": 8787,
      "ਜੁ": 8788,
      "యస": 8789,
      "श्रे": 8790,
      "Marath": 8791,
      "హి": 8792,
      "ਜੇ": 8793,
      "fol": 8794,
      "श्ले": 8795,
      "ంశ": 8796,
      "hism": 8797,
      "श्वं": 8798,
      "ਜੈ": 8799,
      "భార": 8800,
      "hum": 8801,
      "श्वा": 8802,
      "ਜੋ": 8803,
      "పోయి": 8804,
      "Cent": 8805,
      "श्वि": 8806,
      "ాత": 8807,
      "versity": 8808,
      "श्वी": 8809,
      "ਜ੍": 8810,
      "ross": 8811,
      "ేవు": 8812,
      "ष्टा": 8813,
      "emerg": 8814,
      "ਜੰ": 8815,
      "్వర": 8816,
      "ष्ठि": 8817,
      "ording": 8818,
      "్త్": 8819,
      "ष्णा": 8820,
      "ਝਾ": 8821,
      "ificant": 8822,
      "ీను": 8823,
      "स्का": 8824,
      "ange": 8825,
      "ਝੇ": 8826,
      "అనుస": 8827,
      "स्कि": 8828,
      "imal": 8829,
      "ంత్రి": 8830,
      "स्टॉ": 8831,
      "bu": 8832,
      "ਝੌ": 8833,
      "వ్": 8834,
      "स्ता": 8835,
      "endem": 8836,
      "ਟਾ": 8837,
      "రియూ": 8838,
      "स्ति": 8839,
      "invas": 8840,
      "hab": 8841,
      "स्था": 8842,
      "గ్న": 8843,
      "ਟਿ": 8844,
      "desc": 8845,
      "स्थि": 8846,
      "దక్షిణా": 8847,
      "ਟੀ": 8848,
      "Guj": 8849,
      "स्मा": 8850,
      "వాల": 8851,
      "record": 8852,
      "स्वा": 8853,
      "ముఖ్యమ": 8854,
      "ਟੇ": 8855,
      "pot": 8856,
      "स्वी": 8857,
      "నాయకు": 8858,
      "ਟੈ": 8859,
      "struct": 8860,
      "ह्मा": 8861,
      "చేసా": 8862,
      "descri": 8863,
      "ह्वे": 8864,
      "ਟੋ": 8865,
      "ూర": 8866,
      "execut": 8867,
      "कां": 8868,
      "ుట్": 8869,
      "flour": 8870,
      "ਟ੍": 8871,
      "किं": 8872,
      "ిఖ": 8873,
      "rept": 8874,
      "कें": 8875,
      "ਠਿ": 8876,
      "differ": 8877,
      "నుల": 8878,
      "कों": 8879,
      "kut": 8880,
      "ాతృ": 8881,
      "ਠੇ": 8882,
      "क्ट": 8883,
      "amphib": 8884,
      "తారు": 8885,
      "क्त": 8886,
      "uru": 8887,
      "ਠੋ": 8888,
      "బడ్": 8889,
      "क्य": 8890,
      "ectively": 8891,
      "ాడ": 8892,
      "ਡਾ": 8893,
      "ilt": 8894,
      "क्र": 8895,
      "ుంటా": 8896,
      "duct": 8897,
      "क्ष": 8898,
      "ਡਿ": 8899,
      "ివార": 8900,
      "Dem": 8901,
      "क्स": 8902,
      "ਡੀ": 8903,
      "Eschewing": 8904,
      "Civil": 8905,
      "खों": 8906,
      "inclusive": 8907,
      "ests": 8908,
      "ख्न": 8909,
      "ਡੇ": 8910,
      "anim": 8911,
      "disruptive": 8912,
      "गाँ": 8913,
      "Rep": 8914,
      "ਡੋ": 8915,
      "sojourning": 8916,
      "ग्ड": 8917,
      "Min": 8918,
      "Cambodia": 8919,
      "ग्द": 8920,
      "ਡੱ": 8921,
      "tro": 8922,
      "Brunei": 8923,
      "ग्य": 8924,
      "nat": 8925,
      "ਢੇ": 8926,
      "mainstream": 8927,
      "चें": 8928,
      "sar": 8929,
      "Chronicling": 8930,
      "चों": 8931,
      "enc": 8932,
      "ਣਾ": 8933,
      "storytelling": 8934,
      "च्छ": 8935,
      "bes": 8936,
      "ਣਿ": 8937,
      "Mahābhārata": 8938,
      "ज़ा": 8939,
      "mediately": 8940,
      "adop": 8941,
      "ज़ि": 8942,
      "Pāṇini": 8943,
      "ਣੀ": 8944,
      "compan": 8945,
      "जां": 8946,
      "grammatical": 8947,
      "ਣੂ": 8948,
      "litt": 8949,
      "जें": 8950,
      "enslaving": 8951,
      "wana": 8952,
      "जों": 8953,
      "statuettes": 8954,
      "ਣੇ": 8955,
      "defin": 8956,
      "ज्य": 8957,
      "terracotta": 8958,
      "ਣੌ": 8959,
      "ption": 8960,
      "टें": 8961,
      "Domestication": 8962,
      "pread": 8963,
      "टों": 8964,
      "ਤਾ": 8965,
      "Evidence": 8966,
      "techniqu": 8967,
      "ट्य": 8968,
      "likelihood": 8969,
      "visit": 8970,
      "ਤਿ": 8971,
      "ड़ा": 8972,
      "Chromosome": 8973,
      "otion": 8974,
      "ड़ि": 8975,
      "ਤੀ": 8976,
      "lowing": 8977,
      "coalescence": 8978,
      "ड़ी": 8979,
      "Des": 8980,
      "Achaemenid": 8981,
      "ਤੁ": 8982,
      "ड़े": 8983,
      "meric": 8984,
      "Achaemenian": 8985,
      "ड़ो": 8986,
      "weap": 8987,
      "ਤੇ": 8988,
      "Hellenistic": 8989,
      "डां": 8990,
      "asp": 8991,
      "Dictionary": 8992,
      "ਤੋ": 8993,
      "neg": 8994,
      "ढ़ी": 8995,
      "Etymology": 8996,
      "oti": 8997,
      "ढां": 8998,
      "ਤ੍": 8999,
      "expenditure": 9000,
      "ett": 9001,
      "णों": 9002,
      "ਤੰ": 9003,
      "multilingual": 9004,
      "cris": 9005,
      "ण्ड": 9006,
      "unprecedented": 9007,
      "contra": 9008,
      "तीं": 9009,
      "ਤੱ": 9010,
      "surpass": 9011,
      "Olympics": 9012,
      "तें": 9013,
      "Econ": 9014,
      "ਥਾ": 9015,
      "Cups": 9016,
      "तों": 9017,
      "persist": 9018,
      "chaturaṅga": 9019,
      "त्त": 9020,
      "ਥਿ": 9021,
      "conce": 9022,
      "pehlwani": 9023,
      "त्न": 9024,
      "manufact": 9025,
      "ਥੀ": 9026,
      "garlic": 9027,
      "त्म": 9028,
      "mitt": 9029,
      "cereal": 9030,
      "त्य": 9031,
      "tually": 9032,
      "ਥੇ": 9033,
      "jackets": 9034,
      "त्र": 9035,
      "vary": 9036,
      "ਥੋ": 9037,
      "kurta": 9038,
      "त्व": 9039,
      "itage": 9040,
      "grand": 9041,
      "त्स": 9042,
      "pyjamas": 9043,
      "ਦਾ": 9044,
      "Az": 9045,
      "थीं": 9046,
      "shoulder": 9047,
      "ਦਿ": 9048,
      "discrim": 9049,
      "थों": 9050,
      "Bhangra": 9051,
      "separat": 9052,
      "दें": 9053,
      "Terukkuttu": 9054,
      "ਦੀ": 9055,
      "ping": 9056,
      "दों": 9057,
      "Chhau": 9058,
      "ਦੁ": 9059,
      "Euras": 9060,
      "द्ध": 9061,
      "Balasaraswati": 9062,
      "ergy": 9063,
      "द्य": 9064,
      "ਦੂ": 9065,
      "rhythmic": 9066,
      "carb": 9067,
      "द्र": 9068,
      "trigonometric": 9069,
      "ousand": 9070,
      "ਦੇ": 9071,
      "ध्द": 9072,
      "Trigonometry": 9073,
      "smo": 9074,
      "ध्य": 9075,
      "ਦੋ": 9076,
      "plural": 9077,
      "Varāhamihira": 9078,
      "नां": 9079,
      "challeng": 9080,
      "Pythagorean": 9081,
      "ਦੌ": 9082,
      "नें": 9083,
      "dden": 9084,
      "Aphorisms": 9085,
      "नों": 9086,
      "God": 9087,
      "ਦ੍": 9088,
      "excavated": 9089,
      "न्त": 9090,
      "inger": 9091,
      "Languages": 9092,
      "ਦੰ": 9093,
      "inade": 9094,
      "न्द": 9095,
      "foeticide": 9096,
      "fash": 9097,
      "न्ध": 9098,
      "ਦੱ": 9099,
      "emissions": 9100,
      "spic": 9101,
      "न्न": 9102,
      "ਧਾ": 9103,
      "biotech": 9104,
      "rati": 9105,
      "न्य": 9106,
      "petrochemical": 9107,
      "consist": 9108,
      "न्स": 9109,
      "ਧਿ": 9110,
      "'": 9111,
      "discriminatory": 9112,
      "पां": 9113,
      "Ö": 9114,
      "ਧੀ": 9115,
      "Proliferation": 9116,
      "पीं": 9117,
      "á": 9118,
      "Puducherry": 9119,
      "पूं": 9120,
      "ਧੇ": 9121,
      "â": 9122,
      "supreme": 9123,
      "पें": 9124,
      "í": 9125,
      "ਧੰ": 9126,
      "Vajpayee": 9127,
      "पों": 9128,
      "ū": 9129,
      "comfortable": 9130,
      "प्ट": 9131,
      "ə": 9132,
      "ਨਾ": 9133,
      "sanctuaries": 9134,
      "प्त": 9135,
      "ɦ": 9136,
      "ਨਿ": 9137,
      "blackbuck": 9138,
      "प्य": 9139,
      "ɪ": 9140,
      "ɾ": 9141,
      "प्र": 9142,
      "diclofenac": 9143,
      "ਨੀ": 9144,
      "ʊ": 9145,
      "प्स": 9146,
      "crocodilian": 9147,
      "ਨੂ": 9148,
      "ʱ": 9149,
      "फ़ा": 9150,
      "Azadirachta": 9151,
      "ί": 9152,
      "फ़ि": 9153,
      "climatic": 9154,
      "ਨੇ": 9155,
      "α": 9156,
      "फ़ी": 9157,
      "marshy": 9158,
      "ਨੌ": 9159,
      "ς": 9160,
      "फ़्": 9161,
      "substantially": 9162,
      "ό": 9163,
      "बाँ": 9164,
      "ਨ੍": 9165,
      "materials": 9166,
      "dynasty": 9167,
      "बां": 9168,
      "artisans": 9169,
      "km": 9170,
      "ਨੰ": 9171,
      "बें": 9172,
      "Philippines": 9173,
      "J": 9174,
      "बों": 9175,
      "ਪਾ": 9176,
      "Gulf": 9177,
      "standardised": 9178,
      "ब्ब": 9179,
      "islands": 9180,
      "Rakhigarhi": 9181,
      "ਪਿ": 9182,
      "ब्र": 9183,
      "ISBN": 9184,
      "Mitochondrial": 9185,
      "ब्स": 9186,
      "Maratha": 9187,
      "ਪੀ": 9188,
      "meaning": 9189,
      "भां": 9190,
      "ocean": 9191,
      "applied": 9192,
      "ਪੁ": 9193,
      "slaves": 9194,
      "भ्र": 9195,
      "Ἰνδός": 9196,
      "him": 9197,
      "मां": 9198,
      "ਪੂ": 9199,
      "Ἰνδία": 9200,
      "kingdom": 9201,
      "मुं": 9202,
      "ਪੇ": 9203,
      "malnutrition": 9204,
      "Magadha": 9205,
      "में": 9206,
      "unresolved": 9207,
      "Battle": 9208,
      "मों": 9209,
      "ਪੈ": 9210,
      "African": 9211,
      "Kalarippayattu": 9212,
      "म्ब": 9213,
      "Red": 9214,
      "ਪੋ": 9215,
      "entrepreneurial": 9216,
      "म्म": 9217,
      "Mysore": 9218,
      "Ardhanarishvara": 9219,
      "म्य": 9220,
      "ਪੌ": 9221,
      "History": 9222,
      "Ganweriwala": 9223,
      "म्र": 9224,
      "Southern": 9225,
      "ਪ੍": 9226,
      "savoury": 9227,
      "याँ": 9228,
      "Portuguese": 9229,
      "Yakshagana": 9230,
      "यां": 9231,
      "Pacific": 9232,
      "ਪੰ": 9233,
      "jurisdiction": 9234,
      "यें": 9235,
      "man": 9236,
      "ਪੱ": 9237,
      "Simultaneously": 9238,
      "येा": 9239,
      "son": 9240,
      "Anglo": 9241,
      "यों": 9242,
      "Rāmāyaṇa": 9243,
      "ਫ਼": 9244,
      "Provinces": 9245,
      "रिं": 9246,
      "Zoroastrianism": 9247,
      "ਫਾ": 9248,
      "invasions": 9249,
      "रें": 9250,
      "ˈbʱaːɾət": 9251,
      "Australia": 9252,
      "रोँ": 9253,
      "tuberculosis": 9254,
      "ਫਿ": 9255,
      "Atlantic": 9256,
      "रों": 9257,
      "gigawatts": 9258,
      "ਫੇ": 9259,
      "Partition": 9260,
      "र्क": 9261,
      "Aṣṭādhyāyī": 9262,
      "Dutch": 9263,
      "र्ग": 9264,
      "ਫੈ": 9265,
      "Madagascar": 9266,
      "र्घ": 9267,
      "ear": 9268,
      "ਫੌ": 9269,
      "र्च": 9270,
      "ɦɪndʊˈstaːn": 9271,
      "State": 9272,
      "र्ज": 9273,
      "ਬਾ": 9274,
      "League": 9275,
      "र्ट": 9276,
      "sq": 9277,
      "ਬਿ": 9278,
      "र्ण": 9279,
      "University": 9280,
      "र्ध": 9281,
      "Press": 9282,
      "ਬੀ": 9283,
      "र्प": 9284,
      "Shunga": 9285,
      "ਬੁ": 9286,
      "located": 9287,
      "र्फ": 9288,
      "aj": 9289,
      "र्म": 9290,
      "ਬੇ": 9291,
      "ah": 9292,
      "र्र": 9293,
      "ਬੈ": 9294,
      "ft": 9295,
      "र्व": 9296,
      "Rajput": 9297,
      "र्श": 9298,
      "ਬੋ": 9299,
      "Later": 9300,
      "र्ष": 9301,
      "Mauritius": 9302,
      "ਬੌ": 9303,
      "र्स": 9304,
      "warming": 9305,
      "लिं": 9306,
      "ਬੰ": 9307,
      "freshwater": 9308,
      "लीं": 9309,
      "reign": 9310,
      "ਭਾ": 9311,
      "लैं": 9312,
      "Mountbatten": 9313,
      "लों": 9314,
      "ਭਿ": 9315,
      "provinces": 9316,
      "ल्ट": 9317,
      "Great": 9318,
      "ਭੀ": 9319,
      "ल्प": 9320,
      "resulted": 9321,
      "remains": 9322,
      "ल्य": 9323,
      "ਭੁ": 9324,
      "Peninsula": 9325,
      "ल्ल": 9326,
      "ਭੂ": 9327,
      "Mediterranean": 9328,
      "वाँ": 9329,
      "Southwest": 9330,
      "वां": 9331,
      "ਭੇ": 9332,
      "Chalukya": 9333,
      "वीं": 9334,
      "ਭੱ": 9335,
      "Egypt": 9336,
      "वें": 9337,
      "marine": 9338,
      "वों": 9339,
      "ਮਾ": 9340,
      "fishes": 9341,
      "व्य": 9342,
      "riv": 9343,
      "ਮਿ": 9344,
      "शां": 9345,
      "water": 9346,
      "शृं": 9347,
      "ਮੀ": 9348,
      "former": 9349,
      "शों": 9350,
      "leaders": 9351,
      "ਮੁ": 9352,
      "श्न": 9353,
      "refugees": 9354,
      "श्य": 9355,
      "separate": 9356,
      "ਮੂ": 9357,
      "श्र": 9358,
      "Late": 9359,
      "ਮੇ": 9360,
      "Army": 9361,
      "ष्ट": 9362,
      "extended": 9363,
      "ष्ठ": 9364,
      "ਮੈ": 9365,
      "Age": 9366,
      "ष्ण": 9367,
      "ਮੋ": 9368,
      "Harsha": 9369,
      "ष्म": 9370,
      "Mewar": 9371,
      "सां": 9372,
      "ਮੌ": 9373,
      "Kuru": 9374,
      "सिं": 9375,
      "trading": 9376,
      "ਮ੍": 9377,
      "सें": 9378,
      "Burma": 9379,
      "सों": 9380,
      "ਮੰ": 9381,
      "Wars": 9382,
      "स्क": 9383,
      "Current": 9384,
      "ਮੱ": 9385,
      "स्ट": 9386,
      "ridges": 9387,
      "स्त": 9388,
      "ਯਾ": 9389,
      "birds": 9390,
      "स्थ": 9391,
      "ong": 9392,
      "ਯੁ": 9393,
      "स्म": 9394,
      "Arab": 9395,
      "even": 9396,
      "स्य": 9397,
      "ਯੂ": 9398,
      "transfer": 9399,
      "स्व": 9400,
      "ਯੋ": 9401,
      "establish": 9402,
      "हाँ": 9403,
      "Patel": 9404,
      "हिं": 9405,
      "ਰਾ": 9406,
      "events": 9407,
      "हीं": 9408,
      "ਰਿ": 9409,
      "days": 9410,
      "हुं": 9411,
      "dominated": 9412,
      "हैं": 9413,
      "ਰੀ": 9414,
      "His": 9415,
      "अं": 9416,
      "First": 9417,
      "ਰੁ": 9418,
      "आं": 9419,
      "Up": 9420,
      "इं": 9421,
      "ਰੂ": 9422,
      "rd": 9423,
      "इ़": 9424,
      "Chandragupta": 9425,
      "ਰੇ": 9426,
      "ईं": 9427,
      "built": 9428,
      "उं": 9429,
      "Northern": 9430,
      "ਰੋ": 9431,
      "ऊं": 9432,
      "mostly": 9433,
      "ਰੰ": 9434,
      "Kamarupa": 9435,
      "एँ": 9436,
      "Pala": 9437,
      "एं": 9438,
      "ਰੱ": 9439,
      "slave": 9440,
      "ऐं": 9441,
      "ਲਾ": 9442,
      "Raya": 9443,
      "ओं": 9444,
      "French": 9445,
      "कं": 9446,
      "ਲਿ": 9447,
      "Indonesian": 9448,
      "का": 9449,
      "wor": 9450,
      "ਲੀ": 9451,
      "कि": 9452,
      "bo": 9453,
      "की": 9454,
      "ਲੁ": 9455,
      "Mal": 9456,
      "कु": 9457,
      "Pal": 9458,
      "ਲੇ": 9459,
      "कृ": 9460,
      "Ga": 9461,
      "के": 9462,
      "ਲੈ": 9463,
      "King": 9464,
      "कै": 9465,
      "responsibility": 9466,
      "ਲੋ": 9467,
      "कॉ": 9468,
      "integration": 9469,
      "Second": 9470,
      "को": 9471,
      "ਲੰ": 9472,
      "March": 9473,
      "कौ": 9474,
      "ਲੱ": 9475,
      "Pur": 9476,
      "क्": 9477,
      "Maharaja": 9478,
      "खा": 9479,
      "ਵਾ": 9480,
      "said": 9481,
      "खि": 9482,
      "ਵਿ": 9483,
      "Other": 9484,
      "खी": 9485,
      "themselves": 9486,
      "खु": 9487,
      "ਵੀ": 9488,
      "Bombay": 9489,
      "खू": 9490,
      "anth": 9491,
      "ਵੇ": 9492,
      "खे": 9493,
      "Mascarene": 9494,
      "खो": 9495,
      "ਵੈ": 9496,
      "Rajendra": 9497,
      "गं": 9498,
      "districts": 9499,
      "ਵੋ": 9500,
      "ग़": 9501,
      "populations": 9502,
      "गा": 9503,
      "Dyson": 9504,
      "ਵੰ": 9505,
      "गि": 9506,
      "least": 9507,
      "ਵੱ": 9508,
      "Around": 9509,
      "गी": 9510,
      "Vedas": 9511,
      "गु": 9512,
      "ਸ਼": 9513,
      "via": 9514,
      "गू": 9515,
      "ਸਾ": 9516,
      "Malwa": 9517,
      "गॉ": 9518,
      "discovered": 9519,
      "गो": 9520,
      "ਸਿ": 9521,
      "started": 9522,
      "गौ": 9523,
      "beginning": 9524,
      "ਸੀ": 9525,
      "घं": 9526,
      "chief": 9527,
      "घि": 9528,
      "ਸੁ": 9529,
      "akas": 9530,
      "घु": 9531,
      "active": 9532,
      "ਸੂ": 9533,
      "घू": 9534,
      "successfully": 9535,
      "घो": 9536,
      "ਸੇ": 9537,
      "Rashtrakuta": 9538,
      "चं": 9539,
      "Goa": 9540,
      "ਸੈ": 9541,
      "चा": 9542,
      "Gurjara": 9543,
      "Chalukyas": 9544,
      "चि": 9545,
      "ਸੋ": 9546,
      "Shah": 9547,
      "ची": 9548,
      "ਸੌ": 9549,
      "unique": 9550,
      "चु": 9551,
      "periods": 9552,
      "चू": 9553,
      "ਸ੍": 9554,
      "oceans": 9555,
      "चे": 9556,
      "ਸੰ": 9557,
      "hotspot": 9558,
      "चै": 9559,
      "Q": 9560,
      "चो": 9561,
      "ਸੱ": 9562,
      "Un": 9563,
      "चौ": 9564,
      "ree": 9565,
      "ਹਾ": 9566,
      "छा": 9567,
      "iz": 9568,
      "छे": 9569,
      "ਹਿ": 9570,
      "lit": 9571,
      "छो": 9572,
      "oss": 9573,
      "ਹੀ": 9574,
      "जं": 9575,
      "ects": 9576,
      "ज़": 9577,
      "isted": 9578,
      "ਹੁ": 9579,
      "जा": 9580,
      "aka": 9581,
      "ਹੂ": 9582,
      "Kam": 9583,
      "जि": 9584,
      "Pat": 9585,
      "जी": 9586,
      "ਹੇ": 9587,
      "Karn": 9588,
      "जु": 9589,
      "ਹੈ": 9590,
      "threat": 9591,
      "जू": 9592,
      "Tim": 9593,
      "जो": 9594,
      "ਹੋ": 9595,
      "go": 9596,
      "झा": 9597,
      "suggest": 9598,
      "ਹੌ": 9599,
      "झु": 9600,
      "cr": 9601,
      "झे": 9602,
      "ਹੰ": 9603,
      "Nizam": 9604,
      "टा": 9605,
      "campaign": 9606,
      "ਹੱ": 9607,
      "टि": 9608,
      "monarch": 9609,
      "टी": 9610,
      "ੜੀ": 9611,
      "Britain": 9612,
      "टे": 9613,
      "recently": 9614,
      "ੜੇ": 9615,
      "ठं": 9616,
      "attempted": 9617,
      "connected": 9618,
      "ठी": 9619,
      "ੜ੍": 9620,
      "meant": 9621,
      "ठे": 9622,
      "ਅ": 9623,
      "security": 9624,
      "ड़": 9625,
      "Nawab": 9626,
      "डा": 9627,
      "ਆ": 9628,
      "Rajputana": 9629,
      "डि": 9630,
      "ਇ": 9631,
      "troops": 9632,
      "डी": 9633,
      "invaded": 9634,
      "डु": 9635,
      "ਈ": 9636,
      "ys": 9637,
      "डू": 9638,
      "almost": 9639,
      "ਉ": 9640,
      "डे": 9641,
      "Cambridge": 9642,
      "डॉ": 9643,
      "ਊ": 9644,
      "Pe": 9645,
      "डो": 9646,
      "waves": 9647,
      "ਏ": 9648,
      "ढ़": 9649,
      "Nanda": 9650,
      "ढा": 9651,
      "Tri": 9652,
      "ਓ": 9653,
      "ढि": 9654,
      "struggle": 9655,
      "ਕ": 9656,
      "Tughlaq": 9657,
      "णा": 9658,
      "Timur": 9659,
      "णि": 9660,
      "ਖ": 9661,
[...]
