{
  "version": "1.0",
  "truncation": null,
  "padding": null,
  "added_tokens": [],
  "normalizer": null,
  "pre_tokenizer": {
    "type": "ByteLevel",
    "add_prefix_space": false,
    "trim_offsets": true,
    "use_regex": true
  },
  "post_processor": {
    "type": "ByteLevel",
    "add_prefix_space": true,
    "trim_offsets": false,
    "use_regex": true
  },
  "decoder": {
    "type": "ByteLevel",
    "add_prefix_space": true,
    "trim_offsets": true,
    "use_regex": true
  },
  "model": {
    "type": "BPE",
    "dropout": null,
    "unk_token": null,
    "continuing_subword_prefix": null,
    "end_of_word_suffix": null,
    "fuse_unk": false,
    "byte_fallback": false,
    "ignore_merges": false,
    "vocab": {
      "!": 0,
      "\"": 1,
      "#": 2,
      "$": 3,
      "%": 4,
      "&": 5,
      "'": 6,
      "(": 7,
      ")": 8,
      "*": 9,
      "+": 10,
      ",": 11,
      "-": 12,
      ".": 13,
      "/": 14,
      "0": 15,
      "1": 16,
      "2": 17,
      "3": 18,
      "4": 19,
      "5": 20,
      "6": 21,
      "7": 22,
      "8": 23,
      "9": 24,
      ":": 25,
      ";": 26,
      "<": 27,
      "=": 28,
      ">": 29,
      "?": 30,
      "@": 31,
      "A": 32,
      "B": 33,
      "C": 34,
      "D": 35,
      "E": 36,
      "F": 37,
      "G": 38,
      "H": 39,
      "I": 40,
      "J": 41,
      "K": 42,
      "L": 43,
      "M": 44,
      "N": 45,
      "O": 46,
      "P": 47,
      "Q": 48,
      "R": 49,
      "S": 50,
      "T": 51,
      "U": 52,
      "V": 53,
      "W": 54,
      "X": 55,
      "Y": 56,
      "Z": 57,
      "[": 58,
      "\\": 59,
      "]": 60,
      "^": 61,
      "_": 62,
      "`": 63,
      "a": 64,
      "b": 65,
      "c": 66,
      "d": 67,
      "e": 68,
      "f": 69,
      "g": 70,
      "h": 71,
      "i": 72,
      "j": 73,
      "k": 74,
      "l": 75,
      "m": 76,
      "n": 77,
      "o": 78,
      "p": 79,
      "q": 80,
      "r": 81,
      "s": 82,
      "t": 83,
      "u": 84,
      "v": 85,
      "w": 86,
      "x": 87,
      "y": 88,
      "z": 89,
      "{": 90,
      "|": 91,
      "}": 92,
      "~": 93,
      "¡": 94,
      "¢": 95,
      "£": 96,
      "¤": 97,
      "¥": 98,
      "¦": 99,
      "§": 100,
      "¨": 101,
      "©": 102,
      "ª": 103,
      "«": 104,
      "¬": 105,
      "®": 106,
      "¯": 107,
      "°": 108,
      "±": 109,
      "²": 110,
      "³": 111,
      "´": 112,
      "µ": 113,
      "¶": 114,
      "·": 115,
      "¸": 116,
      "¹": 117,
      "º": 118,
      "»": 119,
      "¼": 120,
      "½": 121,
      "¾": 122,
      "¿": 123,
      "À": 124,
      "Á": 125,
      "Â": 126,
      "Ã": 127,
      "Ä": 128,
      "Å": 129,
      "Æ": 130,
      "Ç": 131,
      "È": 132,
      "É": 133,
      "Ê": 134,
      "Ë": 135,
      "Ì": 136,
      "Í": 137,
      "Î": 138,
      "Ï": 139,
      "Ð": 140,
      "Ñ": 141,
      "Ò": 142,
      "Ó": 143,
      "Ô": 144,
      "Õ": 145,
      "Ö": 146,
      "×": 147,
      "Ø": 148,
      "Ù": 149,
      "Ú": 150,
      "Û": 151,
      "Ü": 152,
      "Ý": 153,
      "Þ": 154,
      "ß": 155,
      "à": 156,
      "á": 157,
      "â": 158,
      "ã": 159,
      "ä": 160,
      "å": 161,
      "æ": 162,
      "ç": 163,
      "è": 164,
      "é": 165,
      "ê": 166,
      "ë": 167,
      "ì": 168,
      "í": 169,
      "î": 170,
      "ï": 171,
      "ð": 172,
      "ñ": 173,
      "ò": 174,
      "ó": 175,
      "ô": 176,
      "õ": 177,
      "ö": 178,
      "÷": 179,
      "ø": 180,
      "ù": 181,
      "ú": 182,
      "û": 183,
      "ü": 184,
      "ý": 185,
      "þ": 186,
      "ÿ": 187,
      "Ā": 188,
      "ā": 189,
      "Ă": 190,
      "ă": 191,
      "Ą": 192,
      "ą": 193,
      "Ć": 194,
      "ć": 195,
      "Ĉ": 196,
      "ĉ": 197,
      "Ċ": 198,
      "ċ": 199,
      "Č": 200,
      "č": 201,
      "Ď": 202,
      "ď": 203,
      "Đ": 204,
      "đ": 205,
      "Ē": 206,
      "ē": 207,
      "Ĕ": 208,
      "ĕ": 209,
      "Ė": 210,
      "ė": 211,
      "Ę": 212,
      "ę": 213,
      "Ě": 214,
      "ě": 215,
      "Ĝ": 216,
      "ĝ": 217,
      "Ğ": 218,
      "ğ": 219,
      "Ġ": 220,
      "ġ": 221,
      "Ģ": 222,
      "ģ": 223,
      "Ĥ": 224,
      "ĥ": 225,
      "Ħ": 226,
      "ħ": 227,
      "Ĩ": 228,
      "ĩ": 229,
      "Ī": 230,
      "ī": 231,
      "Ĭ": 232,
      "ĭ": 233,
      "Į": 234,
      "į": 235,
      "İ": 236,
      "ı": 237,
      "Ĳ": 238,
      "ĳ": 239,
      "Ĵ": 240,
      "ĵ": 241,
      "Ķ": 242,
      "ķ": 243,
      "ĸ": 244,
      "Ĺ": 245,
      "ĺ": 246,
      "Ļ": 247,
      "ļ": 248,
      "Ľ": 249,
      "ľ": 250,
      "Ŀ": 251,
      "ŀ": 252,
      "Ł": 253,
      "ł": 254,
      "Ń": 255,
      "à°": 256,
      "à¤": 257,
      "à±": 258,
      "Ġà°": 259,
      "à¨": 260,
      "à°¾": 261,
      "à±į": 262,
      "à¥": 263,
      "Ġà¤": 264,
      "à°¿": 265,
      "à°°": 266,
      "à°Ĥ": 267,
      "à±ģ": 268,
      "à°²": 269,
      "à°¨": 270,
      "Ġà¨": 271,
      "à©": 272,
      "Ġt": 273,
      "à°¤": 274,
      "he": 275,
      "à¤¾": 276,
      "an": 277,
      "à°¦": 278,
      "à°ķ": 279,
      "in": 280,
      "à°¯": 281,
      "Ġthe": 282,
      "à¤°": 283,
      "à¥į": 284,
      "à±ĭ": 285,
      "on": 286,
      "à¥ĩ": 287,
      "er": 288,
      "à°µ": 289,
      "à°Ĺ": 290,
      "Ġo": 291,
      "Ġà°ª": 292,
      "à°¡": 293,
      "à¨¾": 294,
      "re": 295,
      "à°®": 296,
      "à°¸": 297,
      "at": 298,
      "à°ª": 299,
      "à±ĩ": 300,
      "à¤¤": 301,
      "st": 302,
      "à¤¿": 303,
      "al": 304,
      "en": 305,
      "ed": 306,
      "Ġà¤ķ": 307,
      "Ġà°¸": 308,
      "Ġof": 309,
      "à¤Ĥ": 310,
      "à°Ł": 311,
      "à°¿à°Ĥ": 312,
      "ar": 313,
      "à°ļ": 314,
      "and": 315,
      "à¥Ģ": 316,
      "à±Ģ": 317,
      "Ġà°µ": 318,
      "Ġin": 319,
      "it": 320,
      "Ġa": 321,
      "à¤¨": 322,
      "Ġw": 323,
      "Ġà°ķ": 324,
      "ĠI": 325,
      "Ġc": 326,
      "Ġà°®": 327,
      "Ġand": 328,
      "Ġs": 329,
      "nd": 330,
      "ion": 331,
      "à°ľ": 332,
      "or": 333,
      "à¤¯": 334,
      "à¨°": 335,
      "is": 336,
      "Ġ1": 337,
      "à¨¿": 338,
      "Ġp": 339,
      "à°§": 340,
      "es": 341,
      "à©Ģ": 342,
      "à±Ĩ": 343,
      "à¤ķ": 344,
      "Ġb": 345,
      "Ġf": 346,
      "Ġà¤¸": 347,
      "à¨¤": 348,
      "ĠInd": 349,
      "à°¿.": 350,
      "à°¶": 351,
      "à¥ĭ": 352,
      "Ġ(": 353,
      "as": 354,
      "Ġm": 355,
      "ic": 356,
      "Ġà°°": 357,
      "ĠIndi": 358,
      "à¤¸": 359,
      "ing": 360,
      "om": 361,
      "à±Ĥ": 362,
      "à©ĩ": 363,
      "à¥¤": 364,
      "ĠS": 365,
      "Ġà°¨": 366,
      "à°£": 367,
      "Ġà°ħ": 368,
      "Ġà¤®": 369,
      "ent": 370,
      "à°¬": 371,
      "Ġà°ļ": 372,
      "Ġà¤ª": 373,
      "Ġd": 374,
      "ĠT": 375,
      "ou": 376,
      "à¤®": 377,
      "ec": 378,
      "à°·": 379,
      "Ġà°¤": 380,
      "el": 381,
      "Ġà¤¹": 382,
      "à©±": 383,
      "à¥ģ": 384,
      "Ġto": 385,
      "Ġà°Ń": 386,
      "à¤²": 387,
      "00": 388,
      "à¨¸": 389,
      "ĠA": 390,
      "à¤µ": 391,
      "à±Ī": 392,
      "Ġl": 393,
      "ur": 394,
      "à¨Ĥ": 395,
      "à±Ĭ": 396,
      "à°¹": 397,
      "Ġe": 398,
      "Ġà°ī": 399,
      "ĠB": 400,
      "Ġh": 401,
      "Ġà¨¦": 402,
      "Ġà¨¸": 403,
      "à±ģ.": 404,
      "ĠThe": 405,
      "ad": 406,
      "à¥ĩà¤Ĥ": 407,
      "à°°à°¤": 408,
      "à¤¦": 409,
      "Ġre": 410,
      "à¨¨": 411,
      "ĠM": 412,
      "ĠIndia": 413,
      "à°Ń": 414,
      "Ġà°Ĩ": 415,
      "à¥Ī": 416,
      "Ġ2": 417,
      "à¤¹": 418,
      "th": 419,
      "ul": 420,
      "il": 421,
      "Ġà¨µ": 422,
      "ce": 423,
      "Ġà°¦": 424,
      "Ġà°¬": 425,
      "Ġà¤Ń": 426,
      "ol": 427,
      "à°¾à°Ĥ": 428,
      "à¤ª": 429,
      "à¨²": 430,
      "Ġn": 431,
      "ĠC": 432,
      "Ġ19": 433,
      "à¨ķ": 434,
      "ev": 435,
      "Ġà°ľ": 436,
      "am": 437,
      "à¨¦": 438,
      "ĠP": 439,
      "ect": 440,
      "im": 441,
      "ly": 442,
      "à¤·": 443,
      "à©°": 444,
      "à±ģ,": 445,
      "à©ĭ": 446,
      "à°¥": 447,
      "iv": 448,
      "à¤Ĺ": 449,
      "Ġà¨¹": 450,
      "Ġà°Ĺ": 451,
      "Ġà¤ħ": 452,
      "à¤ľ": 453,
      "à¨¼": 454,
      "ĠIndian": 455,
      "à¤°à¤¤": 456,
      "ist": 457,
      "ation": 458,
      "Ġr": 459,
      "ast": 460,
      "Ġà¤¨": 461,
      "Ġà°¶": 462,
      "Ġà¤µ": 463,
      "Ġà¤ľ": 464,
      "Ġà°ĩ": 465,
      "Ġg": 466,
      "à¤¶": 467,
      "Ġth": 468,
      "à¨Ĩ": 469,
      "Ġà¤¬": 470,
      "à±ģà°Ĥ": 471,
      "ow": 472,
      "ut": 473,
      "à¥ĭà¤Ĥ": 474,
      "ch": 475,
      "ir": 476,
      "à°²à°¨": 477,
      "le": 478,
      "ge": 479,
      "ĠH": 480,
      "ig": 481,
      "à¨ļ": 482,
      "us": 483,
      "à±Ĩà°Ĥ": 484,
      "id": 485,
      "Ġà¨ħ": 486,
      "à¨¿à©±": 487,
      "ra": 488,
      "à¥Ĥ": 489,
      "ĠE": 490,
      "evel": 491,
      "à¨®": 492,
      "Ġwas": 493,
      "Ġà¨ª": 494,
      "à¤§": 495,
      "Ġà°²": 496,
      "Ġby": 497,
      "à¤¥": 498,
      "à¨¾à¨Ĥ": 499,
      "un": 500,
      "ĠG": 501,
      "à¨¹": 502,
      "ection": 503,
      "à©ģ": 504,
      "Ġà¤¦": 505,
      "à©Ĥ": 506,
      "Ġas": 507,
      "ern": 508,
      "ro": 509,
      "Ġbe": 510,
      "em": 511,
      "rom": 512,
      "à¤Ł": 513,
      "à¨µ": 514,
      "Ġà¨ķ": 515,
      "à°³": 516,
      "Ġà¤Ķ": 517,
      "Ġà¨¨": 518,
      "à±ĥ": 519,
      "Ġà¤Ķà¤°": 520,
      "Ġà¤°": 521,
      "Ġis": 522,
      "ers": 523,
      "à¤£": 524,
      "à°ĸ": 525,
      "à¨ľ": 526,
      "ith": 527,
      "Level": 528,
      "ĠD": 529,
      "ĠSection": 530,
      "ĠR": 531,
      "Ġà¤¤": 532,
      "Ġst": 533,
      "à°µà°°": 534,
      "Ġfor": 535,
      "à°¤à°°": 536,
      "ab": 537,
      "Ġà°¹": 538,
      "Ġfrom": 539,
      "op": 540,
      "ies": 541,
      "Ġà¨Ń": 542,
      "od": 543,
      "Ġcon": 544,
      "âĢ": 545,
      "à°°à°¤à°¦": 546,
      "Ġsu": 547,
      "à¤Ń": 548,
      "av": 549,
      "à¨°à¨¤": 550,
      "ĠK": 551,
      "ĠO": 552,
      "Ġwith": 553,
      "Ġon": 554,
      "Ġà¤ĩ": 555,
      "Ġwh": 556,
      "est": 557,
      "à¤¬": 558,
      "Ġ\"": 559,
      "ay": 560,
      "her": 561,
      "à°Ĥ,": 562,
      "à°¬à°¡": 563,
      "ct": 564,
      "à¨£": 565,
      "Ġà°Ī": 566,
      "à¨ª": 567,
      "ak": 568,
      "ain": 569,
      "ov": 570,
      "mp": 571,
      "rit": 572,
      "ts": 573,
      "ate": 574,
      "Ġex": 575,
      "à©Ī": 576,
      "res": 577,
      "Ġà¨ľ": 578,
      "Ġà¤Ĩ": 579,
      "Ġà¨ĩ": 580,
      "ish": 581,
      "à¨Ĺ": 582,
      "à°°à°ķ": 583,
      "Ġà¤ī": 584,
      "ere": 585,
      "à¤ļ": 586,
      "ĠN": 587,
      "Ġal": 588,
      "ire": 589,
      "Ġit": 590,
      "000": 591,
      "gh": 592,
      "Ġan": 593,
      "à¤¡": 594,
      "à¥Īà¥¤": 595,
      "ort": 596,
      "à¤¼": 597,
      "à°²à°ķ": 598,
      "Ġwere": 599,
      "ian": 600,
      "cean": 601,
      "et": 602,
      "Ġà°¤à°°": 603,
      "os": 604,
      "Ġà¤Ĺ": 605,
      "ud": 606,
      "âĢĵ": 607,
      "Ġà¨¤": 608,
      "end": 609,
      "ated": 610,
      "Ġint": 611,
      "Ġ3": 612,
      "Ġv": 613,
      "Ġà¤¥": 614,
      "à°²à°²": 615,
      "Ġà¤ªà¤°": 616,
      "à°¯à°¨": 617,
      "Ġcent": 618,
      "Ġà¤²": 619,
      "à±Į": 620,
      "ment": 621,
      "à°¿,": 622,
      "aj": 623,
      "ult": 624,
      "ri": 625,
      "ĠW": 626,
      "Ġà°īà°¨": 627,
      "'s": 628,
      "Ġà¨®": 629,
      "ong": 630,
      "Ġà¤¶": 631,
      "Ġà¨¬": 632,
      "à°Ĺà°°": 633,
      "art": 634,
      "du": 635,
      "Ġà¤¯": 636,
      "à©į": 637,
      "Ġà¨ħà¨¤": 638,
      "Ġà°¯": 639,
      "ac": 640,
      "ag": 641,
      "um": 642,
      "ap": 643,
      "Ġare": 644,
      "ep": 645,
      "Ġk": 646,
      "ich": 647,
      "ure": 648,
      "ity": 649,
      "Ġà°¸à°®": 650,
      "ĠOcean": 651,
      "ĠV": 652,
      "à±į,": 653,
      "Ġà¨°": 654,
      "Ġor": 655,
      "Ġ20": 656,
      "mpire": 657,
      "ot": 658,
      "à°°à°®": 659,
      "à°°à°£": 660,
      "ĠIn": 661,
      "hi": 662,
      "),": 663,
      "à°¯à°®": 664,
      "ĠJ": 665,
      "à¤¾à¥¤": 666,
      "ld": 667,
      "so": 668,
      "ill": 669,
      "ical": 670,
      "Ġà°ħà°¨": 671,
      "Ġ194": 672,
      "ia": 673,
      "ial": 674,
      "à¤Ī": 675,
      "Ġà°ªà°°": 676,
      "à©ĭà¨Ĥ": 677,
      "à¨§": 678,
      "à°°à°¸": 679,
      "Ġwhich": 680,
      "ang": 681,
      "à¥Īà¤Ĥ": 682,
      "Ġà¥": 683,
      "à¨ĸ": 684,
      "Ġat": 685,
      "Ġcom": 686,
      "ĠL": 687,
      "à¨¬": 688,
      "Ġtr": 689,
      "Ġà°¶à°¤": 690,
      "up": 691,
      "Ġper": 692,
      "ĠBrit": 693,
      "ter": 694,
      "Ġà°İ": 695,
      "if": 696,
      "à¤ĸ": 697,
      "outh": 698,
      "ury": 699,
      "à°¤à°¨": 700,
      "Ġ18": 701,
      "Ġar": 702,
      "ant": 703,
      "Ġpro": 704,
      "à±Ĭà°Ĥ": 705,
      "Ġits": 706,
      "ĠBritish": 707,
      "ear": 708,
      "ha": 709,
      "oc": 710,
      "Ġà¨Ĺ": 711,
      "ore": 712,
      "Ġinc": 713,
      "Ġà¤ĩà¤¸": 714,
      "à°¯à°µ": 715,
      "Ġrul": 716,
      "Ġà°ĩà°¦": 717,
      "à¤ı": 718,
      "ĠAs": 719,
      "à°ĺ": 720,
      "Ġà¤ı": 721,
      "Ġà¨ī": 722,
      "Ġhad": 723,
      "Ġthat": 724,
      "ew": 725,
      "Ġun": 726,
      "à°ļà°¬à°¡": 727,
      "Ġà¤ļ": 728,
      "Ġà°¦à°ķ": 729,
      "ĠCh": 730,
      "ive": 731,
      "à¥¦": 732,
      "ely": 733,
      "ates": 734,
      "à°°à°ª": 735,
      "cc": 736,
      "qu": 737,
      "ĠU": 738,
      "à¨Ń": 739,
      "Ġà¨Ĩ": 740,
      "ans": 741,
      "Ġinto": 742,
      "à¨Ł": 743,
      "ence": 744,
      "ous": 745,
      "out": 746,
      "ost": 747,
      "Ġà°ı": 748,
      "ary": 749,
      "uring": 750,
      "ough": 751,
      "all": 752,
      "ions": 753,
      "Ġ6": 754,
      "à¨Ī": 755,
      "ound": 756,
      "Ġreg": 757,
      "Ġ5": 758,
      "Ġsp": 759,
      "ĠEmpire": 760,
      "Ġà°®à°¹": 761,
      "ism": 762,
      "har": 763,
      "Ġà°Ĵ": 764,
      "ĠAf": 765,
      "istor": 766,
      "à¥ĥ": 767,
      "hed": 768,
      "à¤¯à¤¤": 769,
      "Ġà°ħà°§": 770,
      "und": 771,
      "à°²à°¯": 772,
      "Ġà¨²": 773,
      "Ġà°īà°¤": 774,
      "Ġà°īà°ª": 775,
      "pp": 776,
      "ĠF": 777,
      "nt": 778,
      "Ġà°®à°§": 779,
      "ame": 780,
      "overn": 781,
      "Ġlar": 782,
      "ĠHin": 783,
      "ric": 784,
      "Ġà¤¸à¤®": 785,
      "Ġà°Ĩà°§": 786,
      "iod": 787,
      "ver": 788,
      "Ġà°µà°°à°ķ": 789,
      "à°ł": 790,
      "à°ķà°¤": 791,
      "Ġcont": 792,
      "à©Īà¥¤": 793,
      "à°¾,": 794,
      "ition": 795,
      "Ġ7": 796,
      "à±Ģ.": 797,
      "ef": 798,
      "à¨ħ": 799,
      "eral": 800,
      "ord": 801,
      "ave": 802,
      "igh": 803,
      "Ġcentury": 804,
      "Ġà¤ķà¤°": 805,
      "ĠMa": 806,
      "Ġtrad": 807,
      "Ġtheir": 808,
      "Ġ17": 809,
      "Ġpl": 810,
      "Ġà¤¸à¤Ń": 811,
      "Ġà°ħà°Ń": 812,
      "à©Ĥà©°": 813,
      "Ġsub": 814,
      "à¨¼à¨¾": 815,
      "19": 816,
      "lim": 817,
      "any": 818,
      "à°¦à°°": 819,
      "à°µà°¤": 820,
      "red": 821,
      "Ġag": 822,
      "orth": 823,
      "orld": 824,
      "hern": 825,
      "Ġalso": 826,
      "Ġy": 827,
      "à°¨à°ª": 828,
      "Ġ15": 829,
      "our": 830,
      "Ġperiod": 831,
      "Ġà°Ĵà°ķ": 832,
      "og": 833,
      "à¤¾à¤Ĥ": 834,
      "à°¦à°Ł": 835,
      "eng": 836,
      "ea": 837,
      "Ġ4": 838,
      "ess": 839,
      "Ġhas": 840,
      "istan": 841,
      "Ġad": 842,
      "Ġà°®à°°": 843,
      "se": 844,
      "Ġà°ķà°²": 845,
      "Ġ201": 846,
      "à¥Īà¤Ĥà¥¤": 847,
      "CE": 848,
      "dom": 849,
      "ust": 850,
      "à¤ģ": 851,
      "ont": 852,
      "Ġlarge": 853,
      "age": 854,
      "een": 855,
      "ik": 856,
      "lud": 857,
      "à°¯à°ķ": 858,
      "ĠBCE": 859,
      "Ġexp": 860,
      "ral": 861,
      "yn": 862,
      "à°«": 863,
      "à°°à°¦": 864,
      "à°°à°Ń": 865,
      "à°ķà°°": 866,
      "ater": 867,
      "Ġà°ħà°¯": 868,
      "à¨¤à¨°": 869,
      "ass": 870,
      "econ": 871,
      "à¤¤à¤°": 872,
      "ingdom": 873,
      "ome": 874,
      "Ġpart": 875,
      "Ġle": 876,
      ").": 877,
      "Ġbec": 878,
      "Ġmar": 879,
      "Ġduring": 880,
      "ell": 881,
      "Ġà°īà°¦": 882,
      "overnment": 883,
      "à¨¥": 884,
      "inc": 885,
      "inent": 886,
      "à±ĩà°Ĥ": 887,
      "Ġind": 888,
      "à°ľà°µ": 889,
      "Ġmill": 890,
      "ress": 891,
      "pt": 892,
      "à°°à°ľ": 893,
      "low": 894,
      "à°²à°¤": 895,
      "à°¤à°®": 896,
      "Ġà°µà°°": 897,
      "Ġco": 898,
      "ĠBeng": 899,
      "uslim": 900,
      "Ġinclud": 901,
      "under": 902,
      "ĠBengal": 903,
      "Ġà©": 904,
      "à°ªà°Ł": 905,
      "Ġaf": 906,
      "Ġrel": 907,
      "Ġres": 908,
      "ĠHindu": 909,
      "mer": 910,
      "ine": 911,
      "ĠSouth": 912,
      "Ġà¤ħà¤¨": 913,
      "Ġ1947": 914,
      "Ġà¤ıà¤ķ": 915,
      "Ġregion": 916,
      "ynast": 917,
      "50": 918,
      "Ġpr": 919,
      "Ġbut": 920,
      "Ġhave": 921,
      "ime": 922,
      "Ġbet": 923,
      "Ġà¤¤à¤¥": 924,
      "istory": 925,
      "Ġyear": 926,
      "ween": 927,
      "Ġunder": 928,
      "Ġear": 929,
      "ations": 930,
      "Ġthis": 931,
      "à±Ĥ.": 932,
      "Ġnew": 933,
      "§à¥": 934,
      "Ġhe": 935,
      "à¥Į": 936,
      "reat": 937,
      "ĠMuslim": 938,
      "Ġà°ıà°°": 939,
      "Ġbetween": 940,
      "ual": 941,
      "Ġ-": 942,
      "à¤¾,": 943,
      "à°¸à°°": 944,
      "à¨¿à©°": 945,
      "omin": 946,
      "Ġdynast": 947,
      "ower": 948,
      "Ġend": 949,
      "arat": 950,
      "Ġmost": 951,
      "Ġest": 952,
      "Ġhis": 953,
      "ign": 954,
      "Ġcomp": 955,
      "à°¯à°µà°¸": 956,
      "à°¯à°¤": 957,
      "Ġover": 958,
      "Ġpop": 959,
      "Ġdec": 960,
      "Ġ200": 961,
      "ĠPak": 962,
      "irst": 963,
      "ĠEast": 964,
      "ĠAsia": 965,
      "ber": 966,
      "cont": 967,
      "Ġ9": 968,
      "Ġà°ļà°°": 969,
      "Ġà¤µà¤°": 970,
      "Ġgr": 971,
      "Ġà¤¯à¤¹": 972,
      "Ġà°īà°ªà°ĸ": 973,
      "ĠPakistan": 974,
      "land": 975,
      "ther": 976,
      "à¥Ģà¤Ĥ": 977,
      "ĠRaj": 978,
      "epend": 979,
      "Ġpopul": 980,
      "continent": 981,
      "Ġà¤Ī": 982,
      "Ġnorth": 983,
      "Ġgovernment": 984,
      "ced": 985,
      "ru": 986,
      "ry": 987,
      "à¤Ĩ": 988,
      "Ġà°ĸ": 989,
      "à©Į": 990,
      "à°®à°¤": 991,
      "ĠIt": 992,
      "own": 993,
      "odern": 994,
      "estern": 995,
      "Ġim": 996,
      "ered": 997,
      "stit": 998,
      "Ġcult": 999,
      "à¨°à¨®": 1000,
      "Ġpol": 1001,
      "Ġbeen": 1002,
      "Ġform": 1003,
      "20": 1004,
      "ok": 1005,
      "à¤¾à¤ģ": 1006,
      "ara": 1007,
      "Ġpe": 1008,
      "li": 1009,
      "ugh": 1010,
      "ished": 1011,
      "à¨¸à¨¤": 1012,
      "à¤ªà¤¨": 1013,
      "Ġà¤¤à¤ķ": 1014,
      "Ġsubcontinent": 1015,
      "Ġyears": 1016,
      "Ġ8": 1017,
      "à°¨à°¦": 1018,
      "à©ľ": 1019,
      "Ġch": 1020,
      "Ġà¤Ĺà¤¯": 1021,
      "ĠAfric": 1022,
      "18": 1023,
      "à¨¡": 1024,
      "à¤°à¤®": 1025,
      "Ġ16": 1026,
      "Ġà°Ĩà°°": 1027,
      "Ġstates": 1028,
      "abl": 1029,
      "à¨ĩ": 1030,
      "Ġà¤§": 1031,
      "Ġworld": 1032,
      "Ġpower": 1033,
      "Ġà°ħà°¤": 1034,
      "ount": 1035,
      "à¤µà¤¤": 1036,
      "Ġmillion": 1037,
      "dh": 1038,
      "Ġab": 1039,
      "Ġsouth": 1040,
      "Ġfirst": 1041,
      "Ġà¨¸à¨®": 1042,
      "ivers": 1043,
      "Ġà¨ĩà¨¸": 1044,
      "gan": 1045,
      "à°¨à°µ": 1046,
      "Ġà¨ļ": 1047,
      "Ġà°¸à°°": 1048,
      "ĠTh": 1049,
      "ural": 1050,
      "Ġrep": 1051,
      "Ġà°ľà°¨": 1052,
      "Ġà¥§à¥": 1053,
      "Ġafter": 1054,
      "Ġdynasty": 1055,
      "lo": 1056,
      "wo": 1057,
      "yst": 1058,
      "à¤°à¤ķ": 1059,
      "à°¡à°µ": 1060,
      "Ġev": 1061,
      "Ġ196": 1062,
      "Ġà°ľà°°": 1063,
      "Ġà¤¬à¤¨": 1064,
      "Ġimp": 1065,
      "eat": 1066,
      "ip": 1067,
      "à°°à°µ": 1068,
      "inist": 1069,
      "ree": 1070,
      "ens": 1071,
      "Ġà°ķà°¨": 1072,
      "Ġà°ķà°µ": 1073,
      "à°¹à°¦": 1074,
      "Ġnot": 1075,
      "Ġall": 1076,
      "ajor": 1077,
      "ystem": 1078,
      "à¤ĵ": 1079,
      "Ġà°ĵ": 1080,
      "à±ĭ-": 1081,
      "à¨°à¨¸": 1082,
      "à¤ķà¤°": 1083,
      "Ġà°°à°ļ": 1084,
      "Ġdis": 1085,
      "ational": 1086,
      "ution": 1087,
      "à©ģà©±": 1088,
      "Ġbecame": 1089,
      "rough": 1090,
      "Ġel": 1091,
      "à¥ĩà¥¤": 1092,
      "ard": 1093,
      "à¥Ģà¥¤": 1094,
      "ever": 1095,
      "ĠUn": 1096,
      "econom": 1097,
      "hm": 1098,
      "Ġà°¡": 1099,
      "à°°à°§": 1100,
      "à°ªà°°": 1101,
      "ars": 1102,
      "Ġ12": 1103,
      "à¤µà¤°": 1104,
      "Ġsuch": 1105,
      "Ġà¤īà¤¤": 1106,
      "ultan": 1107,
      "Ġeconom": 1108,
      "à°¨à°¸": 1109,
      "Ġtwo": 1110,
      "à°¦à°²": 1111,
      "Ġwhe": 1112,
      "à¤¸à¤¨": 1113,
      "ĠSt": 1114,
      "Ġà¤®à¤¨": 1115,
      "Ġeast": 1116,
      "Ġà¨¹à¨¨": 1117,
      "ĠDel": 1118,
      "Ġext": 1119,
      "ub": 1120,
      "Ġà°«": 1121,
      "Ġà°Ł": 1122,
      "à°°à°µà°°": 1123,
      "reas": 1124,
      "à°ļà°¡": 1125,
      "Ġà°µà°ļ": 1126,
      "ors": 1127,
      "Ġà°¨à°¦": 1128,
      "ĠCE": 1129,
      "orthern": 1130,
      "Ġtrade": 1131,
      "Ġindepend": 1132,
      "Ġrelig": 1133,
      "ĠDelhi": 1134,
      "act": 1135,
      "ied": 1136,
      "ious": 1137,
      "ta": 1138,
      "ĠâĢĵ": 1139,
      "à¤«": 1140,
      "ance": 1141,
      "als": 1142,
      "Ġcl": 1143,
      "Ġà°®à°¤": 1144,
      "à¨°à¨µ": 1145,
      "Ġfound": 1146,
      "ĠAl": 1147,
      "ement": 1148,
      "Ġrule": 1149,
      "¯à¥": 1150,
      "ins": 1151,
      "Ġthere": 1152,
      "Ġmajor": 1153,
      "ĠBud": 1154,
      "Ġ197": 1155,
      "ack": 1156,
      "Ġkingdom": 1157,
      "ex": 1158,
      "à°¨à°²": 1159,
      "Ġà¨«": 1160,
      "à°ªà°¤": 1161,
      "à°ªà°¡": 1162,
      "ited": 1163,
      "Ġsystem": 1164,
      "ise": 1165,
      "à°¬à°°": 1166,
      "ĠMugh": 1167,
      "ople": 1168,
      "Ġcons": 1169,
      "Ġone": 1170,
      "aw": 1171,
      "Ġà¨§": 1172,
      "Ġmov": 1173,
      "à±Īà°Ĥ": 1174,
      "Ġà°¶à°ķ": 1175,
      "Ġestabl": 1176,
      "ue": 1177,
      "à¨ı": 1178,
      "Ġà¤«": 1179,
      "Ġinv": 1180,
      "Ġsoc": 1181,
      "ĠSea": 1182,
      "Ġà¤®à¤¹": 1183,
      "Ġà¤¦à¤ķ": 1184,
      "emp": 1185,
      "âĢĶ": 1186,
      "Ġwho": 1187,
      "ific": 1188,
      "ĠAfrica": 1189,
      "til": 1190,
      "à¤ł": 1191,
      "à°²à°µ": 1192,
      "ana": 1193,
      "à°¯à°¬à°¡": 1194,
      "ren": 1195,
      "Ġcol": 1196,
      "ised": 1197,
      "Ġbas": 1198,
      "Ġmore": 1199,
      "ĠAn": 1200,
      "Ġà°Ĩà°¯à°¨": 1201,
      "rab": 1202,
      "Ġà¨ķà¨°": 1203,
      "à°ĺà°²": 1204,
      "Ġà¤Īà¤¸": 1205,
      "ci": 1206,
      "ron": 1207,
      "Ġup": 1208,
      "à°¯à°²": 1209,
      "att": 1210,
      "Ġà°ķà°°": 1211,
      "isation": 1212,
      "Ġdef": 1213,
      "Ġempire": 1214,
      "Ġà¤ľà¤¨": 1215,
      "ĠHistory": 1216,
      "ose": 1217,
      "à¥¦à¥¦": 1218,
      "ikh": 1219,
      "Ġearly": 1220,
      "Ġpopulation": 1221,
      "Ġpeople": 1222,
      "17": 1223,
      "ah": 1224,
      "Ġà°ªà°¦": 1225,
      "à°ľà°ķ": 1226,
      "Ġpar": 1227,
      "Ġmodern": 1228,
      "Ġnorthern": 1229,
      "ĠCom": 1230,
      "Ġà¤ħà¤§": 1231,
      "rib": 1232,
      "Ġcoast": 1233,
      "les": 1234,
      "rat": 1235,
      "uc": 1236,
      "ved": 1237,
      "ya": 1238,
      "à¤°à¤¸": 1239,
      "à¤°à¤¦": 1240,
      "à°®à°¨": 1241,
      "Ġ13": 1242,
      "à©Ģà¥¤": 1243,
      "ics": 1244,
      "Ġà°Ĩà°¸": 1245,
      "Ġthan": 1246,
      "ide": 1247,
      "Ġà¤°à¤¹": 1248,
      "Ġcomm": 1249,
      "outhern": 1250,
      "ight": 1251,
      "ĠBuddh": 1252,
      "eg": 1253,
      "ean": 1254,
      "iz": 1255,
      "ala": 1256,
      "Ġsh": 1257,
      "Ġsome": 1258,
      "Ġà¤¸à¤¬": 1259,
      "Ġà¤ªà¤¹": 1260,
      "ĠMarat": 1261,
      "Ġ195": 1262,
      "ected": 1263,
      "Ġà¤¬à¤¹": 1264,
      "Ġà¤Ĩà¤°": 1265,
      "Ġuntil": 1266,
      "stitution": 1267,
      "ĠMughal": 1268,
      "Ġus": 1269,
      "à¤ĩ": 1270,
      "Ġà°¢": 1271,
      "Ġà°ªà°²": 1272,
      "read": 1273,
      "à°®à°°": 1274,
      "Ġà¤ķà¤¹": 1275,
      "Ġoff": 1276,
      "à±Ģ,": 1277,
      "ities": 1278,
      "à©Ģà¨Ĥ": 1279,
      "Ġrec": 1280,
      "owever": 1281,
      "Ġbegan": 1282,
      "Ġstate": 1283,
      "Ġkn": 1284,
      "Ġlead": 1285,
      "Ġà¤¸à¤¬à¤¸": 1286,
      "ff": 1287,
      "has": 1288,
      "à¤¢": 1289,
      "Ġter": 1290,
      "à°Ĺà°²": 1291,
      "itical": 1292,
      "Ġapp": 1293,
      "ĠAr": 1294,
      "Ġlater": 1295,
      "Ġà¨¸à¨Ń": 1296,
      "Ġref": 1297,
      "Ġà°Ĩà°²à°¯": 1298,
      "olog": 1299,
      "Ġ199": 1300,
      "à¤ľà¤¨": 1301,
      "idge": 1302,
      "Ġà¤ĩà¤¨": 1303,
      "Ġà¤īà¤¨": 1304,
      "ians": 1305,
      "Ġspec": 1306,
      "à°°à°ľà°²": 1307,
      "ib": 1308,
      "ted": 1309,
      "ug": 1310,
      "à°¸à°¨": 1311,
      "Ġacc": 1312,
      "ork": 1313,
      "ice": 1314,
      "ĠSikh": 1315,
      "Ġà°ħà°µ": 1316,
      "ĠArab": 1317,
      "Ġland": 1318,
      "Ġ26": 1319,
      "ollow": 1320,
      "ĠPun": 1321,
      "Ġà°Ĺà°£": 1322,
      "Ġà¤ħà¤ªà¤¨": 1323,
      "rap": 1324,
      "ongress": 1325,
      "Ġareas": 1326,
      "lands": 1327,
      "ces": 1328,
      "jab": 1329,
      "rol": 1330,
      "Ġà°ªà°Ł": 1331,
      "Ġà°¸à°¹": 1332,
      "à°ľà°¨": 1333,
      "à°ľà°¯": 1334,
      "Ġpre": 1335,
      "ĠIndo": 1336,
      "Ġà°ħà°¤à°¨": 1337,
      "uries": 1338,
      "Ġà°Ĩà°«": 1339,
      "ivil": 1340,
      "Ġgen": 1341,
      "Ġthrough": 1342,
      "resent": 1343,
      "Ġcenturies": 1344,
      "Ġarch": 1345,
      "Ġincluding": 1346,
      "à¨ĩà¨Ĩ": 1347,
      "Ġà°ĵà°¡": 1348,
      "ultanate": 1349,
      "ĠPunjab": 1350,
      "la": 1351,
      "oth": 1352,
      "ants": 1353,
      "Ġà°ªà°¶": 1354,
      "à°Łà°®": 1355,
      "arm": 1356,
      "iter": 1357,
      "Ġ14": 1358,
      "Ġà°ħà°²": 1359,
      "ade": 1360,
      "Ġrem": 1361,
      "ĠCongress": 1362,
      "amp": 1363,
      "angu": 1364,
      "Ġincreas": 1365,
      "Ġago": 1366,
      "Ġprinc": 1367,
      "ually": 1368,
      "57": 1369,
      "led": 1370,
      "put": 1371,
      "uk": 1372,
      "Ġ'": 1373,
      "Ġj": 1374,
      "Ġtime": 1375,
      "à°¤à°ķ": 1376,
      "ind": 1377,
      "ond": 1378,
      "Ġout": 1379,
      "Ġocc": 1380,
      "Ġother": 1381,
      "Ġsl": 1382,
      "à©Ģ,": 1383,
      "Ġmi": 1384,
      "Ġmon": 1385,
      "à¤¸à¤ķ": 1386,
      "Ġdevel": 1387,
      "oun": 1388,
      "Ġà°¤à°¨": 1389,
      "à¨ķà¨¤": 1390,
      "Ġà°¸à°®à°¯": 1391,
      "anges": 1392,
      "ĠAfter": 1393,
      "Ġà¥§à¥¯à¥": 1394,
      "Ġmovement": 1395,
      "Ġestablished": 1396,
      "Ġdevelop": 1397,
      "200": 1398,
      "aus": 1399,
      "Ġen": 1400,
      "Ġed": 1401,
      "à°Ĩ": 1402,
      "à¥ī": 1403,
      "hes": 1404,
      "ank": 1405,
      "à°ķà°²": 1406,
      "Ġthem": 1407,
      "Ġam": 1408,
      "Ġfollow": 1409,
      "à©ĩà¨Ĥ": 1410,
      "urop": 1411,
      "Ġà°Ĩà°¦": 1412,
      "ĠCon": 1413,
      "Ġà°ĩà°¤à°°": 1414,
      "Ġà¤¬à¤¡": 1415,
      "gest": 1416,
      "ĠGand": 1417,
      "able": 1418,
      "ained": 1419,
      "Ġà¨ĩà¨¹": 1420,
      "à¤¼à¥Ģ": 1421,
      "ĠWar": 1422,
      "ages": 1423,
      "ially": 1424,
      "Ġtrans": 1425,
      "Ġà°İà°¨": 1426,
      "alled": 1427,
      "ged": 1428,
      "ran": 1429,
      "ures": 1430,
      "Äģ": 1431,
      "à°°à°²": 1432,
      "à°¨à°Ĺà°°": 1433,
      "Ġà¨ĸ": 1434,
      "ince": 1435,
      "à¥Ģ,": 1436,
      "Ġinf": 1437,
      "Ġsc": 1438,
      "Ġser": 1439,
      "à°ľà°ª": 1440,
      "ese": 1441,
      "Ġmany": 1442,
      "Ġà°¨à°Ĺà°°": 1443,
      "Ġà°Ĩà°Ĺ": 1444,
      "Ġà¤ħà¤°": 1445,
      "Ġà°²à°ķ": 1446,
      "ĠKingdom": 1447,
      "ett": 1448,
      "ĠWorld": 1449,
      "Ġà¥¨": 1450,
      "à¨ħà¨¦": 1451,
      "Ġculture": 1452,
      "iversity": 1453,
      "ĠThis": 1454,
      "ubl": 1455,
      "Ġspecies": 1456,
      "der": 1457,
      "Â°": 1458,
      "Ġà°·": 1459,
      "Ġà¤¡": 1460,
      "à°¨à°®": 1461,
      "à°ķà°°à°£": 1462,
      "Ġthey": 1463,
      "à¤°à¤£": 1464,
      "Ġà°ªà°¨": 1465,
      "Ġ10": 1466,
      "Ġà¤¸à¤°à¤ķ": 1467,
      "Ġmil": 1468,
      "à¤¸à¤®": 1469,
      "Ġà°ļà°ķ": 1470,
      "Ġà°¤à°®": 1471,
      "Ġloc": 1472,
      "Ġlangu": 1473,
      "iver": 1474,
      "Ġass": 1475,
      "emb": 1476,
      "oss": 1477,
      "Ġà¤²à¤Ĺ": 1478,
      "ments": 1479,
      "ĠVed": 1480,
      "à¨ĸà¨£": 1481,
      "Ġruled": 1482,
      "ĠChin": 1483,
      "Ġà¤¸à¤®à¤¯": 1484,
      "Ġpolitical": 1485,
      "Ġà¤§à¤°": 1486,
      "Ġà¨§à¨°à¨®": 1487,
      "ail": 1488,
      "ma": 1489,
      "Ġart": 1490,
      "Ġà¤ĺ": 1491,
      "ange": 1492,
      "à°¯à°ª": 1493,
      "ons": 1494,
      "à°µà°¨": 1495,
      "Ġocean": 1496,
      "à°®à°ķ": 1497,
      "Ġwell": 1498,
      "Ġcap": 1499,
      "ory": 1500,
      "iss": 1501,
      "ĠIndus": 1502,
      "ĠSh": 1503,
      "à°£à°²": 1504,
      "à¤²à¤¯": 1505,
      "Ġlong": 1506,
      "à¥Ī,": 1507,
      "old": 1508,
      "Ġnum": 1509,
      "Ġ198": 1510,
      "Ġ1950": 1511,
      "à¨¼à©Ģ": 1512,
      "ird": 1513,
      "rov": 1514,
      "irect": 1515,
      "upta": 1516,
      "Ġà¤ĩà¤¸à¤ķ": 1517,
      "Ġcontrol": 1518,
      "Ġknown": 1519,
      "BN": 1520,
      "SBN": 1521,
      "ach": 1522,
      "ban": 1523,
      "iet": 1524,
      "ihar": 1525,
      "ss": 1526,
      "west": 1527,
      "Ġà°§": 1528,
      "à±į-": 1529,
      "Ġà¨Ī": 1530,
      "à°¤à°²": 1531,
      "à°¦à°ķ": 1532,
      "à°ķà°¨": 1533,
      "à°¯à°¸": 1534,
      "ert": 1535,
      "ite": 1536,
      "Ġà°®à°°à°£": 1537,
      "Ġmain": 1538,
      "Ġà°ħà°°": 1539,
      "Ġà°ħà°¦": 1540,
      "Ġà°ħà°ķ": 1541,
      "Ġlast": 1542,
      "Ġà¨¸à¨¨": 1543,
      "à¤¹à¤°": 1544,
      "Ġsupp": 1545,
      "ically": 1546,
      "Ġprov": 1547,
      "Ġspread": 1548,
      "à¨ħà¨¤": 1549,
      "ominion": 1550,
      "Ġkingdoms": 1551,
      "cient": 1552,
      "ĠGandhi": 1553,
      "24": 1554,
      "78": 1555,
      "hy": 1556,
      "ration": 1557,
      "à¤Ľ": 1558,
      "Ġà¤ĸ": 1559,
      "Ġà¤Ľ": 1560,
      "à°°à°¯": 1561,
      "à°²à°®": 1562,
      "à©¦": 1563,
      "heast": 1564,
      "Ġthese": 1565,
      "à°µà°¸": 1566,
      "à°Łà°ķ": 1567,
      "à°ļà°°": 1568,
      "Ġac": 1569,
      "Ġà°ķà°³": 1570,
      "ĠISBN": 1571,
      "Ġcount": 1572,
      "Ġse": 1573,
      "à°ľà°§": 1574,
      "orm": 1575,
      "entral": 1576,
      "Ġdist": 1577,
      "ĠAt": 1578,
      "urban": 1579,
      "ile": 1580,
      "amb": 1581,
      "rav": 1582,
      "ĠEurop": 1583,
      "ross": 1584,
      "ĠDuring": 1585,
      "aves": 1586,
      "Ġà¤ĩà¤¤": 1587,
      "Ġinter": 1588,
      "Ġà¨¬à¨£": 1589,
      "Ġaround": 1590,
      "Ġ2011": 1591,
      "econd": 1592,
      "Ġà©§": 1593,
      "Ġreligious": 1594,
      "Ġà¨Īà¨¸": 1595,
      "Ġurban": 1596,
      "à¨«": 1597,
      "à¨ł": 1598,
      "à±į)": 1599,
      "à°²à°¸": 1600,
      "à±ĭ,": 1601,
      "ature": 1602,
      "Ġcivil": 1603,
      "Ġà°®à°¦": 1604,
      "à°§à°®à°¤": 1605,
      "Ġboth": 1606,
      "à¨¸à¨¨": 1607,
      "Ġemp": 1608,
      "Ġemer": 1609,
      "Ġhum": 1610,
      "ulf": 1611,
      "amm": 1612,
      "amil": 1613,
      "ived": 1614,
      "Ġonly": 1615,
      "Ġprodu": 1616,
      "Ġagain": 1617,
      "Ġlargest": 1618,
      "Ġleg": 1619,
      "Ġimport": 1620,
      "500": 1621,
      "fer": 1622,
      "iol": 1623,
      "ked": 1624,
      "oy": 1625,
      "à°²à°ª": 1626,
      "ann": 1627,
      "à°¦à°¨": 1628,
      "à°¯à°£": 1629,
      "ones": 1630,
      "à°¡à°Ĺ": 1631,
      "ally": 1632,
      "Ġact": 1633,
      "Ġsm": 1634,
      "Ġsign": 1635,
      "Ġsouthern": 1636,
      "à¤¯à¤¨": 1637,
      "à¤¯à¤ķ": 1638,
      "Ġ11": 1639,
      "esp": 1640,
      "Ġmid": 1641,
      "ould": 1642,
      "Ġled": 1643,
      "à°¹à°¨": 1644,
      "ĠBy": 1645,
      "Ġhigh": 1646,
      "Ġhistory": 1647,
      "though": 1648,
      "Ġnon": 1649,
      "ĠCentral": 1650,
      "everal": 1651,
      "à¤Ĺà¤°": 1652,
      "ley": 1653,
      "ĠHowever": 1654,
      "ayan": 1655,
      "Ġà¤Ĩà¤§": 1656,
      "Ġkm": 1657,
      "Ġatt": 1658,
      "Ġà°İà°ķ": 1659,
      "ograp": 1660,
      "26": 1661,
      "cy": 1662,
      "per": 1663,
      "ward": 1664,
      "á¹": 1665,
      "Ġ.": 1666,
      "à°¾.": 1667,
      "à±ģ)": 1668,
      "à°¡à°²": 1669,
      "arn": 1670,
      "itary": 1671,
      "Ġwestern": 1672,
      "ĠIs": 1673,
      "à°ľà°¯à°¨": 1674,
      "à¤¯à¤µ": 1675,
      "Ġpat": 1676,
      "ings": 1677,
      "ades": 1678,
      "Ġà°Ĩà°ķ": 1679,
      "ular": 1680,
      "Ġà°¬à°¹": 1681,
      "Ġno": 1682,
      "à¨¦à¨°": 1683,
      "ĠKas": 1684,
      "ains": 1685,
      "ccess": 1686,
      "ĠHind": 1687,
      "ĠMah": 1688,
      "Ġadm": 1689,
      "Ġadv": 1690,
      "ustral": 1691,
      "inister": 1692,
      "Ġindependence": 1693,
      "Ġà¤ªà¤¹à¤²": 1694,
      "à°ľà°¯à°¨à°Ĺà°°": 1695,
      "ij": 1696,
      "iev": 1697,
      "uch": 1698,
      "à¥¨": 1699,
      "à°µà°²": 1700,
      "à°Ĺà°®": 1701,
      "ately": 1702,
      "alf": 1703,
      "itect": 1704,
      "Ġcaus": 1705,
      "Ġà°®à°Ĺ": 1706,
      "Ġdirect": 1707,
      "Ġà¨¸à¨°": 1708,
      "Ġreac": 1709,
      "ĠMal": 1710,
      "ives": 1711,
      "Ġthree": 1712,
      "Ġbeing": 1713,
      "ĠRidge": 1714,
      "Ġà°¹à°°": 1715,
      "à¨ªà¨¤": 1716,
      "à¨Ĺà¨°": 1717,
      "Ġcentral": 1718,
      "Ġarm": 1719,
      "Ġregions": 1720,
      "Ġà¤ķà¤°à¤¨": 1721,
      "ĠMaury": 1722,
      "à°¨à°ªà°¦": 1723,
      "ĠMuslims": 1724,
      "ĠBuddhism": 1725,
      "Ġterrit": 1726,
      "oin": 1727,
      "pany": 1728,
      "ten": 1729,
      "à¤ĺ": 1730,
      "à¥ª": 1731,
      "à°¨à°°": 1732,
      "à°¯à°¡": 1733,
      "à¨¾à¥¤": 1734,
      "à°®à°²": 1735,
      "à°Łà°¨": 1736,
      "Ġwe": 1737,
      "Ġcalled": 1738,
      "Ġsur": 1739,
      "asc": 1740,
      "ash": 1741,
      "Ġme": 1742,
      "Ġà¤®à¤§": 1743,
      "à¤®à¤¨": 1744,
      "à¨¸à¨¦": 1745,
      "Ġliter": 1746,
      "Ġà¨¸à¨¥": 1747,
      "à¨¨à¨¤": 1748,
      "ively": 1749,
      "à¨¼à¨¾à¨Ĥ": 1750,
      "à°²à°¨à°²": 1751,
      "ung": 1752,
      "Ġsuccess": 1753,
      "Ġà¤īà¤ª": 1754,
      "ĠNorth": 1755,
      "ĠJain": 1756,
      "ife": 1757,
      "Ġà¨Ĩà¨°": 1758,
      "Ġà¨Ĩà¨ª": 1759,
      "Ġwhere": 1760,
      "Ġgeneral": 1761,
      "Ġarchitect": 1762,
      "Ġreached": 1763,
      "day": 1764,
      "krit": 1765,
      "lu": 1766,
      "ram": 1767,
      "à°Ĥ.": 1768,
      "à°ķà°¡": 1769,
      "à°®à°¦": 1770,
      "à±ĩ.": 1771,
      "à¤¿à¤Ĥ": 1772,
      "alley": 1773,
      "à°ļà°¨": 1774,
      "à°ľà°°": 1775,
      "orn": 1776,
      "à°§à°¨": 1777,
      "Ġbel": 1778,
      "ĠSultanate": 1779,
      "Ġde": 1780,
      "à¤²à¤¨": 1781,
      "ĠMad": 1782,
      "ĠPl": 1783,
      "imes": 1784,
      "à¨¼à¨¿": 1785,
      "ĠGulf": 1786,
      "Ġislands": 1787,
      "Ġconstitution": 1788,
      "à©Ī,": 1789,
      "Ġà¨ĩà¨¤": 1790,
      "Ġann": 1791,
      "à¤¼à¤¾": 1792,
      "Ġ30": 1793,
      "ĠJan": 1794,
      "Ġrulers": 1795,
      "outheast": 1796,
      "Ġà¨²à¨Ī": 1797,
      "ording": 1798,
      "Ġresp": 1799,
      "Ġ978": 1800,
      "Ġgrow": 1801,
      "hmir": 1802,
      "Ġeconomic": 1803,
      "Ġindependent": 1804,
      "ĠCompany": 1805,
      "Ġamong": 1806,
      "Ġsmall": 1807,
      "ĠKashmir": 1808,
      "15": 1809,
      "are": 1810,
      "bal": 1811,
      "eh": 1812,
      "ful": 1813,
      "mat": 1814,
      "ots": 1815,
      "ps": 1816,
      "uj": 1817,
      "ĠY": 1818,
      "à°¨à°Ł": 1819,
      "Ġtemp": 1820,
      "à°Łà°£": 1821,
      "Ġcame": 1822,
      "Ġsep": 1823,
      "Ġmade": 1824,
      "ĠSing": 1825,
      "ĠSum": 1826,
      "Ġà°ħà°ª": 1827,
      "Ġdes": 1828,
      "à°·à°²": 1829,
      "Ġhistor": 1830,
      "ild": 1831,
      "à¤ªà¤°": 1832,
      "Ġà¤ħà¤µ": 1833,
      "Ġrise": 1834,
      "Ġà¤¨à¤¹": 1835,
      "Ġgreat": 1836,
      "Ġà¨ªà¨¹": 1837,
      "Ġalong": 1838,
      "à°ĺà°¨": 1839,
      "ĠChol": 1840,
      "anskrit": 1841,
      "Ġà°®à°¹à°¬": 1842,
      "Ġ2014": 1843,
      "inces": 1844,
      "Ġearli": 1845,
      "Ġevent": 1846,
      "Ġeconomy": 1847,
      "Ġsocial": 1848,
      "ificant": 1849,
      "Ġprincely": 1850,
      "Ġinflu": 1851,
      "ublic": 1852,
      "ĠVedic": 1853,
      "Ġà©§à©": 1854,
      "Ġemerged": 1855,
      "Ġagainst": 1856,
      "Ġadminist": 1857,
      "Ġà°®à°Ĺà°§": 1858,
      "22": 1859,
      "ace": 1860,
      "fore": 1861,
      "han": 1862,
      "ni": 1863,
      "à¨¯": 1864,
      "à¨ī": 1865,
      "à¨Ľ": 1866,
      "Ġà¨ĺ": 1867,
      "inct": 1868,
      "à°¯à°°": 1869,
      "ative": 1870,
      "à°Łà°°": 1871,
      "à°Łà°²": 1872,
      "ital": 1873,
      "Ġsett": 1874,
      "Ġfore": 1875,
      "ĠSanskrit": 1876,
      "Ġdem": 1877,
      "Ġdomin": 1878,
      "ĠAm": 1879,
      "ĠAustral": 1880,
      "à°¹à°°": 1881,
      "Ġrev": 1882,
      "à°Ńà°µ": 1883,
      "Ġnational": 1884,
      "à¤Ĺà¤²": 1885,
      "Ġgre": 1886,
      "igin": 1887,
      "ember": 1888,
      "ĠDominion": 1889,
      "à¨Ĺà¨²": 1890,
      "osed": 1891,
      "agad": 1892,
      "ĠVij": 1893,
      "Ġà¨°à¨¹": 1894,
      "Ġà°Ĵà°ķà°Ł": 1895,
      "Ġprime": 1896,
      "Ġwhen": 1897,
      "Ġeastern": 1898,
      "Ġclass": 1899,
      "Ġbased": 1900,
      "ĠMarathas": 1901,
      "ĠArabian": 1902,
      "Ġmilitary": 1903,
      "Ġacross": 1904,
      "Ġimportant": 1905,
      "Ġsignificant": 1906,
      "ning": 1907,
      "ood": 1908,
      "te": 1909,
      "à°ŀ": 1910,
      "Ġà°ĺ": 1911,
      "à¥«": 1912,
      "à¨¾,": 1913,
      "ati": 1914,
      "athe": 1915,
      "Ġà¤ķà¤Ī": 1916,
      "Ġwest": 1917,
      "Ġseveral": 1918,
      "isl": 1919,
      "Ġminister": 1920,
      "à¤¸à¤°": 1921,
      "Ġà¤ªà¤¶": 1922,
      "à°Ńà°®": 1923,
      "Ġà¨µà¨²": 1924,
      "ĠPr": 1925,
      "aste": 1926,
      "Ġglo": 1927,
      "à¨®à¨°": 1928,
      "Ġviol": 1929,
      "ĠWestern": 1930,
      "Ġà¨¬à¨¹": 1931,
      "agara": 1932,
      "soon": 1933,
      "Ġ1946": 1934,
      "à¥Īà¤Ĥ,": 1935,
      "Ġà°İà°¦": 1936,
      "Ġ600": 1937,
      "Ġresult": 1938,
      "ĠRajput": 1939,
      "Ġabout": 1940,
      "Ġcolon": 1941,
      "Ġlanguage": 1942,
      "ĠChina": 1943,
      "ĠVijayan": 1944,
      "10": 1945,
      "30": 1946,
      "35": 1947,
      "eated": 1948,
      "lam": 1949,
      "ries": 1950,
      "tic": 1951,
      "wn": 1952,
      "Ġent": 1953,
      "à°°à°¨": 1954,
      "Ġà¨¯": 1955,
      "Ġtex": 1956,
      "à°¤à°µ": 1957,
      "hel": 1958,
      "ined": 1959,
      "à¤°à¤¯": 1960,
      "one": 1961,
      "ering": 1962,
      "ata": 1963,
      "à¤¤à¤¨": 1964,
      "ali": 1965,
      "arly": 1966,
      "Ġindu": 1967,
      "Ġwom": 1968,
      "Ġwork": 1969,
      "à¨°à¨£": 1970,
      "Ġmuch": 1971,
      "Ġdiv": 1972,
      "ĠAug": 1973,
      "ĠThey": 1974,
      "ility": 1975,
      "cept": 1976,
      "à¤ªà¤¤": 1977,
      "à¨²à¨¤": 1978,
      "ament": 1979,
      "imal": 1980,
      "Ġà¤ħà¤¤": 1981,
      "Ġà¤¨à¤¦": 1982,
      "Ġà°ĩà°µ": 1983,
      "ided": 1984,
      "Ġsty": 1985,
      "Ġà°Īà°¸": 1986,
      "Ġancient": 1987,
      "à¤¼à¥ĩ": 1988,
      "Ġ1948": 1989,
      "ought": 1990,
      "Ġdecl": 1991,
      "attle": 1992,
      "Ġparts": 1993,
      "ribut": 1994,
      "Ġincreased": 1995,
      "Ġslaves": 1996,
      "iety": 1997,
      "Ġsupport": 1998,
      "Ġlegisl": 1999,
      "ĠSingh": 2000,
      "ĠAugust": 2001,
      "72": 2002,
      "aid": 2003,
      "cent": 2004,
      "dle": 2005,
      "hw": 2006,
      "Ġqu": 2007,
      "Ġà°Ĳ": 2008,
      "à°µà°ļ": 2009,
      "Ġà°ªà°¤à°¨": 2010,
      "ats": 2011,
      "à°ªà°²": 2012,
      "Ġà°¸à°Ń": 2013,
      "Ġà°µà°¦": 2014,
      "its": 2015,
      "Ġwar": 2016,
      "Ġwid": 2017,
      "Ġcaste": 2018,
      "Ġsch": 2019,
      "Ġsince": 2020,
      "Ġsecond": 2021,
      "ories": 2022,
      "à¤¯à¤°": 2023,
      "Ġà¤¸à¤¹": 2024,
      "ĠIndones": 2025,
      "à°¶à°ª": 2026,
      "ict": 2027,
      "ĠSoutheast": 2028,
      "Ġà°¨à°²": 2029,
      "Ġtook": 2030,
      "ĠAct": 2031,
      "Ġlik": 2032,
      "Ġlife": 2033,
      "Ġhim": 2034,
      "Ġhalf": 2035,
      "Ġà°Ĩà°²": 2036,
      "Ġà°¬à°²": 2037,
      "ĠPart": 2038,
      "ĠProv": 2039,
      "à°¥à°²": 2040,
      "Ġà¤ħà¤®": 2041,
      "Ġà¤¬à¤¢": 2042,
      "ĠGanges": 2043,
      "ĠGupta": 2044,
      "à©ģà©°": 2045,
      "Ġstr": 2046,
      "Ġà¤īà¤¸": 2047,
      "Ġà¤Ĺà¤£": 2048,
      "Ġvar": 2049,
      "Ġà¤¶à¤¤": 2050,
      "Ġorigin": 2051,
      "ified": 2052,
      "Ġà¤ıà¤¶": 2053,
      "à¨Łà¨°": 2054,
      "Ġpartition": 2055,
      "Ġendem": 2056,
      "Ġestim": 2057,
      "Ġcultural": 2058,
      "Ġelection": 2059,
      "ĠUnited": 2060,
      "ĠAlthough": 2061,
      "Ġcommun": 2062,
      "Ġ1951": 2063,
      "ĠEuropean": 2064,
      "Ġà¨Ĩà¨ªà¨£": 2065,
      "athemat": 2066,
      "Ġglobal": 2067,
      "ĠVijayanagara": 2068,
      "can": 2069,
      "cial": 2070,
      "ob": 2071,
      "uary": 2072,
      "xim": 2073,
      "Ġer": 2074,
      "à¨ĺ": 2075,
      "à°Ĥ:": 2076,
      "à±ģ:": 2077,
      "hen": 2078,
      "à°ķà°Ł": 2079,
      "à¥ĩ,": 2080,
      "ery": 2081,
      "eror": 2082,
      "à°µà°µ": 2083,
      "à°µà°¡": 2084,
      "à°¡à°¯": 2085,
      "à°ªà°ķ": 2086,
      "ale": 2087,
      "à±Ģà°Ĥ": 2088,
      "Ġwrit": 2089,
      "Ġwould": 2090,
      "ĠII": 2091,
      "ĠIts": 2092,
      "Ġcre": 2093,
      "Ġcour": 2094,
      "Ġso": 2095,
      "orts": 2096,
      "Ġmed": 2097,
      "Ġà°°à°ķ": 2098,
      "ently": 2099,
      "à°·à°£": 2100,
      "ĠAcc": 2101,
      "ĠThere": 2102,
      "ĠMagad": 2103,
      "à°Ńà°ľ": 2104,
      "ole": 2105,
      "olved": 2106,
      "Ġ190": 2107,
      "ĠPers": 2108,
      "à¨¼à©ģ": 2109,
      "à¨Ĩà¨°": 2110,
      "Ġà¨ħà¨°": 2111,
      "rop": 2112,
      "Ġà¨ķà¨Ī": 2113,
      "Ġà¨¨à¨¹": 2114,
      "Ġwhile": 2115,
      "ĠNational": 2116,
      "Ġ1857": 2117,
      "Ġ500": 2118,
      "Ġtradition": 2119,
      "194": 2120,
      "Ġexpand": 2121,
      "ruct": 2122,
      "Ġrepresent": 2123,
      "Ġinvas": 2124,
      "ĠMaratha": 2125,
      "Ġoccup": 2126,
      "Ġhuman": 2127,
      "Ġpatron": 2128,
      "Ġarchitecture": 2129,
      "Ġwomen": 2130,
      "ĠMagadha": 2131,
      "\".": 2132,
      "21": 2133,
      "58": 2134,
      "99": 2135,
      "ai": 2136,
      "com": 2137,
      "ey": 2138,
      "ford": 2139,
      "ks": 2140,
      "mon": 2141,
      "Ġz": 2142,
      "ĠâĢĶ": 2143,
      "à°ĩ": 2144,
      "à¥Ń": 2145,
      "à°°à°¹": 2146,
      "à°Ĥ)": 2147,
      "à°ķà°®": 2148,
      "Ġthen": 2149,
      "à°¸à°Ń": 2150,
      "à¤¤à¤®": 2151,
      "aluk": 2152,
      "eded": 2153,
      "Ġà°¸à°²": 2154,
      "Ġcr": 2155,
      "ising": 2156,
      "à¤ķà¤¸": 2157,
      "Ġbord": 2158,
      "Ġfl": 2159,
      "Ġà¤¸à¤ķ": 2160,
      "Ġà¤¸à¤¦": 2161,
      "Ġmig": 2162,
      "Ġmathemat": 2163,
      "Ġà¤ªà¤¡": 2164,
      "Ġdif": 2165,
      "ech": 2166,
      "Ġà¤¹à¤¥": 2167,
      "à¨¸à¨ķ": 2168,
      "à¤µà¤¨": 2169,
      "Ġem": 2170,
      "Ġeff": 2171,
      "ĠBattle": 2172,
      "à¥ĩà¤Ĥ,": 2173,
      "à¨ķà¨¸": 2174,
      "ects": 2175,
      "Ġà¤ħà¤²": 2176,
      "Ġà¤ħà¤Ń": 2177,
      "Ġà¤ľà¤²": 2178,
      "Ġà°ĩà°ķ": 2179,
      "à¤¶à¤ķ": 2180,
      "ĠHe": 2181,
      "ident": 2182,
      "Ġà¨ħà¨ľ": 2183,
      "ract": 2184,
      "ĠDec": 2185,
      "ays": 2186,
      "ĠWest": 2187,
      "ĠJun": 2188,
      "Ġruler": 2189,
      "ĠAss": 2190,
      "Ġà°īà°ªà°¯": 2191,
      "Ġlarg": 2192,
      "Ġadd": 2193,
      "ĠHinduism": 2194,
      "eath": 2195,
      "ensus": 2196,
      "ĠAll": 2197,
      "Ġ1971": 2198,
      "Ġsociety": 2199,
      "ugu": 2200,
      "Ġfollowing": 2201,
      "Ġnumber": 2202,
      "Ġà¨Īà¨¸à¨µ": 2203,
      "ĠHindus": 2204,
      "Ġcaused": 2205,
      "ehru": 2206,
      "Ġsepar": 2207,
      "ĠChola": 2208,
      "Ġearliest": 2209,
      "Ġviolence": 2210,
      "Ġindust": 2211,
      "ĠAccording": 2212,
      "11": 2213,
      "14": 2214,
      "23": 2215,
      "33": 2216,
      "98": 2217,
      "gy": 2218,
      "ix": 2219,
      "iqu": 2220,
      "ook": 2221,
      "sc": 2222,
      "ves": 2223,
      "Ġesp": 2224,
      "à±į.": 2225,
      "à¥¬": 2226,
      "Ġà¤ĭ": 2227,
      "here": 2228,
      "ating": 2229,
      "à°ªà°¨": 2230,
      "enins": 2231,
      "arch": 2232,
      "Ġà°ķà°®": 2233,
      "Ġsec": 2234,
      "à¨°à¨Ł": 2235,
      "Ġpresent": 2236,
      "Ġbu": 2237,
      "Ġflow": 2238,
      "Ġmemb": 2239,
      "à±Ĥ,": 2240,
      "Ġdeath": 2241,
      "ĠTamil": 2242,
      "ecially": 2243,
      "urther": 2244,
      "ĠThese": 2245,
      "Ġne": 2246,
      "Ġnow": 2247,
      "ĠPort": 2248,
      "ĠIndians": 2249,
      "Ġrural": 2250,
      "Ġriver": 2251,
      "lear": 2252,
      "rag": 2253,
      "rahm": 2254,
      "ĠEn": 2255,
      "Ġà¨ªà¨°": 2256,
      "Ġbefore": 2257,
      "Ġà¤¤à¤Ł": 2258,
      "abad": 2259,
      "ably": 2260,
      "ĠOn": 2261,
      "Ġexc": 2262,
      "ĠNehru": 2263,
      "Ġà¤Ĺà¤Ī": 2264,
      "ript": 2265,
      "Ġà¨®à¨¹": 2266,
      "Ġarea": 2267,
      "ĠChaluk": 2268,
      "ricult": 2269,
      "ights": 2270,
      "Ġagricult": 2271,
      "eace": 2272,
      "Ġexpans": 2273,
      "Ġinclude": 2274,
      "Ġaff": 2275,
      "Ġgrou": 2276,
      "Ġformed": 2277,
      "ĠUniversity": 2278,
      "Ġà°Łà°°": 2279,
      "ĠAng": 2280,
      "ĠBuddhist": 2281,
      "Ġused": 2282,
      "Ġà¤ķà¤¹à¤¤": 2283,
      "Ġappro": 2284,
      "Ġà¤īà¤¨à¤ķ": 2285,
      "Ġremained": 2286,
      "Ġdeveloped": 2287,
      "Ġeduc": 2288,
      "anka": 2289,
      "Ġcapital": 2290,
      "Ġcountry": 2291,
      "Ġdistinct": 2292,
      "ĠJainism": 2293,
      "ĠJanuary": 2294,
      "Ġestimated": 2295,
      "ĠPersian": 2296,
      "Ġmembers": 2297,
      ");": 2298,
      "16": 2299,
      "65": 2300,
      "af": 2301,
      "gin": 2302,
      "lar": 2303,
      "lant": 2304,
      "ool": 2305,
      "sh": 2306,
      "uge": 2307,
      "xford": 2308,
      "¯à©": 2309,
      "à°İ": 2310,
      "à¤ĥ": 2311,
      "à¨Ŀ": 2312,
      "Ġà¤Ł": 2313,
      "ani": 2314,
      "ines": 2315,
      "à°¯à°§": 2316,
      "à¤°à¤¥": 2317,
      "à°µà°Ĺ": 2318,
      "à°µà°¹": 2319,
      "à°Ĺà°¤": 2320,
      "à°Ĺà°£": 2321,
      "à°¸à°®": 2322,
      "à°ªà°¬à°¡": 2323,
      "à¤¤à¤ķ": 2324,
      "Ġà°µà°¹": 2325,
      "à¤¨à¤®": 2326,
      "Ġwarm": 2327,
      "Ġcensus": 2328,
      "oral": 2329,
      "Ġpeace": 2330,
      "Ġfed": 2331,
      "à¨¤à¨µ": 2332,
      "à°¶à°®": 2333,
      "Ġmer": 2334,
      "Ġà°°à°µ": 2335,
      "omet": 2336,
      "Ġà°¨à°¡": 2337,
      "Ġà°ħà°¸": 2338,
      "ention": 2339,
      "Ġdra": 2340,
      "urn": 2341,
      "uru": 2342,
      "ĠBihar": 2343,
      "ĠModern": 2344,
      "Ġ21": 2345,
      "Ġà°ľà°¯": 2346,
      "ĠPac": 2347,
      "ĠPress": 2348,
      "isted": 2349,
      "Ġrate": 2350,
      "utch": 2351,
      "ĠHy": 2352,
      "ĠGuj": 2353,
      "à¤Łà¤¨": 2354,
      "ĠRed": 2355,
      "ĠRiver": 2356,
      "à°µà°°à°ķ": 2357,
      "Ġconn": 2358,
      "Ġconqu": 2359,
      "Ġwithin": 2360,
      "à¤¬à¤°": 2361,
      "ayed": 2362,
      "aka": 2363,
      "Ġà¤Ĩà¤¦": 2364,
      "ishn": 2365,
      "à°°à°ķà°Ł": 2366,
      "ended": 2367,
      "ured": 2368,
      "ĠValley": 2369,
      "hip": 2370,
      "à¨¬à¨¦": 2371,
      "ĠAsian": 2372,
      "ĠFrom": 2373,
      "Ġcontin": 2374,
      "Ġ40": 2375,
      "Ġpartic": 2376,
      "Ġmillen": 2377,
      "Ġcompany": 2378,
      "ĠAfrican": 2379,
      "Ġà°ªà°¦à°µ": 2380,
      "à¤ĩà¤Ł": 2381,
      "Ġoffic": 2382,
      "Ġprev": 2383,
      "Ġlocal": 2384,
      "Ġdesc": 2385,
      "Ġà¤Ĺà¤£à¤°": 2386,
      "Ġeducation": 2387,
      "ĠPacific": 2388,
      "\",": 2389,
      "13": 2390,
      "46": 2391,
      "56": 2392,
      "70": 2393,
      "Ind": 2394,
      "eb": 2395,
      "eolog": 2396,
      "ges": 2397,
      "tt": 2398,
      "uth": 2399,
      "western": 2400,
      "yso": 2401,
      "à°ħ": 2402,
      "à°²à°Ĺ": 2403,
      "Ġà¨ı": 2404,
      "Ġtimes": 2405,
      "à°¯à°¯": 2406,
      "à°¯à°ķà°¤": 2407,
      "à¤°à¤¶": 2408,
      "à±ĭà°Ĥ": 2409,
      "à°¡à°°": 2410,
      "rent": 2411,
      "à¤¤à¤¤": 2412,
      "alth": 2413,
      "ened": 2414,
      "Ġà¤ķà¤°à¤¤": 2415,
      "Ġoften": 2416,
      "ari": 2417,
      "Ġinst": 2418,
      "iti": 2419,
      "itt": 2420,
      "Ġcov": 2421,
      "Ġsame": 2422,
      "nder": 2423,
      "Ġprom": 2424,
      "Ġbl": 2425,
      "Ġfam": 2426,
      "Ġfew": 2427,
      "Ġfive": 2428,
      "Ġfact": 2429,
      "Ġman": 2430,
      "Ġmamm": 2431,
      "ick": 2432,
      "ĠSri": 2433,
      "ĠSha": 2434,
      "ĠSouthern": 2435,
      "Ġà°¨à°µ": 2436,
      "elf": 2437,
      "ĠAnd": 2438,
      "Ġlevel": 2439,
      "urrent": 2440,
      "ĠBay": 2441,
      "Ġhy": 2442,
      "Ġ25": 2443,
      "ula": 2444,
      "Ġà°¦à°³": 2445,
      "aman": 2446,
      "ĠPat": 2447,
      "à¨¼à©ĩ": 2448,
      "ists": 2449,
      "istic": 2450,
      "à¤¶à¤¨": 2451,
      "Ġà¨ħà¨§": 2452,
      "Ġà°²à°Ń": 2453,
      "una": 2454,
      "ĠGovernment": 2455,
      "à°ĸà°°": 2456,
      "à°¤à°°à°£": 2457,
      "à¤Ńà¤Ĺ": 2458,
      "Ġà¤ĩà¤²": 2459,
      "aya": 2460,
      "aking": 2461,
      "Ġà¨ľà¨¨": 2462,
      "Ġà¤īà¤¦": 2463,
      "duced": 2464,
      "acy": 2465,
      "à°°à°®à°£": 2466,
      "hib": 2467,
      "Ġcommer": 2468,
      "Ġarr": 2469,
      "Ġà¨Ĺà¨Ī": 2470,
      "Ġà¤ıà¤µ": 2471,
      "Ġà¤ļà¤²": 2472,
      "Ġà°ıà°ķ": 2473,
      "Ġ50": 2474,
      "Ġplate": 2475,
      "Ġplace": 2476,
      "Ġbecome": 2477,
      "Ġmarri": 2478,
      "Ġincluded": 2479,
      "Ġà°°à°ļà°¯": 2480,
      "Ġdisc": 2481,
      "Ġ1200": 2482,
      "ĠStates": 2483,
      "Ġconsid": 2484,
      "Ġcoll": 2485,
      "Ġdefeated": 2486,
      "uclear": 2487,
      "ĠSikhs": 2488,
      "Ġfollowed": 2489,
      "ission": 2490,
      "Ġà°§à°°": 2491,
      "arnat": 2492,
      "à¤¯à¤µà¤¸": 2493,
      "adesh": 2494,
      "Ġarmy": 2495,
      "Ġgrowth": 2496,
      "Ġadministration": 2497,
      "nium": 2498,
      "ximately": 2499,
      "ĠDeccan": 2500,
      "uguese": 2501,
      "Ġespecially": 2502,
      "ĠPortuguese": 2503,
      "Ġapproximately": 2504,
      "ĠHyder": 2505,
      "ĠGujarat": 2506,
      "Ġcontinu": 2507,
      "ysore": 2508,
      "Ġmammals": 2509,
      "12": 2510,
      "36": 2511,
      "40": 2512,
      "55": 2513,
      "90": 2514,
      "aá¹": 2515,
      "ke": 2516,
      "ped": 2517,
      "rown": 2518,
      "ridge": 2519,
      "ti": 2520,
      "ys": 2521,
      "à¥©": 2522,
      "à¥§à¥": 2523,
      "Ġà¤Ĭ": 2524,
      "Ġà¤ĵ": 2525,
      "à±ģ-": 2526,
      "à°¨à°¨": 2527,
      "à°¨à°¤": 2528,
      "à°¨à°¡": 2529,
      "Ġtech": 2530,
      "à°¤à°Ł": 2531,
      "anch": 2532,
      "à¤°à¤§": 2533,
      "à¤°à¤Ń": 2534,
      "eration": 2535,
      "à°µà°ķ": 2536,
      "Ġold": 2537,
      "Ġopp": 2538,
      "à°¸à°²": 2539,
      "ather": 2540,
      "à°ªà°¦": 2541,
      "Ġà°µà°²à°¸": 2542,
      "ites": 2543,
      "itle": 2544,
      "à¤¨à¤¨": 2545,
      "Ġcan": 2546,
      "Ġcities": 2547,
      "Ġà°®à°²": 2548,
      "Ġsim": 2549,
      "Ġsea": 2550,
      "Ġsultanate": 2551,
      "Ġsix": 2552,
      "à¤¯à¤®": 2553,
      "à¨°à¨¨": 2554,
      "Ġbro": 2555,
      "Ġfig": 2556,
      "Ġfurther": 2557,
      "Ġmin": 2558,
      "Ġà°°à°¹à°¦": 2559,
      "à¤¸à¤¦": 2560,
      "Ġà°ħà°¶": 2561,
      "Ġdance": 2562,
      "ĠTemp": 2563,
      "Ġà°¤à°¦": 2564,
      "ĠAg": 2565,
      "Ġlat": 2566,
      "à°¹à°ķ": 2567,
      "ĠBh": 2568,
      "Ġreb": 2569,
      "à°Ńà°ķ": 2570,
      "Ġ28": 2571,
      "Ġ2000": 2572,
      "olid": 2573,
      "ĠCo": 2574,
      "à¤·à¤£": 2575,
      "Ġà¤ħà¤¸": 2576,
      "Ġà¤ħà¤ª": 2577,
      "Ġà°ĩà°¸": 2578,
      "irth": 2579,
      "ĠHar": 2580,
      "ĠHimal": 2581,
      "Ġà¨ħà¨¸": 2582,
      "ĠEarly": 2583,
      "à¨®à¨¹": 2584,
      "Ġà¤¦à¤°": 2585,
      "Ġà¤¦à¤¶à¤ķ": 2586,
      "ernal": 2587,
      "abh": 2588,
      "abit": 2589,
      "ĠKal": 2590,
      "ĠKam": 2591,
      "Ġwhose": 2592,
      "Ġà¤Ĩà¤¯": 2593,
      "à¨Ĺà¨µ": 2594,
      "Ġà¤Ĺà¤ı": 2595,
      "Ġvol": 2596,
      "Ġà¤¶à¤ķ": 2597,
      "ague": 2598,
      "aps": 2599,
      "ĠLe": 2600,
      "à°¤à°¨à°¤": 2601,
      "Ġprot": 2602,
      "Ġà¨Ĺà¨£": 2603,
      "Ġ55": 2604,
      "eft": 2605,
      "limate": 2606,
      "Ġmarked": 2607,
      "Ġregional": 2608,
      "Ġdynasties": 2609,
      "Ġcomposed": 2610,
      "Ġà°ĸà°®": 2611,
      "liament": 2612,
      "Ġà¨ĩà¨¸à¨¦": 2613,
      "Ġ1965": 2614,
      "ĠUnion": 2615,
      "Ġà°«à°²": 2616,
      "Ġfounded": 2617,
      "Ġmajority": 2618,
      "Ġà¨ķà¨°à¨¨": 2619,
      "Ġdefeat": 2620,
      "Ġparliament": 2621,
      "Ġrecord": 2622,
      "ĠArch": 2623,
      "Ġoccur": 2624,
      "Ġdevelopment": 2625,
      "à°Ĩà°§": 2626,
      "Ġserved": 2627,
      "Ġà¤²à¤Ĺà¤Ńà¤Ĺ": 2628,
      "Ġà¨¸à¨°à¨ķ": 2629,
      "ĠMaurya": 2630,
      "asht": 2631,
      "ĠAustralia": 2632,
      "Ġgrew": 2633,
      "Ġstyle": 2634,
      "ĠProvinces": 2635,
      "Ġendemic": 2636,
      "Ġera": 2637,
      "Ġexpanded": 2638,
      "Ġinvasions": 2639,
      "ĠAnglo": 2640,
      "lantic": 2641,
      "à¤°à¤¥à¤®": 2642,
      "Ġfederal": 2643,
      "Ġmillennium": 2644,
      "ĠHyderabad": 2645,
      "ared": 2646,
      "con": 2647,
      "ched": 2648,
      "port": 2649,
      "work": 2650,
      "yas": 2651,
      "ĠÂ°": 2652,
      "à°¨à°ķ": 2653,
      "à°¦à°¤": 2654,
      "à°¦à°ª": 2655,
      "à°Ĺà°¨": 2656,
      "à°Ĺà°Ń": 2657,
      "à°¡à°®": 2658,
      "à°®à°ª": 2659,
      "à°Łà°¡": 2660,
      "arb": 2661,
      "itions": 2662,
      "Ġaver": 2663,
      "Ġauth": 2664,
      "Ġson": 2665,
      "Ġsaw": 2666,
      "ority": 2667,
      "à¤¯à¤ª": 2668,
      "à¨°à¨¦": 2669,
      "à¨°à¨ľ": 2670,
      "Ġ100": 2671,
      "Ġpass": 2672,
      "Ġbill": 2673,
      "Ġbird": 2674,
      "Ġfin": 2675,
      "Ġà¤¸à¤°à¤¸": 2676,
      "Ġmus": 2677,
      "à°£à°¯": 2678,
      "Ġdied": 2679,
      "à¤®à¤ķ": 2680,
      "à¤²à¤¤": 2681,
      "ĠAd": 2682,
      "à¤µà¤ª": 2683,
      "Ġlow": 2684,
      "Ġleft": 2685,
      "Ġequ": 2686,
      "Ġeach": 2687,
      "ĠBrahm": 2688,
      "Ġhowever": 2689,
      "Ġhots": 2690,
      "Ġà¨¸à¨¦": 2691,
      "Ġà¨¸à¨¹": 2692,
      "ada": 2693,
      "Ġnear": 2694,
      "Ġ1920": 2695,
      "ĠPol": 2696,
      "Ġrout": 2697,
      "Ġà¤ľà¤¬": 2698,
      "Ġthird": 2699,
      "ĠGovern": 2700,
      "Ġà¨ķà¨¸": 2701,
      "Ġà¤°à¤ĸ": 2702,
      "Ġà¤¤à¤ª": 2703,
      "Ġstat": 2704,
      "ĠOxford": 2705,
      "à¨Ĺà¨°à¨¸": 2706,
      "Ġà¤īà¤°": 2707,
      "Ġ36": 2708,
      "Ġcentre": 2709,
      "agasc": 2710,
      "other": 2711,
      "à°°à°¸à°¤": 2712,
      "upt": 2713,
      "ock": 2714,
      "Ġà¨īà¨¸": 2715,
      "ĠChand": 2716,
      "à°°à°ªà°¤": 2717,
      "ĠUnder": 2718,
      "ouse": 2719,
      "Ġ60": 2720,
      "ĠAfgh": 2721,
      "Ġà¨²à¨Ĺ": 2722,
      "ĠFor": 2723,
      "Ġcontribut": 2724,
      "Ġplants": 2725,
      "sequ": 2726,
      "Ġ2013": 2727,
      "Ġexport": 2728,
      "Ġgrad": 2729,
      "stitut": 2730,
      "à°°à°µà°¹": 2731,
      "arsha": 2732,
      "Ġconsolid": 2733,
      "Ġcoastal": 2734,
      "Ġshow": 2735,
      "Ġleaders": 2736,
      "Ġà°Ĺà°£à°¤": 2737,
      "Ġmonsoon": 2738,
      "ĠConstitution": 2739,
      "ĠShung": 2740,
      "Ġcountries": 2741,
      "Ġcivilisation": 2742,
      "Ġemperor": 2743,
      "Ġproduced": 2744,
      "Ġmiddle": 2745,
      "ograph": 2746,
      "wards": 2747,
      "ĠIslam": 2748,
      "ieval": 2749,
      "Ġliterature": 2750,
      "ĠMadagasc": 2751,
      "ĠPlate": 2752,
      "Ġà¤ħà¤µà¤¶": 2753,
      "Ġnationalist": 2754,
      "Ġclassical": 2755,
      "Ġcolonial": 2756,
      "ĠPartition": 2757,
      "Ġstrong": 2758,
      "Ġemb": 2759,
      "Ġexpansion": 2760,
      "ĠAndaman": 2761,
      "Ġaverage": 2762,
      "Ġhotsp": 2763,
      "ĠMadagascar": 2764,
      "..": 2765,
      "ax": 2766,
      "eep": 2767,
      "gl": 2768,
      "lus": 2769,
      "man": 2770,
      "mary": 2771,
      "pur": 2772,
      "pass": 2773,
      "ring": 2774,
      "ues": 2775,
      "way": 2776,
      "Ġ$": 2777,
      "Ġ,": 2778,
      "Ġ0": 2779,
      "ĠZ": 2780,
      "Ġà¥¤": 2781,
      "à°Ľ": 2782,
      "à°¿)": 2783,
      "à°°à°¶": 2784,
      "à°°à°³": 2785,
      "à°°à°¯à°¤": 2786,
      "Ġà¨¡": 2787,
      "erc": 2788,
      "eri": 2789,
      "à°ªà°°à°®": 2790,
      "à¤¤à¤µ": 2791,
      "ality": 2792,
      "eneral": 2793,
      "enced": 2794,
      "Ġà¤ķà¤®": 2795,
      "Ġà°µà°²": 2796,
      "Ġà°µà°¸": 2797,
      "Ġage": 2798,
      "Ġamp": 2799,
      "Ġchar": 2800,
      "Ġà°®à°¸": 2801,
      "Ġsq": 2802,
      "Ġsha": 2803,
      "à°ľà°¯à°µ": 2804,
      "à°ľà°¨à°ªà°¦": 2805,
      "ision": 2806,
      "Ġpo": 2807,
      "Ġport": 2808,
      "Ġpred": 2809,
      "à°§à°ķ": 2810,
      "Ġback": 2811,
      "Ġfar": 2812,
      "Ġfis": 2813,
      "Ġfres": 2814,
      "Ġfour": 2815,
      "Ġfamil": 2816,
      "omb": 2817,
      "omy": 2818,
      "ĠSang": 2819,
      "à°£à°ķ": 2820,
      "Ġdo": 2821,
      "Ġdel": 2822,
      "Ġdev": 2823,
      "Ġdue": 2824,
      "ĠTim": 2825,
      "ecut": 2826,
      "Ġà°¤à°²": 2827,
      "Ġlab": 2828,
      "Ġloss": 2829,
      "à¤¦à¤²": 2830,
      "Ġret": 2831,
      "Ġrept": 2832,
      "Ġreign": 2833,
      "ĠMed": 2834,
      "ĠMount": 2835,
      "Ġ24": 2836,
      "Ġ29": 2837,
      "iles": 2838,
      "Ġà¨µà¨§": 2839,
      "Ġà°ľà°¨à°ªà°¦": 2840,
      "ĠPal": 2841,
      "ival": 2842,
      "iving": 2843,
      "Ġà°Ĺà°¦": 2844,
      "Ġà¤¨à¤µ": 2845,
      "Ġà¤ľà¤¹": 2846,
      "Ġge": 2847,
      "Ġthreat": 2848,
      "ira": 2849,
      "irc": 2850,
      "à°²à°¨à°¨": 2851,
      "Ġà¨ħà¨¨": 2852,
      "à¤§à¤¨": 2853,
      "ĠGree": 2854,
      "Ġisland": 2855,
      "ĠDutch": 2856,
      "ĠRasht": 2857,
      "Ġformer": 2858,
      "Ġà°¹à°¨": 2859,
      "Ġsug": 2860,
      "ava": 2861,
      "ake": 2862,
      "Ġexecut": 2863,
      "Ġà¤Ĩà¤Ĺ": 2864,
      "Ġà¤Ĩà¤ľ": 2865,
      "Ġany": 2866,
      "aja": 2867,
      "rial": 2868,
      "duct": 2869,
      "app": 2870,
      "apad": 2871,
      "ept": 2872,
      "hief": 2873,
      "soci": 2874,
      "à¨ĸà¨°": 2875,
      "ĠLanka": 2876,
      "Ġà°İà°²": 2877,
      "Ġproc": 2878,
      "earch": 2879,
      "Ġà¨īà¨ª": 2880,
      "ĠUS": 2881,
      "Ġplayed": 2882,
      "Ġ400": 2883,
      "ellion": 2884,
      "Ġdecla": 2885,
      "oka": 2886,
      "Ġpeak": 2887,
      "Ġchanges": 2888,
      "iverse": 2889,
      "Ġà°°à°ļà°¨à°²": 2890,
      "ĠState": 2891,
      "Ġestablish": 2892,
      "rench": 2893,
      "Ġà¤ľà¤¨à¤ľ": 2894,
      "à¥¦à¥¦à¥¦": 2895,
      "Ġleading": 2896,
      "Ġreform": 2897,
      "Ġincreasing": 2898,
      "inds": 2899,
      "à°Ĩà°°": 2900,
      "à¥īà¤Ĥ": 2901,
      "Ġtransfer": 2902,
      "Ġà¤ħà¤°à¤¬": 2903,
      "Ġlocated": 2904,
      "Ġlanguages": 2905,
      "embly": 2906,
      "ĠChinese": 2907,
      "Ġ1980": 2908,
      "Ġà°ħà°°à°¬": 2909,
      "Ġseas": 2910,
      "ĠAtlantic": 2911,
      "oyal": 2912,
      "Ġdirectly": 2913,
      "ĠMauryan": 2914,
      "Ġterritories": 2915,
      "fully": 2916,
      "Ġeventually": 2917,
      "Ġà©§à©¯à©": 2918,
      "Ġforest": 2919,
      "ĠIndonesia": 2920,
      "Ġcreated": 2921,
      "Ġflour": 2922,
      "ĠJune": 2923,
      "eninsula": 2924,
      "largest": 2925,
      "Ġparticular": 2926,
      "ĠTemple": 2927,
      "ĠLeague": 2928,
      "Ġbillion": 2929,
      "ĠAfghan": 2930,
      "ĠShunga": 2931,
      "\")": 2932,
      "%.": 2933,
      "25": 2934,
      "27": 2935,
      "28": 2936,
      "Title": 2937,
      "cing": 2938,
      "hil": 2939,
      "hoka": 2940,
      "iers": 2941,
      "kut": 2942,
      "lit": 2943,
      "nolog": 2944,
      "phere": 2945,
      "ront": 2946,
      "Åļ": 2947,
      "à°¢": 2948,
      "à¥®": 2949,
      "à°¿;": 2950,
      "à°°à°ĸ": 2951,
      "à°¨à°¬à°¡": 2952,
      "à°¨à°®à°¤": 2953,
      "Ġà¨¥": 2954,
      "Ġà¨Ľ": 2955,
      "Ġtrib": 2956,
      "Ġtrav": 2957,
      "ances": 2958,
      "à¤°à¤µ": 2959,
      "à¤°à¤¹": 2960,
      "à¤°à¤²à¤¯": 2961,
      "erial": 2962,
      "à°µà°¯": 2963,
      "Ġà°ªà°¤": 2964,
      "ret": 2965,
      "à°®à°£": 2966,
      "à°®à°¹": 2967,
      "à°¸à°¨à°¸": 2968,
      "ator": 2969,
      "ales": 2970,
      "ening": 2971,
      "ark": 2972,
      "anda": 2973,
      "à¤¨à¤µ": 2974,
      "Ġway": 2975,
      "Ġà°ķà°¦": 2976,
      "Ġà°ķà°Ł": 2977,
      "Ġcar": 2978,
      "Ġcur": 2979,
      "Ġcity": 2980,
      "Ġcamp": 2981,
      "Ġclimate": 2982,
      "Ġshi": 2983,
      "à¨°à¨ķ": 2984,
      "Ġpow": 2985,
      "à°§à°¤": 2986,
      "Ġfeat": 2987,
      "Ġà¤¸à¤°": 2988,
      "à°¶à°ķ": 2989,
      "Ġmen": 2990,
      "Ġà°ħà°¡": 2991,
      "Ġà°ħà°®": 2992,
      "Ġà¤ªà¤¤": 2993,
      "Ġdid": 2994,
      "Ġdest": 2995,
      "Ġdepend": 2996,
      "Ġdiversity": 2997,
      "ouch": 2998,
      "à¤²à¤°": 2999,
      "ĠAk": 3000,
      "Ġless": 3001,
      "uriti": 3002,
      "Ġà¨¦à¨°": 3003,
      "aded": 3004,
      "ĠMany": 3005,
      "Ġ23": 3006,
      "ily": 3007,
      "ceeded": 3008,
      "Ġà°¦à°¶": 3009,
      "à¨²à¨¦": 3010,
      "Ġnuclear": 3011,
      "ĠPall": 3012,
      "iment": 3013,
      "à¤Ĺà¤¤": 3014,
      "Ġà°Ĺà°²": 3015,
      "Ġà¤ħà¤«": 3016,
      "à¤ľà¤ª": 3017,
      "Ġrole": 3018,
      "Ġà°ĩà°ļ": 3019,
      "Ġgovern": 3020,
      "Ġgave": 3021,
      "Ġthose": 3022,
      "à¨Ĩà¨¦": 3023,
      "ĠHistor": 3024,
      "ush": 3025,
      "à¨®à¨²": 3026,
      "Ġà¨ªà¨°à¨®": 3027,
      "ĠGa": 3028,
      "à¨¹à¨°": 3029,
      "à¤Łà¤ķ": 3030,
      "à°¤à°°à°ª": 3031,
      "ability": 3032,
      "avas": 3033,
      "Ġwhat": 3034,
      "aint": 3035,
      "Ġexamp": 3036,
      "Ġà¤Ĩà¤¨": 3037,
      "etwork": 3038,
      "Ġvery": 3039,
      "Ġà¤ªà¤°à¤®": 3040,
      "rip": 3041,
      "ume": 3042,
      "apan": 3043,
      "apid": 3044,
      "Ġà°¸à°®à°°": 3045,
      "Ġorgan": 3046,
      "ĠJapan": 3047,
      "illed": 3048,
      "ĠLater": 3049,
      "Ġ188": 3050,
      "Ġprob": 3051,
      "ĠAshoka": 3052,
      "à°°à°ªà°¡": 3053,
      "Ġà¨Ĩà¨¦": 3054,
      "Ġà¨Ĩà¨§": 3055,
      "harma": 3056,
      "à°ķà°¤à°ķ": 3057,
      "à¨ħà¨¨": 3058,
      "ĠMahar": 3059,
      "ĠMauriti": 3060,
      "istance": 3061,
      "Ġexpl": 3062,
      "Ġparty": 3063,
      "elling": 3064,
      "Ġ2009": 3065,
      "ĠEastern": 3066,
      "stitu": 3067,
      "Ġ80": 3068,
      "Ġabs": 3069,
      "Ġevolved": 3070,
      "Ġelected": 3071,
      "Ġreligion": 3072,
      "Ġbasin": 3073,
      "Ġuse": 3074,
      "Ġleader": 3075,
      "Ġ1991": 3076,
      "ounc": 3077,
      "onsib": 3078,
      "erty": 3079,
      "Ġdistric": 3080,
      "ĠEurope": 3081,
      "Ġproduct": 3082,
      "ography": 3083,
      "ĠIslands": 3084,
      "Ġterritory": 3085,
      "Ġà¨Ĩà¨°à¨¥": 3086,
      "Ġresponsib": 3087,
      "ĠSummary": 3088,
      "Ġinfluence": 3089,
      "à¨Ľà¨®": 3090,
      "Ġsettle": 3091,
      "Ġresulting": 3092,
      "Ġdecline": 3093,
      "hwater": 3094,
      "Ġlike": 3095,
      "Ġelections": 3096,
      "Ġwritten": 3097,
      "Ġcourt": 3098,
      "Ġmedieval": 3099,
      "ropical": 3100,
      "Ġdiffer": 3101,
      "Ġlargely": 3102,
      "ique": 3103,
      "Ġwarming": 3104,
      "Ġdescrib": 3105,
      "Ġcontinued": 3106,
      "aá¹ĩ": 3107,
      "Ġà¤ĵà¤°": 3108,
      "Ġsimil": 3109,
      "Ġà¨Ĺà¨£à¨°": 3110,
      "Ġmusic": 3111,
      "Ġamphib": 3112,
      "Ġfreshwater": 3113,
      "ĠSangam": 3114,
      "Ġreptiles": 3115,
      "Ġsuggest": 3116,
      "Ġflourished": 3117,
      "Ġpowers": 3118,
      "ĠMauritius": 3119,
      "%,": 3120,
      ".\"": 3121,
      "48": 3122,
      "49": 3123,
      "60": 3124,
      "aign": 3125,
      "aren": 3126,
      "batt": 3127,
      "cceeded": 3128,
      "gins": 3129,
      "ient": 3130,
      "lig": 3131,
      "oh": 3132,
      "ober": 3133,
      "ump": 3134,
      "yed": 3135,
      "Ġ)": 3136,
      "Ġec": 3137,
      "ĠÅļ": 3138,
      "à°Ĥ\"": 3139,
      "à©¨": 3140,
      "à¤¾-": 3141,
      "à°ķà°²à°²": 3142,
      "à¤°à¤ļ": 3143,
      "à°µà°¬à°¡": 3144,
      "Ġob": 3145,
      "Ġop": 3146,
      "Ġown": 3147,
      "reg": 3148,
      "rem": 3149,
      "à°®à°¸": 3150,
      "à¤¤à¤¸": 3151,
      "arup": 3152,
      "à°ļà°²": 3153,
      "ands": 3154,
      "Ġins": 3155,
      "itud": 3156,
      "à¤¨à¤ª": 3157,
      "Ġwon": 3158,
      "Ġwent": 3159,
      "Ġwinds": 3160,
      "Ġà°ķà°¥": 3161,
      "Ġcor": 3162,
      "Ġsw": 3163,
      "Ġset": 3164,
      "Ġsail": 3165,
      "Ġsold": 3166,
      "Ġpov": 3167,
      "Ġbirth": 3168,
      "Ġfall": 3169,
      "à¨¤à¨®": 3170,
      "Ġmay": 3171,
      "ĠSur": 3172,
      "Ġà°¨à°°à°¸": 3173,
      "Ġà°ħà°¹": 3174,
      "Ġdom": 3175,
      "Ġdep": 3176,
      "Ġdiverse": 3177,
      "à¤®à¤¹": 3178,
      "à°·à°¨": 3179,
      "à°·à°ķ": 3180,
      "Ġà°¤à°¤": 3181,
      "Ġà¤¹à¤°": 3182,
      "à¨¸à¨¥": 3183,
      "à¤µà¤²": 3184,
      "Ġlower": 3185,
      "Ġever": 3186,
      "ĠBhar": 3187,
      "Ġhabit": 3188,
      "Ġren": 3189,
      "ĠMo": 3190,
      "ĠMysore": 3191,
      "Ġà°Ĩà°®": 3192,
      "ulated": 3193,
      "ulpt": 3194,
      "Ġà¨µà¨ľ": 3195,
      "Ġà°¬à°°": 3196,
      "olon": 3197,
      "olars": 3198,
      "Ġnation": 3199,
      "ĠCamb": 3200,
      "Ġà°ľà°ª": 3201,
      "ams": 3202,
      "ĠPeninsula": 3203,
      "à¤·à¤ķ": 3204,
      "Ġà¤ħà¤¬": 3205,
      "à¤ľà¤¯": 3206,
      "à¤ľà¤µ": 3207,
      "Ġrun": 3208,
      "Ġrapid": 3209,
      "Ġà°ĩà°Ł": 3210,
      "Ġgained": 3211,
      "Ġthought": 3212,
      "Ġà¤¬à¤¸": 3213,
      "ĠHarsha": 3214,
      "idges": 3215,
      "rakut": 3216,
      "ĠEgy": 3217,
      "à¤¥à¤µ": 3218,
      "ĠGh": 3219,
      "ĠGupt": 3220,
      "ernational": 3221,
      "Ġbegin": 3222,
      "à°³à°¨": 3223,
      "à¨ľà¨ª": 3224,
      "ĠDev": 3225,
      "Ġsucceeded": 3226,
      "aving": 3227,
      "ĠKarnat": 3228,
      "estic": 3229,
      "ayas": 3230,
      "Ġexch": 3231,
      "ĠNew": 3232,
      "ĠNiz": 3233,
      "à¤¼à¥ĭ": 3234,
      "osition": 3235,
      "Ġintro": 3236,
      "Ġvis": 3237,
      "Ġvast": 3238,
      "Ġvict": 3239,
      "acc": 3240,
      "ĠVa": 3241,
      "Ġorder": 3242,
      "Ġà¥§": 3243,
      "Ġà¥«": 3244,
      "Ġà¨Ĺà¨ı": 3245,
      "Ġunion": 3246,
      "Ġà°ıà°ª": 3247,
      "Ġcontinent": 3248,
      "Ġ70": 3249,
      "Ġ1757": 3250,
      "Ġplain": 3251,
      "Ġsubsequ": 3252,
      "Ġ1500": 3253,
      "ogn": 3254,
      "à°«à°°": 3255,
      "Ġmargins": 3256,
      "Ġincludes": 3257,
      "Ġà©¨": 3258,
      "ĠSouthwest": 3259,
      "Ġdecades": 3260,
      "Ġpolic": 3261,
      "lied": 3262,
      "Ġ800": 3263,
      "Ġ1962": 3264,
      "Ġà°ĵà°Łà°®": 3265,
      "rought": 3266,
      "Ġreligions": 3267,
      "à¤«à¤²": 3268,
      "Ġà¤®à¤¹à¤¤": 3269,
      "Ġà¤ľà¤¨à¤¸": 3270,
      "ĠComm": 3271,
      "Ġcommon": 3272,
      "ization": 3273,
      "Ġterm": 3274,
      "Ġrefer": 3275,
      "Ġrefuge": 3276,
      "Ġ1999": 3277,
      "Ġaccess": 3278,
      "iterran": 3279,
      "Ġremains": 3280,
      "ĠConstitu": 3281,
      "Ġsculpt": 3282,
      "Ġà°Ĩà°Ĺà°¸": 3283,
      "Ġlonger": 3284,
      "Ġprovinces": 3285,
      "à©¦à©¦": 3286,
      "à¨łà¨ľ": 3287,
      "Ġhumans": 3288,
      "à°¯à°£à°°": 3289,
      "oint": 3290,
      "Ġsurv": 3291,
      "Ġliteracy": 3292,
      "Ġdeep": 3293,
      "à¨īà¨£": 3294,
      "Ġforeign": 3295,
      "ĠAmong": 3296,
      "Ġresulted": 3297,
      "Ġlegislature": 3298,
      "Ġschool": 3299,
      "Ġoriginated": 3300,
      "1947": 3301,
      "Ġmigr": 3302,
      "ĠAssembly": 3303,
      "ragupta": 3304,
      "ĠEngl": 3305,
      "ĠChalukya": 3306,
      "Ġgroups": 3307,
      "Ġmerch": 3308,
      "India": 3309,
      "Ġà¨ıà¨¸": 3310,
      "Ġdiscov": 3311,
      "Ġoccurred": 3312,
      "Ġfishes": 3313,
      "ĠMountbatt": 3314,
      "ĠRashtrakut": 3315,
      "eptember": 3316,
      "Ġdeclared": 3317,
      "Ġdifferent": 3318,
      "Ġsimilar": 3319,
      "Ġamphibians": 3320,
      "Ġpoverty": 3321,
      "ĠEgypt": 3322,
      "ĠGuptas": 3323,
      "iterranean": 3324,
      "ĠConstituent": 3325,
      "ĠEnglish": 3326,
      "ĠMountbatten": 3327,
      "%),": 3328,
      "39": 3329,
      "74": 3330,
      "au": 3331,
      "az": 3332,
      "air": 3333,
      "aeolog": 3334,
      "by": 3335,
      "gar": 3336,
      "haps": 3337,
      "io": 3338,
      "ires": 3339,
      "ls": 3340,
      "ling": 3341,
      "my": 3342,
      "most": 3343,
      "ph": 3344,
      "rd": 3345,
      "ril": 3346,
      "rig": 3347,
      "ton": 3348,
      "ving": 3349,
      "vir": 3350,
      "wa": 3351,
      "yan": 3352,
      "ĠâĢ": 3353,
      "Ġà°Ķ": 3354,
      "à±į),": 3355,
      "à¥¯": 3356,
      "à°°à°Ĺ": 3357,
      "à°°à°¬": 3358,
      "à°°à°¥": 3359,
      "à±ģ\"": 3360,
      "à°²à°ļ": 3361,
      "à©§": 3362,
      "à©«": 3363,
      "Ġtax": 3364,
      "à°¤à°Ĺ": 3365,
      "à°¦à°Ĺ": 3366,
      "à°¦à°³": 3367,
      "inn": 3368,
      "int": 3369,
      "inet": 3370,
      "à°¯à°ļ": 3371,
      "à¤°à¤ª": 3372,
      "à¥ĩ-": 3373,
      "reak": 3374,
      "à°®à°¯": 3375,
      "ath": 3376,
      "atic": 3377,
      "atives": 3378,
      "à±ĩ,": 3379,
      "à¤¿,": 3380,
      "ense": 3381,
      "aries": 3382,
      "itime": 3383,
      "Ġwin": 3384,
      "Ġà°ķà°ª": 3385,
      "Ġcreat": 3386,
      "Ġcirc": 3387,
      "Ġsal": 3388,
      "à¨°à¨¬": 3389,
      "Ġpast": 3390,
      "Ġpres": 3391,
      "Ġposs": 3392,
      "Ġpaint": 3393,
      "à°§à°®": 3394,
      "à°§à°¨à°²": 3395,
      "à±Ĩ.": 3396,
      "Ġbrought": 3397,
      "Ġfe": 3398,
      "Ġà¤¸à¤¤": 3399,
      "Ġmult": 3400,
      "icer": 3401,
      "ices": 3402,
      "omo": 3403,
      "à©ĩà¥¤": 3404,
      "ĠSom": 3405,
      "ĠSome": 3406,
      "ĠSecond": 3407,
      "ĠSeptember": 3408,
      "Ġà°¨à°®": 3409,
      "à°£à°Ń": 3410,
      "Ġà°ħà°Ĺ": 3411,
      "Ġà°ħà°£": 3412,
      "Ġà°ļà°Ł": 3413,
      "Ġdown": 3414,
      "ĠTur": 3415,
      "à¤®à¤¤": 3416,
      "els": 3417,
      "à¨¸à¨²": 3418,
      "ĠAge": 3419,
      "ĠAnt": 3420,
      "Ġlim": 3421,
      "Ġlay": 3422,
      "Ġlate": 3423,
      "urma": 3424,
      "Ġeight": 3425,
      "Ġà¨¸à¨«": 3426,
      "Ġreduced": 3427,
      "ĠMew": 3428,
      "ĠMost": 3429,
      "thod": 3430,
      "ilt": 3431,
      "Ġà¤Ńà¤°": 3432,
      "Ġà¤Ńà¤°à¤¤": 3433,
      "Ġnative": 3434,
      "Ġnetwork": 3435,
      "ĠCurrent": 3436,
      "Ġ1900": 3437,
      "Ġà°ľà°¯à°ª": 3438,
      "ĠPrat": 3439,
      "ectively": 3440,
      "Ġà°Ĺà°ľ": 3441,
      "à¤ľà¤§": 3442,
      "isting": 3443,
      "Ġrates": 3444,
      "Ġrange": 3445,
      "Ġrights": 3446,
      "Ġridges": 3447,
      "Ġà¤¨à¤Ĺà¤°": 3448,
      "Ġà¤ľà¤®": 3449,
      "Ġà°ĩà°¨": 3450,
      "Ġà°ĩà°ª": 3451,
      "Ġgo": 3452,
      "Ġthough": 3453,
      "utra": 3454,
      "à°²à°¨à°ķ": 3455,
      "à¨ļà¨ķ": 3456,
      "idian": 3457,
      "ĠEx": 3458,
      "ĠEcon": 3459,
      "à¤¥à¤°": 3460,
      "ĠGur": 3461,
      "Ġassoci": 3462,
      "à¨µà¨¤": 3463,
      "Ġà¤°à¤ķ": 3464,
      "à¤£à¤¨": 3465,
      "à¨ľà¨¨": 3466,
      "ĠRep": 3467,
      "Ġstart": 3468,
      "à°µà°°à°£": 3469,
      "Ġsum": 3470,
      "ĠKann": 3471,
      "ĠKuru": 3472,
      "ĠOct": 3473,
      "aining": 3474,
      "Ġà¤Ĩà¤¤": 3475,
      "Ġà¤Ĩà¤ķ": 3476,
      "Ġà¤Ĩà¤ª": 3477,
      "Ġà¤Ĩà¤Ī": 3478,
      "iance": 3479,
      "etic": 3480,
      "Ġà¤Ĺà¤ł": 3481,
      "Ġà¨¤à¨ķ": 3482,
      "Ġ300": 3483,
      "Ġvalley": 3484,
      "ĠWith": 3485,
      "ĠWars": 3486,
      "Ġà¨®à¨¨": 3487,
      "Ġà¤¶à¤¹à¤°": 3488,
      "à°¯à°®à°ķ": 3489,
      "ĠLord": 3490,
      "à¨¬à¨¤": 3491,
      "Ġpercent": 3492,
      "Ġ180": 3493,
      "Ġunits": 3494,
      "osts": 3495,
      "Ġtrading": 3496,
      "Ġ1526": 3497,
      "ources": 3498,
      "Ġmarine": 3499,
      "Ġmaritime": 3500,
      "Ġà©Ń": 3501,
      "Ġheld": 3502,
      "reaty": 3503,
      "Ġ2001": 3504,
      "Ġpopular": 3505,
      "ryan": 3506,
      "Ġforms": 3507,
      "à¨¸à¨¤à¨ķ": 3508,
      "Ġà¨¸à¨®à¨°": 3509,
      "Ġrepublic": 3510,
      "Ġ1960": 3511,
      "à¤ķà¤°à¤£": 3512,
      "Ġà°°à°ļà°¨": 3513,
      "Ġdisput": 3514,
      "Ġextended": 3515,
      "awab": 3516,
      "ĠArmy": 3517,
      "Ġà°ħà°µà°¶": 3518,
      "Ġprinces": 3519,
      "Ġjust": 3520,
      "Ġmovements": 3521,
      "ause": 3522,
      "Ġscript": 3523,
      "Ġseries": 3524,
      "ihara": 3525,
      "Ġmaint": 3526,
      "Ġlasted": 3527,
      "Ġspreading": 3528,
      "Ġurbanisation": 3529,
      "à¤ĺà¤°": 3530,
      "Ġweak": 3531,
      "Ġannex": 3532,
      "Ġsmaller": 3533,
      "Ġhistorical": 3534,
      "Ġtext": 3535,
      "Ġtexts": 3536,
      "Ġdivided": 3537,
      "Ġdeclined": 3538,
      "Ġvarious": 3539,
      "Ġcommunities": 3540,
      "Ġtraditional": 3541,
      "Ġborder": 3542,
      "Ġà¤¸à¤¦à¤¸": 3543,
      "Ġseparate": 3544,
      "Ġagricultural": 3545,
      "Ġofficial": 3546,
      "Ġlevels": 3547,
      "Ġcommercial": 3548,
      "Ġtechnolog": 3549,
      "Ġoldest": 3550,
      "Ġrebellion": 3551,
      "ĠHimalayas": 3552,
      "ĠKamarup": 3553,
      "Ġrecorded": 3554,
      "Ġbirds": 3555,
      "Ġgradually": 3556,
      "Ġconsolidated": 3557,
      "ĠMediterranean": 3558,
      "ĠGreek": 3559,
      "Ġexecutive": 3560,
      "apadas": 3561,
      "à°¸à°¨à°¸à°Ń": 3562,
      "Ġcampaign": 3563,
      "Ġexample": 3564,
      "ouncil": 3565,
      "ĠCambridge": 3566,
      "Ġexchange": 3567,
      "Ġcontinental": 3568,
      "Ġrefugees": 3569,
      "ĠMewar": 3570,
      "ĠOctober": 3571,
      "Ġà¤Ĺà¤łà¤¬": 3572,
      ".),": 3573,
      "100": 3574,
      "31": 3575,
      "37": 3576,
      "47": 3577,
      "61": 3578,
      "ahar": 3579,
      "bar": 3580,
      "back": 3581,
      "co": 3582,
      "eas": 3583,
      "ead": 3584,
      "ets": 3585,
      "ie": 3586,
      "ief": 3587,
      "ka": 3588,
      "ket": 3589,
      "lass": 3590,
      "min": 3591,
      "ox": 3592,
      "oad": 3593,
      "pond": 3594,
      "ras": 3595,
      "round": 3596,
      "sel": 3597,
      "sun": 3598,
      "side": 3599,
      "ty": 3600,
      "tal": 3601,
      "va": 3602,
      "we": 3603,
      "war": 3604,
      "yc": 3605,
      "Ã©": 3606,
      "Ġir": 3607,
      "à¤ŀ": 3608,
      "Ġà°¥": 3609,
      "à°¨à°°à°¸": 3610,
      "Ġà¨Ĳ": 3611,
      "anish": 3612,
      "anced": 3613,
      "à°ķà°µ": 3614,
      "indh": 3615,
      "à°¯à°Ł": 3616,
      "à¤°à¤¨": 3617,
      "à¤°à¤ľ": 3618,
      "à°Ĺà°¸": 3619,
      "à°Ĺà°ª": 3620,
      "à°Ĺà°ľ": 3621,
      "à°¡à°¨": 3622,
      "à°¡à°Ł": 3623,
      "aters": 3624,
      "atma": 3625,
      "à¤¤à¤Ĺ": 3626,
      "enous": 3627,
      "ences": 3628,
      "edi": 3629,
      "ediment": 3630,
      "Ġà°¸à°¨": 3631,
      "aras": 3632,
      "à°ļà°Ĺ": 3633,
      "ither": 3634,
      "itics": 3635,
      "à¤¨à¤ķ": 3636,
      "Ġwaters": 3637,
      "ĠImp": 3638,
      "Ġche": 3639,
      "Ġsing": 3640,
      "Ġseat": 3641,
      "Ġshel": 3642,
      "Ġsomet": 3643,
      "Ġsediment": 3644,
      "ional": 3645,
      "à¤¯à¤¸": 3646,
      "à¨°à¨ļ": 3647,
      "à¨°à¨Ń": 3648,
      "Ġpers": 3649,
      "Ġpublic": 3650,
      "Ġports": 3651,
      "à¤ķà¤¤": 3652,
      "à¤ķà¤¨": 3653,
      "Ġbi": 3654,
      "Ġbound": 3655,
      "Ġfish": 3656,
      "Ġfund": 3657,
      "Ġfought": 3658,
      "Ġà¤¸à¤¨": 3659,
      "Ġ(\"": 3660,
      "Ġmut": 3661,
      "Ġmass": 3662,
      "icians": 3663,
      "à¤¸à¤µ": 3664,
      "oming": 3665,
      "Ġà°¨à°°": 3666,
      "Ġday": 3667,
      "Ġdominion": 3668,
      "Ġdays": 3669,
      "ĠTo": 3670,
      "à°·à°¤": 3671,
      "Ġtoday": 3672,
      "Ġtotal": 3673,
      "Ġep": 3674,
      "Ġà°īà°°": 3675,
      "Ġhaving": 3676,
      "adamb": 3677,
      "Ġà°Ĩà°µ": 3678,
      "Ġ22": 3679,
      "ths": 3680,
      "olution": 3681,
      "à¨²à¨¨": 3682,
      "Ġnomin": 3683,
      "Ġnever": 3684,
      "ĠCol": 3685,
      "ĠCivil": 3686,
      "ĠCrown": 3687,
      "Ġ1930": 3688,
      "Ġ1935": 3689,
      "Ġà°ľà°®": 3690,
      "ama": 3691,
      "ami": 3692,
      "ĠPala": 3693,
      "ector": 3694,
      "ecting": 3695,
      "Ġà¤ħà¤Ĺ": 3696,
      "à¤ľà¤°": 3697,
      "Ġrivers": 3698,
      "Ġroyal": 3699,
      "Ġgood": 3700,
      "à¨Ĩà¨¤": 3701,
      "à¨Ĩà¨¨": 3702,
      "ĠHis": 3703,
      "ĠHary": 3704,
      "ĠHomo": 3705,
      "idence": 3706,
      "rain": 3707,
      "ĠGreat": 3708,
      "ections": 3709,
      "Ġisol": 3710,
      "à¨ľà¨µ": 3711,
      "ĠDes": 3712,
      "ĠDem": 3713,
      "ĠRaya": 3714,
      "Ġà¤¤à¤®": 3715,
      "Ġstud": 3716,
      "Ġstru": 3717,
      "Ġà°¹à°¤": 3718,
      "Ġsuff": 3719,
      "aval": 3720,
      "ĠKh": 3721,
      "ĠKeral": 3722,
      "ests": 3723,
      "à¨£à¨¤": 3724,
      "Ġà°Īà°¶": 3725,
      "à©Īà¨Ĥ": 3726,
      "respond": 3727,
      "Ġà¨ľà¨¦": 3728,
      "Ġà¤Ĩà¤µ": 3729,
      "Ġà¤īà¤¸à¤ķ": 3730,
      "à¤ļà¤¨": 3731,
      "ĠNorthern": 3732,
      "ĠNawab": 3733,
      "Ġanother": 3734,
      "à¤¡à¤²": 3735,
      "à¤¼à¤¿": 3736,
      "endra": 3737,
      "Ġ34": 3738,
      "Ġvill": 3739,
      "ried": 3740,
      "aced": 3741,
      "Ġ2022": 3742,
      "Ġ2023": 3743,
      "anged": 3744,
      "angered": 3745,
      "ĠLate": 3746,
      "Ġperhaps": 3747,
      "Ġà°İà°Ĺ": 3748,
      "Ġ1858": 3749,
      "anted": 3750,
      "à¨Ńà¨Ĺ": 3751,
      "Ġà¨Ĩà¨®": 3752,
      "Ġspe": 3753,
      "Ġà°Ĵà°ª": 3754,
      "Ġà¨²à©ľ": 3755,
      "Ġà°īà°ªà°¨": 3756,
      "ĠFirst": 3757,
      "ĠFrench": 3758,
      "Ġ74": 3759,
      "Ġ75": 3760,
      "Ġà°ħà°Ńà°¯": 3761,
      "incial": 3762,
      "Ġcook": 3763,
      "Ġended": 3764,
      "Ġcomple": 3765,
      "Ġ2004": 3766,
      "Ġà¤Īà¤°": 3767,
      "Ġnorthwest": 3768,
      "à¤Ĩà¤¤": 3769,
      "Ġcultures": 3770,
      "Ġable": 3771,
      "Ġà¥§à¥®": 3772,
      "Ġimpact": 3773,
      "Ġdisp": 3774,
      "Ġelites": 3775,
      "Ġextens": 3776,
      "Ġexternal": 3777,
      "Ġextrem": 3778,
      "acter": 3779,
      "ext": 3780,
      "Ġmoved": 3781,
      "Ġ1956": 3782,
      "Ġà¤ķà¤¹à¤²": 3783,
      "Ġlands": 3784,
      "Ġà°Ĺà°£à°¨": 3785,
      "Ġà°¸à°¹à°ķà°°": 3786,
      "ledge": 3787,
      "Ġslave": 3788,
      "Ġà¥§à¥¯à¥¯à¥": 3789,
      "2004": 3790,
      "Ġenc": 3791,
      "Ġserv": 3792,
      "Ġà¥¨à¥¦à¥¦": 3793,
      "Ġemplo": 3794,
      "ĠHindi": 3795,
      "ĠMahatma": 3796,
      "Ġà¤īà¤ªà¤®à¤¹": 3797,
      "Ġbeliev": 3798,
      "ĠPlain": 3799,
      "Ġtemples": 3800,
      "Ġevents": 3801,
      "Ġinfluenced": 3802,
      "ĠAustralian": 3803,
      "ĠPradesh": 3804,
      "Ġà°Ĳà°°": 3805,
      "Ġwidely": 3806,
      "Ġscholars": 3807,
      "ĠIndonesian": 3808,
      "Ġà°¬à°²à°¹": 3809,
      "Ġà¤ħà¤®à¤°": 3810,
      "Ġsoon": 3811,
      "ructure": 3812,
      "Ġmathematics": 3813,
      "Ġaddition": 3814,
      "Ġindustrial": 3815,
      "Ġbuild": 3816,
      "Ġbuilt": 3817,
      "Ġagriculture": 3818,
      "ĠPatel": 3819,
      "Ġfigures": 3820,
      "Ġlatter": 3821,
      "ĠCoast": 3822,
      "Ġparliamentary": 3823,
      "ĠGovernor": 3824,
      "Ġstatus": 3825,
      "ĠChandragupta": 3826,
      "Ġà¨²à¨Ĺà¨Ńà¨Ĺ": 3827,
      "Ġexported": 3828,
      "ĠIslamic": 3829,
      "ĠPlateau": 3830,
      "Ġcharacter": 3831,
      "Ġfamilies": 3832,
      "ombay": 3833,
      "Ġlabour": 3834,
      "Ġcurren": 3835,
      "ĠAkbar": 3836,
      "ĠPallavas": 3837,
      "itude": 3838,
      "Ġcorrespond": 3839,
      "Ġsoldiers": 3840,
      "Ġdomestic": 3841,
      "Ġevery": 3842,
      "ĠKarnataka": 3843,
      "Ġsculpture": 3844,
      "airs": 3845,
      "iceroy": 3846,
      "Ġsummer": 3847,
      "ĠKamarupa": 3848,
      "lassical": 3849,
      "ĠKerala": 3850,
      ",\"": 3851,
      "64": 3852,
      "68": 3853,
      "80": 3854,
      "91": 3855,
      "900": 3856,
      "Aryan": 3857,
      "DP": 3858,
      "JP": 3859,
      "aith": 3860,
      "bers": 3861,
      "book": 3862,
      "div": 3863,
      "dha": 3864,
      "east": 3865,
      "equ": 3866,
      "fl": 3867,
      "form": 3868,
      "gg": 3869,
      "gu": 3870,
      "ier": 3871,
      "jara": 3872,
      "kh": 3873,
      "kn": 3874,
      "ll": 3875,
      "line": 3876,
      "ladesh": 3877,
      "ness": 3878,
      "oa": 3879,
      "row": 3880,
      "uments": 3881,
      "viol": 3882,
      "Ġ:": 3883,
      "ĠQ": 3884,
      "Ġher": 3885,
      "à°ī": 3886,
      "à¤Ŀ": 3887,
      "à¨¢": 3888,
      "à°¾-": 3889,
      "Ġà¤Ĳ": 3890,
      "Ġà¤ĳ": 3891,
      "à°¿:": 3892,
      "Ġà¨Ķ": 3893,
      "à©©": 3894,
      "Ġten": 3895,
      "Ġturn": 3896,
      "Ġtropical": 3897,
      "à°¤à°¤": 3898,
      "anj": 3899,
      "anas": 3900,
      "à°¦à°®": 3901,
      "à°¦à°¸": 3902,
      "iny": 3903,
      "à°¯à°ľ": 3904,
      "à°¯à°ªà°¡": 3905,
      "à±ĭ)": 3906,
      "onsoon": 3907,
      "erm": 3908,
      "erable": 3909,
      "rew": 3910,
      "à°¸à°Ĺ": 3911,
      "à°¸à°¹": 3912,
      "struct": 3913,
      "ene": 3914,
      "ency": 3915,
      "eds": 3916,
      "arian": 3917,
      "à¥Ģ-": 3918,
      "à±Ģ;": 3919,
      "ita": 3920,
      "itual": 3921,
      "itte": 3922,
      "Ġair": 3923,
      "à¤¨à¤¸": 3924,
      "Ġwa": 3925,
      "Ġwill": 3926,
      "Ġwater": 3927,
      "Ġwars": 3928,
      "Ġwild": 3929,
      "ĠIran": 3930,
      "Ġcas": 3931,
      "Ġcru": 3932,
      "Ġcould": 3933,
      "Ġà°®à°¨": 3934,
      "Ġsov": 3935,
      "Ġslow": 3936,
      "Ġsultan": 3937,
      "Ġsaid": 3938,
      "à¨°à¨ª": 3939,
      "isc": 3940,
      "Ġ1000": 3941,
      "à°§à°°": 3942,
      "à©Ģ-": 3943,
      "Ġbod": 3944,
      "Ġbreak": 3945,
      "Ġft": 3946,
      "Ġfast": 3947,
      "Ġfoss": 3948,
      "Ġà¤¸à¤²": 3949,
      "Ġà¤¸à¤ª": 3950,
      "Ġà¤¸à¤«à¤²": 3951,
      "icient": 3952,
      "oman": 3953,
      "ĠSp": 3954,
      "ĠSil": 3955,
      "ĠSund": 3956,
      "à°£à°ª": 3957,
      "enth": 3958,
      "ĠTr": 3959,
      "à¤®à¤¸": 3960,
      "à¤®à¤£": 3961,
      "à°·à°£à°²": 3962,
      "Ġà°¤à°ķ": 3963,
      "à¥ģ,": 3964,
      "Ġà°Ńà°ķ": 3965,
      "Ġlear": 3966,
      "urg": 3967,
      "Ġeth": 3968,
      "ĠBal": 3969,
      "ĠBas": 3970,
      "ĠBab": 3971,
      "ĠBang": 3972,
      "ĠBombay": 3973,
      "ĠTheir": 3974,
      "Ġreach": 3975,
      "à¨¨à¨¦": 3976,
      "ĠMid": 3977,
      "ĠMasc": 3978,
      "ĠMarch": 3979,
      "à°Ńà°ľà°¨": 3980,
      "ule": 3981,
      "uled": 3982,
      "ili": 3983,
      "Ġà¨µà¨ª": 3984,
      "Ġà°¬à°¦": 3985,
      "Ġà°¬à°²à°®": 3986,
      "olk": 3987,
      "olving": 3988,
      "ĠCan": 3989,
      "ĠCap": 3990,
      "ĠClassical": 3991,
      "even": 3992,
      "à¨¦à¨µ": 3993,
      "ĠPe": 3994,
      "ĠPer": 3995,
      "ĠPand": 3996,
      "ĠPes": 3997,
      "ĠPro": 3998,
      "ective": 3999,
      "imed": 4000,
      "imals": 4001,
      "à¤·à¤Ń": 4002,
      "à°¥à°ķ": 4003,
      "ivity": 4004,
      "Ġà°Ĺà°µà°°": 4005,
      "Ġà¤ħà¤¹": 4006,
      "Ġà¤ħà¤¶": 4007,
      "à¤°à¤¤à¤µà¤°": 4008,
      "Ġà¤¨à¤°": 4009,
      "Ġgu": 4010,
      "à¤¶à¤¤": 4011,
      "Ġà¤¬à¤²": 4012,
      "Ġà¤¬à¤¦à¤²": 4013,
      "ĠHem": 4014,
      "igenous": 4015,
      "Ġà¨ħà¨Ĺà¨µ": 4016,
      "rait": 4017,
      "racy": 4018,
      "à¨¾à¨Ĥ,": 4019,
      "ĠGoa": 4020,
      "roop": 4021,
      "à¨µà¨°": 4022,
      "à¨µà¨¨": 4023,
      "à¨µà¨°à¨¸": 4024,
      "à°³à°²": 4025,
      "ĠDys": 4026,
      "Ġstill": 4027,
      "Ġstren": 4028,
      "Ġstret": 4029,
      "abha": 4030,
      "Ġconc": 4031,
      "Ġconstitut": 4032,
      "Ġconduct": 4033,
      "à¤Ńà¤°": 4034,
      "ĠKing": 4035,
      "ĠKadamb": 4036,
      "ĠOld": 4037,
      "ĠOther": 4038,
      "ayback": 4039,
      "akh": 4040,
      "aks": 4041,
      "akas": 4042,
      "Ġexcept": 4043,
      "Ġà¤Ĩà¤¸": 4044,
      "Ġà¨ĩà¨¨": 4045,
      "à¨Ĺà¨¦": 4046,
      "ĠNic": 4047,
      "Ġalthough": 4048,
      "Ġà°¤à°°à°ļ": 4049,
      "osop": 4050,
      "Ġà¤Ĺà¤¤": 4051,
      "Ġinteg": 4052,
      "Ġ33": 4053,
      "Ġvia": 4054,
      "mental": 4055,
      "ĠWh": 4056,
      "ĠWhen": 4057,
      "ongol": 4058,
      "api": 4059,
      "Ġking": 4060,
      "Ġà°¸à°®à°°à°¯": 4061,
      "ota": 4062,
      "à°°à°®à°²": 4063,
      "à°°à°£à°¨": 4064,
      "ĠJoh": 4065,
      "Ġ1941": 4066,
      "Ġ1949": 4067,
      "à¨§à¨°": 4068,
      "anga": 4069,
      "à¨ĸà¨ķ": 4070,
      "Ġà°İà°¤": 4071,
      "à¤ĸà¤ķ": 4072,
      "Ġ1800": 4073,
      "Ġarts": 4074,
      "Ġproport": 4075,
      "Ġincome": 4076,
      "Ġà¨īà¨¤": 4077,
      "Ġunited": 4078,
      "Ġunique": 4079,
      "ĠUnt": 4080,
      "ĠFront": 4081,
      "iodiversity": 4082,
      "à°łà°¶": 4083,
      "à°ķà°¤à°²": 4084,
      "Ġ7000": 4085,
      "ĠMach": 4086,
      "Ġtraders": 4087,
      "Ġ1556": 4088,
      "Ġperiods": 4089,
      "Ġ2012": 4090,
      "luding": 4091,
      "assin": 4092,
      "Ġleast": 4093,
      "Ġcoal": 4094,
      "Ġhel": 4095,
      "Ġmostly": 4096,
      "Ġoverth": 4097,
      "berg": 4098,
      "ĠRajendra": 4099,
      "Ġpopulations": 4100,
      "Ġimm": 4101,
      "Ġpoll": 4102,
      "Ġchange": 4103,
      "à¤°à¤®à¤£": 4104,
      "Ġ1600": 4105,
      "Ġeven": 4106,
      "Ġevidence": 4107,
      "Ġ1967": 4108,
      "Ġimperial": 4109,
      "ipur": 4110,
      "iple": 4111,
      "Ġà°®à°¤à°ªà°°à°®": 4112,
      "Ġfoundations": 4113,
      "ĠBuddha": 4114,
      "acked": 4115,
      "Ġsystems": 4116,
      "ĠMughals": 4117,
      "uez": 4118,
      "empor": 4119,
      "ĠAncient": 4120,
      "Ġà¨ķà¨°à¨¦": 4121,
      "Ġupper": 4122,
      "Ġà¤ľà¤¨à¤¤": 4123,
      "1799": 4124,
      "Ġcoasts": 4125,
      "ized": 4126,
      "Ġsho": 4127,
      "Ġshort": 4128,
      "Ġusing": 4129,
      "à¤ĩà¤²": 4130,
      "Ġknow": 4131,
      "ĠAround": 4132,
      "Ġ1990": 4133,
      "Ġà¤ĩà¤¨à¤ķ": 4134,
      "ĠArabic": 4135,
      "Ġà°¸à°¹à°¸": 4136,
      "Ġothers": 4137,
      "Ġmix": 4138,
      "oung": 4139,
      "Ġà¥§à¥¯à¥®": 4140,
      "Ġà¥§à¥¯à¥Ń": 4141,
      "Ġthemsel": 4142,
      "Ġà¨ĩà¨¹à¨¨": 4143,
      "Ġà¥¨à¥¦": 4144,
      "Ġassert": 4145,
      "Ġassassin": 4146,
      "Ġoceans": 4147,
      "Ġcapt": 4148,
      "olden": 4149,
      "Ġnumbers": 4150,
      "Ġcontrolled": 4151,
      "iharas": 4152,
      "Ġprovincial": 4153,
      "Ġà¤Ľà¤¹": 4154,
      "Ġinterv": 4155,
      "Ġhighly": 4156,
      "ĠMalwa": 4157,
      "Ġarmies": 4158,
      "ointed": 4159,
      "Ġsuccessfully": 4160,
      "Ġà¤īà¤ªà¤¯": 4161,
      "Ġarchitectural": 4162,
      "ramaá¹ĩ": 4163,
      "Ġannual": 4164,
      "Ġtemple": 4165,
      "ĠSumat": 4166,
      "Ġdemand": 4167,
      "Ġdominated": 4168,
      "Ġdominions": 4169,
      "à¤¤à¤¨à¤¤": 4170,
      "amental": 4171,
      "Ġstyles": 4172,
      "century": 4173,
      "Ġà°Ĳà°¦": 4174,
      "Ġà¤¸à¤¹à¤¯": 4175,
      "Ġlikely": 4176,
      "compass": 4177,
      "monwe": 4178,
      "Ġà¤¸à¤ķà¤¤": 4179,
      "Ġdiff": 4180,
      "Ġà¤ħà¤²à¤Ĺ": 4181,
      "ĠAssam": 4182,
      "Ġlarger": 4183,
      "Ġindustry": 4184,
      "scale": 4185,
      "ĠChalukyas": 4186,
      "Ġaffairs": 4187,
      "Ġgroup": 4188,
      "Ġfamine": 4189,
      "ĠShah": 4190,
      "ĠArchived": 4191,
      "à°Ĺà°Ńà°¦": 4192,
      "Ġauthority": 4193,
      "Ġà¤ľà¤¬à¤ķ": 4194,
      "Ġhotspot": 4195,
      "Ġprocess": 4196,
      "ĠAfghanistan": 4197,
      "hilosop": 4198,
      "Ġfeatures": 4199,
      "ouchability": 4200,
      "Ġprobably": 4201,
      "ĠMaharaja": 4202,
      "Ġdistricts": 4203,
      "Ġresponsibility": 4204,
      "arene": 4205,
      "Ġrapidly": 4206,
      "Ġbeginning": 4207,
      "ĠNizam": 4208,
      "Ġvictory": 4209,
      "Ġmerchants": 4210,
      "ĠRashtrakuta": 4211,
      "viron": 4212,
      "Ġà°Ķà°°": 4213,
      "Ġpossib": 4214,
      "Ġassociated": 4215,
      "ĠRepublic": 4216,
      "Ġstarted": 4217,
      "Ġsingle": 4218,
      "Ġsometimes": 4219,
      "Ġfundamental": 4220,
      "ĠCivilisation": 4221,
      "Ġgoods": 4222,
      "Ġstudy": 4223,
      "Ġstrugg": 4224,
      "Ġsovere": 4225,
      "Ġfossil": 4226,
      "ĠBangladesh": 4227,
      "ĠMiddle": 4228,
      "ĠMascarene": 4229,
      "roops": 4230,
      "ĠDyson": 4231,
      "Ġstreng": 4232,
      "ĠJohn": 4233,
      "Ġthemselves": 4234,
      "monwealth": 4235,
      "%)": 4236,
      "05": 4237,
      "400": 4238,
      "51": 4239,
      "54": 4240,
      "73": 4241,
      "93": 4242,
      "94": 4243,
      "96": 4244,
      "97": 4245,
      "General": 4246,
      "Muslim": 4247,
      "Sikh": 4248,
      "The": 4249,
      "aun": 4250,
      "aiss": 4251,
      "bour": 4252,
      "den": 4253,
      "dar": 4254,
      "dro": 4255,
      "ft": 4256,
      "ipp": 4257,
      "ji": 4258,
      "lal": 4259,
      "ms": 4260,
      "mar": 4261,
      "modern": 4262,
      "ned": 4263,
      "off": 4264,
      "the": 4265,
      "uh": 4266,
      "vers": 4267,
      "wing": 4268,
      "wide": 4269,
      "yond": 4270,
      "à¤ħ": 4271,
      "à¨Ĭ": 4272,
      "à¨ĵ": 4273,
      "à°¾)": 4274,
      "à¥§": 4275,
      "à°Ĥ-": 4276,
      "à±ģ),": 4277,
      "à©ª": 4278,
      "à©¬": 4279,
      "Ġtre": 4280,
      "Ġtaking": 4281,
      "Ġtsun": 4282,
      "Ġtroops": 4283,
      "à°¤à°ª": 4284,
      "hest": 4285,
      "anc": 4286,
      "anapadas": 4287,
      "à°¦à°¦": 4288,
      "inence": 4289,
      "inage": 4290,
      "à°¯à°¦": 4291,
      "à°¯à°¬": 4292,
      "à°¯à°¯à°¨": 4293,
      "erous": 4294,
      "à°µà°ª": 4295,
      "Ġoil": 4296,
      "Ġà°ªà°ķ": 4297,
      "Ġà°ªà°µ": 4298,
      "à°¸à°¤": 4299,
      "à°¸à°¸": 4300,
      "atures": 4301,
      "atively": 4302,
      "à¤¤à¤ªà¤¤": 4303,
      "alc": 4304,
      "Ġà¤ķà¤¶": 4305,
      "Ġà°¸à°¦": 4306,
      "Ġà°¸à°°à°¸": 4307,
      "arct": 4308,
      "à°ļà°Ł": 4309,
      "à¥Ģ)": 4310,
      "Ġà°µà°¨": 4311,
      "itation": 4312,
      "itra": 4313,
      "Ġav": 4314,
      "Ġach": 4315,
      "à¤¨à¤¤": 4316,
      "à¤¨à¤¤à¤®": 4317,
      "Ġwide": 4318,
      "Ġcu": 4319,
      "Ġcle": 4320,
      "Ġà°®à°¤à°®": 4321,
      "Ġsqu": 4322,
      "Ġsites": 4323,
      "Ġsector": 4324,
      "Ġsapi": 4325,
      "à¨°à¨§": 4326,
      "isions": 4327,
      "isphere": 4328,
      "Ġpp": 4329,
      "Ġpri": 4330,
      "Ġpot": 4331,
      "Ġpract": 4332,
      "Ġphilosop": 4333,
      "à°§à°ª": 4334,
      "à¤ķà¤ª": 4335,
      "Ġfo": 4336,
      "Ġfem": 4337,
      "Ġfarm": 4338,
      "à¨¤à¨ķ": 4339,
      "à°¶à°¨": 4340,
      "Ġmod": 4341,
      "Ġmet": 4342,
      "Ġmust": 4343,
      "Ġmember": 4344,
      "Ġmention": 4345,
      "ications": 4346,
      "omm": 4347,
      "oms": 4348,
      "ĠSw": 4349,
      "ĠSat": 4350,
      "ĠSultan": 4351,
      "ĠSub": 4352,
      "ĠSince": 4353,
      "ĠSeveral": 4354,
      "ĠSindh": 4355,
      "ĠSuez": 4356,
      "à°£à°¦": 4357,
      "Ġà°ħà°®à°°": 4358,
      "Ġà¤®à¤¤": 4359,
      "Ġdr": 4360,
      "Ġder": 4361,
      "Ġdata": 4362,
      "ĠTal": 4363,
      "ĠTugh": 4364,
      "ĠTreaty": 4365,
      "elag": 4366,
      "Ġà¤¹à¤®": 4367,
      "à¥ģà¤ģ": 4368,
      "Ġtown": 4369,
      "Ġà°Ńà°¦": 4370,
      "Ġà°Ńà°°à°¤": 4371,
      "à¨¸à¨¤à¨°": 4372,
      "ĠAj": 4373,
      "ĠAp": 4374,
      "à¤µà¤¸": 4375,
      "à¤µà¤µ": 4376,
      "Ġlin": 4377,
      "Ġlost": 4378,
      "Ġlitt": 4379,
      "urs": 4380,
      "uras": 4381,
      "urity": 4382,
      "à°¹à°®": 4383,
      "Ġà°īà°¸": 4384,
      "ĠBa": 4385,
      "ĠBut": 4386,
      "ĠBose": 4387,
      "ĠBurma": 4388,
      "ĠBJP": 4389,
      "Ġhous": 4390,
      "Ġà¨¸à¨¬": 4391,
      "adi": 4392,
      "adic": 4393,
      "adra": 4394,
      "adive": 4395,
      "ĠMan": 4396,
      "ĠMar": 4397,
      "ĠMonsoon": 4398,
      "ĠMongol": 4399,
      "Ġà°Ĩà°¨": 4400,
      "Ġà°Ĩà°ļ": 4401,
      "ulation": 4402,
      "ulhas": 4403,
      "ilomet": 4404,
      "Ġà¨µà¨°": 4405,
      "olith": 4406,
      "Ġnat": 4407,
      "ĠChief": 4408,
      "Ġà°ľà°²": 4409,
      "amis": 4410,
      "ĠPanch": 4411,
      "ivid": 4412,
      "Ġà¨¹à¨µ": 4413,
      "Ġà¨¹à¨¥": 4414,
      "Ġà¤ħà¤ķ": 4415,
      "Ġright": 4416,
      "Ġrail": 4417,
      "Ġraid": 4418,
      "Ġrather": 4419,
      "Ġrock": 4420,
      "Ġà°ĩà°¤à°¨": 4421,
      "Ġgar": 4422,
      "Ġgod": 4423,
      "à¤¶à¤ľ": 4424,
      "à¨Ĩà¨¸": 4425,
      "à¨Ĩà¨µ": 4426,
      "ute": 4427,
      "à¥ĭà¤Ĥ,": 4428,
      "chi": 4429,
      "irt": 4430,
      "ignt": 4431,
      "used": 4432,
      "idu": 4433,
      "Ġà¨ħà¨«": 4434,
      "ĠEmp": 4435,
      "à¤¥à¤¨": 4436,
      "à¤¥à¤²": 4437,
      "unt": 4438,
      "ĠGre": 4439,
      "ĠGuru": 4440,
      "ĠGDP": 4441,
      "ĠGerm": 4442,
      "à¨¹à¨¨": 4443,
      "à¨¹à¨®": 4444,
      "erns": 4445,
      "Ġbeyond": 4446,
      "empt": 4447,
      "à¤Łà¤°": 4448,
      "Ġà¨¨à¨¦": 4449,
      "Ġiss": 4450,
      "ersal": 4451,
      "ĠDo": 4452,
      "ĠDrav": 4453,
      "ĠRoad": 4454,
      "Ġste": 4455,
      "Ġstop": 4456,
      "Ġstructure": 4457,
      "à°µà°°à°¸": 4458,
      "Ġfort": 4459,
      "Ġforce": 4460,
      "Ġforced": 4461,
      "abinet": 4462,
      "Ġà°¹à°°à°ª": 4463,
      "ope": 4464,
      "opol": 4465,
      "operation": 4466,
      "averi": 4467,
      "ĠKus": 4468,
      "ĠOr": 4469,
      "à¤¬à¤¨": 4470,
      "Ġà°Īà°ľ": 4471,
      "à¨ªà¨¨": 4472,
      "akes": 4473,
      "aksh": 4474,
      "Ġexerc": 4475,
      "Ġà¨ľà¨¨à¨¤": 4476,
      "isha": 4477,
      "ishing": 4478,
      "Ġà¤īà¤ļ": 4479,
      "Ġà¤īà¤¸à¤¨": 4480,
      "ĠNep": 4481,
      "ĠNations": 4482,
      "ĠNarm": 4483,
      "ĠNanda": 4484,
      "ired": 4485,
      "Ġanimals": 4486,
      "ortheast": 4487,
      "à¤¼à¥į": 4488,
      "osystem": 4489,
      "Ġinternational": 4490,
      "Ġ3000": 4491,
      "Ġà¤ªà¤°à¤¨": 4492,
      "ĠWayback": 4493,
      "Ġà¨¬à¨¦": 4494,
      "Ġà¨¬à¨¸à¨¤": 4495,
      "aged": 4496,
      "umb": 4497,
      "aputra": 4498,
      "Ġkings": 4499,
      "Ġkilled": 4500,
      "Ġkilomet": 4501,
      "Ġà°¸à°®à°ķ": 4502,
      "ĠVol": 4503,
      "othes": 4504,
      "à°°à°£à°ķ": 4505,
      "ĠJaw": 4506,
      "ĠJamm": 4507,
      "Ġ1940": 4508,
      "à©ĭà¨Ĥ,": 4509,
      "à¨§à¨ķ": 4510,
      "angrov": 4511,
      "Ġà¥ª": 4512,
      "Ġcomb": 4513,
      "ĠLond": 4514,
      "à¨¬à¨°": 4515,
      "à¨¬à¨ľ": 4516,
      "ĠBritain": 4517,
      "tery": 4518,
      "ift": 4519,
      "anta": 4520,
      "Ġprop": 4521,
      "Ġpros": 4522,
      "ocrat": 4523,
      "ocracy": 4524,
      "Ġà¨Ĺà¨°": 4525,
      "à°ĺà°Łà°¨": 4526,
      "ĠUtt": 4527,
      "Ġà¨Ĩà¨¸": 4528,
      "Ġà¨Ĩà¨¬": 4529,
      "Ġà°ıà°¦": 4530,
      "à¨Īà¨Ĩ": 4531,
      "Ġ56": 4532,
      "Ġsplit": 4533,
      "undred": 4534,
      "Ġà¤¸à¤®à¤°": 4535,
      "Ġcontain": 4536,
      "Ġcontains": 4537,
      "à¨ħà¨ķ": 4538,
      "ighbour": 4539,
      "Ġtraded": 4540,
      "Ġtraditions": 4541,
      "Ġ1737": 4542,
      "Ġagre": 4543,
      "Ġadop": 4544,
      "Ġ2010": 4545,
      "Ġexped": 4546,
      "Ġbecause": 4547,
      "à¨¥à¨¨": 4548,
      "Ġindic": 4549,
      "Ġindent": 4550,
      "Ġindigenous": 4551,
      "Ġindivid": 4552,
      "ressed": 4553,
      "Ġà©©": 4554,
      "Ġà©¬": 4555,
      "Ġà©®": 4556,
      "Ġrelations": 4557,
      "Ġrelatively": 4558,
      "Ġreser": 4559,
      "ĠHindust": 4560,
      "Ġhead": 4561,
      "Ġendangered": 4562,
      "Ġ2007": 4563,
      "Ġ2008": 4564,
      "Ġchild": 4565,
      "ables": 4566,
      "Ġrepeated": 4567,
      "ipelag": 4568,
      "Ġnotable": 4569,
      "Ġnotably": 4570,
      "Ġalliance": 4571,
      "ĠStrait": 4572,
      "Ġextant": 4573,
      "Ġextinct": 4574,
      "Ġtherefore": 4575,
      "Ġ1970": 4576,
      "Ġinvest": 4577,
      "Ġinvaded": 4578,
      "Ġcolle": 4579,
      "Ġbase": 4580,
      "rone": 4581,
      "ronz": 4582,
      "Ġdefin": 4583,
      "Ġdefence": 4584,
      "Ġà¤ľà¤¨à¤µà¤°": 4585,
      "ĠCommonwealth": 4586,
      "rating": 4587,
      "Ġà°Ĩà°¸à°«": 4588,
      "à¤ĩà¤¨": 4589,
      "Ġrecently": 4590,
      "Ġrecogn": 4591,
      "Ġappear": 4592,
      "Ġ1998": 4593,
      "Ġaccount": 4594,
      "Ġaccording": 4595,
      "ĠSikhism": 4596,
      "Ġà°ħà°µà°¤à°°": 4597,
      "laq": 4598,
      "Ġmonuments": 4599,
      "ounts": 4600,
      "ounced": 4601,
      "Ġà¥§à¥¯à¥¬": 4602,
      "Ġencompass": 4603,
      "ublics": 4604,
      "ĠVedas": 4605,
      "angetic": 4606,
      "Ġmainly": 4607,
      "Ġmainland": 4608,
      "Ġprovided": 4609,
      "Ġaction": 4610,
      "Ġactive": 4611,
      "espite": 4612,
      "Ġattempt": 4613,
      "á¹Ń": 4614,
      "Ġmeant": 4615,
      "Ġbelong": 4616,
      "ĠMadh": 4617,
      "Ġconstitutional": 4618,
      "Ġgrowing": 4619,
      "Ġtemper": 4620,
      "Ġseparat": 4621,
      "ĠCholas": 4622,
      "Ġearlier": 4623,
      "Ġadministrat": 4624,
      "ĠAmrit": 4625,
      "Ġclasses": 4626,
      "ĠRajputana": 4627,
      "Ġquick": 4628,
      "ĠParty": 4629,
      "obar": 4630,
      "Ġcourts": 4631,
      "Ġrepresentatives": 4632,
      "Ġoccupation": 4633,
      "Ġpatronage": 4634,
      "Ġpatronised": 4635,
      "Ġmigration": 4636,
      "Ġeffects": 4637,
      "Ġà¨ħà¨ľà¨¨": 4638,
      "Ġà¤ĭà¤¤": 4639,
      "Ġà¤ĭà¤·à¤Ń": 4640,
      "Ġsecurity": 4641,
      "Ġflows": 4642,
      "Ġneighbour": 4643,
      "Ġaffected": 4644,
      "after": 4645,
      "ginal": 4646,
      "à°İà°¨": 4647,
      "à¨¤à¨µà¨ª": 4648,
      "Ġconnected": 4649,
      "Ġprominence": 4650,
      "Ġblack": 4651,
      "Ġà¤īà¤¦à¤¯": 4652,
      "Ġcommerce": 4653,
      "Ġarrived": 4654,
      "Ġconsidered": 4655,
      "Ġfigure": 4656,
      "ĠAgulhas": 4657,
      "ĠHarapp": 4658,
      "abhadra": 4659,
      "ĠKaling": 4660,
      "Ġroutes": 4661,
      "Ġhotspots": 4662,
      "Ġpredomin": 4663,
      "ĠTimur": 4664,
      "Ġreturn": 4665,
      "Ġincreasingly": 4666,
      "Ġships": 4667,
      "Ġ1885": 4668,
      "Ġsettlements": 4669,
      "Ġdescribed": 4670,
      "Ġecosystem": 4671,
      "ĠÅļramaá¹ĩ": 4672,
      "Ġrenew": 4673,
      "olonial": 4674,
      "Ġintroduced": 4675,
      "accadive": 4676,
      "ĠVaishn": 4677,
      "Ġsubsequent": 4678,
      "ĠCommission": 4679,
      "Ġdiscovered": 4680,
      "aeological": 4681,
      "Ġwinter": 4682,
      "Ġpresence": 4683,
      "Ġpainting": 4684,
      "Ġmultiple": 4685,
      "Ġlimited": 4686,
      "ĠGurjara": 4687,
      "Ġà¨¤à¨ķà¨¨": 4688,
      "Ġà¨¸à¨®à¨°à¨¥à¨¨": 4689,
      "Ġannexed": 4690,
      "Ġtechnology": 4691,
      "aharlal": 4692,
      "ediately": 4693,
      "Ġseats": 4694,
      "Ġbelieved": 4695,
      "khand": 4696,
      "Ġcrucial": 4697,
      "ĠNicobar": 4698,
      "ĠMachine": 4699,
      "Ġshores": 4700,
      "Ġcaptured": 4701,
      "Ġpossibly": 4702,
      "Ġstruggle": 4703,
      "Ġsovereignt": 4704,
      "Ġstrength": 4705,
      "aissance": 4706,
      "Ġtsunamis": 4707,
      "arctic": 4708,
      "Ġachiev": 4709,
      "Ġsapiens": 4710,
      "ĠTughlaq": 4711,
      "olithic": 4712,
      "ĠDravidian": 4713,
      "ĠNarmada": 4714,
      "ĠJawaharlal": 4715,
      "ĠJammu": 4716,
      "ĠLondon": 4717,
      "ocratic": 4718,
      "ĠUttar": 4719,
      "Ġindividual": 4720,
      "Ġattempted": 4721,
      "Ġsovereignty": 4722,
      ".,": 4723,
      "03": 4724,
      "07": 4725,
      "32": 4726,
      "77": 4727,
      "87": 4728,
      "Europ": 4729,
      "Marat": 4730,
      "Mysore": 4731,
      "NA": 4732,
      "PA": 4733,
      "ael": 4734,
      "cre": 4735,
      "disha": 4736,
      "ee": 4737,
      "ek": 4738,
      "ez": 4739,
      "eal": 4740,
      "eous": 4741,
      "fall": 4742,
      "flow": 4743,
      "fted": 4744,
      "face": 4745,
      "gun": 4746,
      "ih": 4747,
      "ii": 4748,
      "ior": 4749,
      "iew": 4750,
      "iations": 4751,
      "iber": 4752,
      "iography": 4753,
      "jected": 4754,
      "kic": 4755,
      "lon": 4756,
      "ler": 4757,
      "lack": 4758,
      "light": 4759,
      "life": 4760,
      "laced": 4761,
      "mn": 4762,
      "major": 4763,
      "nam": 4764,
      "oj": 4765,
      "pro": 4766,
      "rad": 4767,
      "rim": 4768,
      "rast": 4769,
      "rup": 4770,
      "rishn": 4771,
      "sar": 4772,
      "teen": 4773,
      "vara": 4774,
      "wan": 4775,
      "wad": 4776,
      "wara": 4777,
      "wana": 4778,
      "yp": 4779,
      "ying": 4780,
      "«à¥¦": 4781,
      "Ä«": 4782,
      "Ġ%": 4783,
      "Ġ=": 4784,
      "Ġ[": 4785,
      "Ġ|": 4786,
      "Ġident": 4787,
      "Ġà°Ľ": 4788,
      "à°¾),": 4789,
      "Ġà¤¢": 4790,
      "à°¿-": 4791,
      "à°°à°°": 4792,
      "à°²à°°": 4793,
      "à°¨à°¹": 4794,
      "à©®": 4795,
      "Ġtit": 4796,
      "Ġtra": 4797,
      "Ġtribut": 4798,
      "anies": 4799,
      "à°¦à°µ": 4800,
      "à°ķà°ª": 4801,
      "à°¯à°Ń": 4802,
      "à¤°à¤µà¤°": 4803,
      "erpt": 4804,
      "à°µà°¦": 4805,
      "à°µà°¶": 4806,
      "à°¡à°¶": 4807,
      "à°®à°Ĺ": 4808,
      "à°®à°Ń": 4809,
      "à°¸à°µ": 4810,
      "à°ªà°ķà°²": 4811,
      "alas": 4812,
      "eding": 4813,
      "Ġà¤ķà¤²": 4814,
      "à°Łà°¬à°¡": 4815,
      "arv": 4816,
      "arily": 4817,
      "andon": 4818,
      "ander": 4819,
      "Ġà°µà°ķà°¤à°ķ": 4820,
      "Ġinh": 4821,
      "Ġinher": 4822,
      "Ġinequ": 4823,
      "itage": 4824,
      "Ġaway": 4825,
      "à¤¨à¤¡": 4826,
      "Ġwaves": 4827,
      "Ġworn": 4828,
      "ĠIron": 4829,
      "Ġcrit": 4830,
      "Ġcos": 4831,
      "Ġcross": 4832,
      "Ġchief": 4833,
      "Ġcouncil": 4834,
      "Ġcyc": 4835,
      "Ġà°®à°£": 4836,
      "Ġsent": 4837,
      "Ġseen": 4838,
      "Ġsyn": 4839,
      "Ġsever": 4840,
      "Ġsaf": 4841,
      "Ġsources": 4842,
      "à°ľà°²": 4843,
      "ora": 4844,
      "orce": 4845,
      "oration": 4846,
      "à¤¯à¤¦": 4847,
      "ison": 4848,
      "ises": 4849,
      "Ġpil": 4850,
      "Ġpay": 4851,
      "Ġpost": 4852,
      "Ġphy": 4853,
      "Ġpenins": 4854,
      "à©Ģ)": 4855,
      "à¤ķà¤Ł": 4856,
      "Ġbo": 4857,
      "Ġbur": 4858,
      "Ġbri": 4859,
      "Ġbiodiversity": 4860,
      "Ġfre": 4861,
      "Ġfir": 4862,
      "Ġfle": 4863,
      "Ġfav": 4864,
      "Ġfart": 4865,
      "Ġfree": 4866,
      "Ġfaith": 4867,
      "à¨¤à¨¨": 4868,
      "ĠIndepend": 4869,
      "à°¶à°¯": 4870,
      "Ġmeat": 4871,
      "Ġmight": 4872,
      "Ġmeg": 4873,
      "Ġmiss": 4874,
      "icts": 4875,
      "omic": 4876,
      "omadic": 4877,
      "à©ĩ,": 4878,
      "ĠSov": 4879,
      "ĠSoc": 4880,
      "à°£à°¤": 4881,
      "à°£à°µ": 4882,
      "Ġà¤®à¤°": 4883,
      "ents": 4884,
      "ential": 4885,
      "à°¬à°²": 4886,
      "Ġà¤ªà¤¦": 4887,
      "Ġda": 4888,
      "Ġdate": 4889,
      "Ġdoc": 4890,
      "Ġdates": 4891,
      "Ġdances": 4892,
      "ĠTom": 4893,
      "ĠTel": 4894,
      "ĠTrav": 4895,
      "oured": 4896,
      "à¤®à¤°": 4897,
      "à¤®à¤¦": 4898,
      "à¤®à¤µà¤°": 4899,
      "à°·à°°": 4900,
      "à°·à°Ĺ": 4901,
      "à°·à°¨à°²": 4902,
      "Ġà°¤à°¯": 4903,
      "à¥ģ-": 4904,
      "à¥ģà¤Ĥ": 4905,
      "Ġtoler": 4906,
      "à¤²à¤ķ": 4907,
      "à¨¸à¨°": 4908,
      "ĠAli": 4909,
      "ĠAhm": 4910,
      "à¤µà¤¶": 4911,
      "Ġlo": 4912,
      "à°¹à°²": 4913,
      "à°¹à°¤": 4914,
      "à°¹à°¸": 4915,
      "à°¹à°ª": 4916,
      "Ġeither": 4917,
      "Ġà°īà°®": 4918,
      "ĠBah": 4919,
      "Ġhand": 4920,
      "Ġhom": 4921,
      "Ġhub": 4922,
      "Ġhuge": 4923,
      "Ġà¨¦à¨¹": 4924,
      "Ġà¨¸à¨ª": 4925,
      "Ġà¨¸à¨²à¨¤": 4926,
      "adw": 4927,
      "adami": 4928,
      "à¤¦à¤°": 4929,
      "Ġrece": 4930,
      "à¨¨à¨¸": 4931,
      "ĠMich": 4932,
      "ĠMall": 4933,
      "ĠMuh": 4934,
      "Ġ250": 4935,
      "Ġ2500": 4936,
      "ila": 4937,
      "à°¾à°Ĥ,": 4938,
      "à¤ªà¤ķ": 4939,
      "Ġnav": 4940,
      "Ġname": 4941,
      "Ġnext": 4942,
      "Ġnomadic": 4943,
      "ĠCar": 4944,
      "ĠCold": 4945,
      "à¨ķà¨°": 4946,
      "eva": 4947,
      "ĠPur": 4948,
      "ĠPerc": 4949,
      "imary": 4950,
      "à¤·à¤¦": 4951,
      "à©ĭ-": 4952,
      "à°¥à°®": 4953,
      "iva": 4954,
      "à¤Ĺà¤¢": 4955,
      "Ġà¨¹à¨®à¨²": 4956,
      "Ġà°Ĺà°¡": 4957,
      "Ġà¤ħà¤ľà¤¨": 4958,
      "à¨¼,": 4959,
      "à¨¼à©ĭ": 4960,
      "Ġrol": 4961,
      "Ġranges": 4962,
      "Ġrising": 4963,
      "Ġritual": 4964,
      "Ġà¤¨à¤¯": 4965,
      "Ġà¤µà¤¹": 4966,
      "Ġà°ĩà°°": 4967,
      "Ġà°ĩà°¤": 4968,
      "let": 4969,
      "ĠHorn": 4970,
      "à¨ļà¨²": 4971,
      "idd": 4972,
      "iding": 4973,
      "Ġà¨ħà¨ĸ": 4974,
      "Ġà¨ħà¨®à¨°": 4975,
      "ray": 4976,
      "ĠEd": 4977,
      "ĠEv": 4978,
      "ĠEar": 4979,
      "à¨®à¨¤": 4980,
      "à¤§à¤°": 4981,
      "ĠGond": 4982,
      "ĠGanga": 4983,
      "à©ģ-": 4984,
      "Ġbest": 4985,
      "à¤Łà¤²": 4986,
      "Ġà¨ķà¨¬à¨ľ": 4987,
      "à±ĥà°Ĥ": 4988,
      "ĠDal": 4989,
      "ĠDynast": 4990,
      "ĠDeep": 4991,
      "ĠRen": 4992,
      "ĠRel": 4993,
      "ĠRev": 4994,
      "ĠRam": 4995,
      "Ġà¤¤à¤¨": 4996,
      "Ġstone": 4997,
      "Ġforces": 4998,
      "odi": 4999,
      "Ġconcept": 5000,
      "aved": 5001,
      "avah": 5002,
      "avira": 5003,
      "ĠKos": 5004,
      "ĠKara": 5005,
      "ĠKush": 5006,
      "ĠKaveri": 5007,
      "ĠOf": 5008,
      "ĠOdisha": 5009,
      "ayana": 5010,
      "hers": 5011,
      "akti": 5012,
      "ove": 5013,
      "Ġexce": 5014,
      "resident": 5015,
      "Ġà¨ľà¨µ": 5016,
      "Ġà¤Ĩà¤ı": 5017,
      "Ġà¤Ĩà¤°à¤®": 5018,
      "Ġà¤Ĩà¤ķà¤°": 5019,
      "Ġà¨ĩà¨²": 5020,
      "à¨Ĺà¨¤": 5021,
      "Ġà¤īà¤Ńà¤°": 5022,
      "ĠNad": 5023,
      "ĠNay": 5024,
      "ĠNag": 5025,
      "Ġallow": 5026,
      "Ġalmost": 5027,
      "Ġanimal": 5028,
      "Ġanti": 5029,
      "à¤¼à¤¾à¥¤": 5030,
      "iant": 5031,
      "osely": 5032,
      "osphere": 5033,
      "ending": 5034,
      "Ġinternal": 5035,
      "Ġvot": 5036,
      "Ġvass": 5037,
      "Ġvarn": 5038,
      "Ġà¤²à¤¡": 5039,
      "mented": 5040,
      "ajanapadas": 5041,
      "ĠWater": 5042,
      "Ġà¨®à¨ľ": 5043,
      "ĠVaj": 5044,
      "ĠViceroy": 5045,
      "Ġorthod": 5046,
      "Ġ2020": 5047,
      "Ġ2021": 5048,
      "à°°à°£à°²": 5049,
      "ĠJud": 5050,
      "ĠJah": 5051,
      "ĠJinn": 5052,
      "Ġ1942": 5053,
      "Ġà¥¬": 5054,
      "Ġà¥®": 5055,
      "Ġà¥Ń": 5056,
      "ĠLal": 5057,
      "ĠLong": 5058,
      "Ġà°İà°°": 5059,
      "à¤ĸà¤°": 5060,
      "à¤ĸà¤¨": 5061,
      "à°¤à°¨à°²": 5062,
      "antly": 5063,
      "Ġitself": 5064,
      "Ġà¤ĩà¤¸à¤®": 5065,
      "Ġruling": 5066,
      "à°ĺà°Ł": 5067,
      "Ġà¨īà¨Ń": 5068,
      "ques": 5069,
      "ĠUN": 5070,
      "ĠUd": 5071,
      "ĠUp": 5072,
      "Ġà¨Ĩà¨ľ": 5073,
      "Ġà¨Ĩà¨Ĺ": 5074,
      "Ġà°ıà°¡": 5075,
      "hara": 5076,
      "ĠFort": 5077,
      "à°łà°Ń": 5078,
      "Ġcontempor": 5079,
      "Ġ73": 5080,
      "Ġ78": 5081,
      "Ġ1724": 5082,
      "Ġplant": 5083,
      "1900": 5084,
      "à°µà°¤à°²": 5085,
      "à°¨à°ªà°°": 5086,
      "eared": 5087,
      "Ġadap": 5088,
      "Ġ2018": 5089,
      "agement": 5090,
      "Ġbecoming": 5091,
      "Ġmarket": 5092,
      "à¨¥à¨²": 5093,
      "incely": 5094,
      "including": 5095,
      "Ġcoins": 5096,
      "ĠBengali": 5097,
      "Ġrelated": 5098,
      "Ġresearch": 5099,
      "meric": 5100,
      "Ġundert": 5101,
      "Ġnewly": 5102,
      "Ġheat": 5103,
      "Ġcompared": 5104,
      "Ġcomposition": 5105,
      "Ġcompanies": 5106,
      "Ġdecis": 5107,
      "Ġ2003": 5108,
      "Ġ90": 5109,
      "ĠRaja": 5110,
      "Ġgovernments": 5111,
      "Ġà°ĸà°Ĺ": 5112,
      "à©Įà¨Ĥ": 5113,
      "Ġformal": 5114,
      "Ġchanged": 5115,
      "1818": 5116,
      "à¤µà¤¤à¤¨": 5117,
      "Ġabandon": 5118,
      "Ġabove": 5119,
      "Ġsouthwest": 5120,
      "Ġà¨ĩà¨¸à¨²": 5121,
      "ĠThrough": 5122,
      "Ġreport": 5123,
      "Ġrepublics": 5124,
      "Ġ1969": 5125,
      "ipal": 5126,
      "inisters": 5127,
      "Ġnoted": 5128,
      "à¨°à¨¸à¨µà¨¤": 5129,
      "Ġà°¡à°ļ": 5130,
      "à°ªà°°à°ļ": 5131,
      "Ġextent": 5132,
      "acted": 5133,
      "Ġcla": 5134,
      "Ġclose": 5135,
      "Ġfounder": 5136,
      "Ġ1974": 5137,
      "Ġ1977": 5138,
      "Ġ1978": 5139,
      "Ġconsisted": 5140,
      "à¨ıà¨¸": 5141,
      "Ġinvolved": 5142,
      "Ġà¤Īà¤¸à¤µ": 5143,
      "Ġà¤°à¤¹à¤¤": 5144,
      "Ġappointed": 5145,
      "ology": 5146,
      "Ġ265": 5147,
      "Ġ2600": 5148,
      "Ġgener": 5149,
      "Ġarchaeological": 5150,
      "Ġjoin": 5151,
      "Ġmonarch": 5152,
      "2006": 5153,
      "Ġenacted": 5154,
      "ankton": 5155,
      "Ġtransm": 5156,
      "Ġtransition": 5157,
      "Ġtransform": 5158,
      "ettled": 5159,
      "à°ķà°°à°£à°²": 5160,
      "ailed": 5161,
      "Ġoceanic": 5162,
      "Ġ1984": 5163,
      "à°¯à°¸à°®": 5164,
      "Ġà°ķà°³à°²": 5165,
      "Ġempires": 5166,
      "Ġemerg": 5167,
      "ammad": 5168,
      "annel": 5169,
      "espread": 5170,
      "Ġattract": 5171,
      "Ġadvance": 5172,
      "Ġadvanced": 5173,
      "Ġà¨¸à¨°à¨¹": 5174,
      "ĠMald": 5175,
      "Ġsurface": 5176,
      "Ġmeas": 5177,
      "Ġmeet": 5178,
      "Ġsuccessors": 5179,
      "Ġgenerally": 5180,
      "Ġbelow": 5181,
      "Ġdeb": 5182,
      "Ġannually": 5183,
      "Ġrespectively": 5184,
      "Ġhistorian": 5185,
      "Ġsettled": 5186,
      "Ġnationalism": 5187,
      "Ġgreater": 5188,
      "Ġsignificantly": 5189,
      "Ġà°ĺà°ľ": 5190,
      "ĠPrincely": 5191,
      "ĠRajputs": 5192,
      "Ġcolonies": 5193,
      "Ġenter": 5194,
      "Ġentered": 5195,
      "Ġworks": 5196,
      "Ġsupported": 5197,
      "hwa": 5198,
      "Ġwidth": 5199,
      "Ġstrate": 5200,
      "Ġendemism": 5201,
      "à°ªà°ķà°³": 5202,
      "Ġcreation": 5203,
      "Ġà¨ħà¨°à¨¬": 5204,
      "Ġzones": 5205,
      "Ġzone": 5206,
      "à°ĩà°¦": 5207,
      "Ġcrust": 5208,
      "Ġbordering": 5209,
      "Ġà¤ľà¤²à¤µ": 5210,
      "Ġadded": 5211,
      "Ġseparates": 5212,
      "Ġsecular": 5213,
      "ĠOne": 5214,
      "Ġexclus": 5215,
      "Ġexcerpt": 5216,
      "à°İà°¸": 5217,
      "Ġconquered": 5218,
      "Ġcovers": 5219,
      "Ġcovered": 5220,
      "Ġfactor": 5221,
      "ĠShaiv": 5222,
      "Ġhydro": 5223,
      "Ġhymn": 5224,
      "Ġà¨ľà¨¨à¨®": 5225,
      "à°°à°®à°£à°¦": 5226,
      "Ġmarried": 5227,
      "Ġmarriage": 5228,
      "Ġmarriages": 5229,
      "Ġtechni": 5230,
      "Ġà°µà°²à°¸à°²": 5231,
      "Ġbroad": 5232,
      "Ġminor": 5233,
      "Ġminority": 5234,
      "Ġlatitude": 5235,
      "ĠHarihara": 5236,
      "ĠHimalayan": 5237,
      "Ġvolume": 5238,
      "Ġauthor": 5239,
      "Ġfinal": 5240,
      "ĠGovernors": 5241,
      "Ġcontributed": 5242,
      "Ġcontributions": 5243,
      "ographic": 5244,
      "à°°à°³à°²": 5245,
      "Ġshare": 5246,
      "Ġshared": 5247,
      "Ġgeograph": 5248,
      "Ġà¤Ĩà¤Ĺà¤®à¤¨": 5249,
      "Ġprocla": 5250,
      "Ġreforms": 5251,
      "Ġforests": 5252,
      "Ġtribal": 5253,
      "Ġtravell": 5254,
      "Ġcarried": 5255,
      "Ġdependent": 5256,
      "ripts": 5257,
      "Ġproduction": 5258,
      "Ġà¨Ĩà¨°à¨¥à¨ķ": 5259,
      "Ġdescribes": 5260,
      "Ġsuggested": 5261,
      "Ġoblig": 5262,
      "Ġsailors": 5263,
      "ĠBharat": 5264,
      "Ġhabitat": 5265,
      "ĠGhats": 5266,
      "Ġvisit": 5267,
      "Ġpolicy": 5268,
      "Ġpolicies": 5269,
      "Ġreferred": 5270,
      "Ġschools": 5271,
      "Ġcreating": 5272,
      "Ġsalin": 5273,
      "Ġfeud": 5274,
      "ĠSomali": 5275,
      "ĠAntarctic": 5276,
      "Ġà¨¸à¨«à¨²": 5277,
      "ĠEconomy": 5278,
      "ĠKannada": 5279,
      "Ġmaintained": 5280,
      "Ġsuffered": 5281,
      "Ġservice": 5282,
      "Ġemployed": 5283,
      "ĠCoastal": 5284,
      "Ġcharacterised": 5285,
      "Ġcurrency": 5286,
      "Ġà¤Ĳà¤¸": 5287,
      "Ġturned": 5288,
      "ĠSpear": 5289,
      "ĠSilk": 5290,
      "ĠBasin": 5291,
      "ĠCanal": 5292,
      "ĠCape": 5293,
      "Ġconducted": 5294,
      "Ġà¤Ĩà¤¸à¤ª": 5295,
      "Ġintegration": 5296,
      "ĠWhile": 5297,
      "Ġcoalition": 5298,
      "Ġimmediately": 5299,
      "Ġpollution": 5300,
      "Ġà¥¨à¥¦à¥§à¥": 5301,
      "Ġassassinated": 5302,
      "ancore": 5303,
      "Ġsquare": 5304,
      "Ġmentioned": 5305,
      "ĠApril": 5306,
      "Ġlittoral": 5307,
      "ĠGermany": 5308,
      "ĠKushan": 5309,
      "ĠNepal": 5310,
      "Ġcombined": 5311,
      "Ġprosper": 5312,
      "Ġadopted": 5313,
      "ronze": 5314,
      "ĠAmritsar": 5315,
      "Ġquickly": 5316,
      "ĠKalinga": 5317,
      "European": 5318,
      "Maratha": 5319,
      "cretic": 5320,
      "majority": 5321,
      "Ġinequality": 5322,
      "Ġsyncretic": 5323,
      "Ġpeninsular": 5324,
      "Ġbrief": 5325,
      "ĠIndependence": 5326,
      "ĠSoviet": 5327,
      "ĠTravancore": 5328,
      "Ġà¨¸à¨²à¨¤à¨¨à¨¤": 5329,
      "ĠMichael": 5330,
      "ĠMuhammad": 5331,
      "ĠPercival": 5332,
      "ĠGondwana": 5333,
      "ĠDynasty": 5334,
      "ĠKarachi": 5335,
      "Ġorthodox": 5336,
      "ĠJinnah": 5337,
      "Ġhymns": 5338,
      "%;": 5339,
      ".)": 5340,
      "2000": 5341,
      "52": 5342,
      "66": 5343,
      "600": 5344,
      "650": 5345,
      "75": 5346,
      "76": 5347,
      "81": 5348,
      "82": 5349,
      "83": 5350,
      "85": 5351,
      "95": 5352,
      "Ar": 5353,
      "Brahm": 5354,
      "Ch": 5355,
      "DA": 5356,
      "DW": 5357,
      "Gangetic": 5358,
      "HO": 5359,
      "Is": 5360,
      "Prat": 5361,
      "SU": 5362,
      "Sh": 5363,
      "aic": 5364,
      "axim": 5365,
      "aipur": 5366,
      "bed": 5367,
      "cast": 5368,
      "ches": 5369,
      "called": 5370,
      "calf": 5371,
      "colonial": 5372,
      "dram": 5373,
      "ein": 5374,
      "eing": 5375,
      "eth": 5376,
      "fact": 5377,
      "gal": 5378,
      "hin": 5379,
      "hich": 5380,
      "house": 5381,
      "iation": 5382,
      "iary": 5383,
      "jo": 5384,
      "ject": 5385,
      "kim": 5386,
      "lin": 5387,
      "lies": 5388,
      "less": 5389,
      "lankton": 5390,
      "mly": 5391,
      "mill": 5392,
      "nic": 5393,
      "nov": 5394,
      "nings": 5395,
      "oist": 5396,
      "pre": 5397,
      "pects": 5398,
      "rist": 5399,
      "rated": 5400,
      "rong": 5401,
      "rations": 5402,
      "right": 5403,
      "rising": 5404,
      "sp": 5405,
      "self": 5406,
      "tion": 5407,
      "top": 5408,
      "thel": 5409,
      "ternational": 5410,
      "ux": 5411,
      "uz": 5412,
      "ufact": 5413,
      "went": 5414,
      "wali": 5415,
      "ways": 5416,
      "where": 5417,
      "welling": 5418,
      "which": 5419,
      "zad": 5420,
      "zamb": 5421,
      "Â±": 5422,
      "Ġ;": 5423,
      "Ġil": 5424,
      "Ġens": 5425,
      "Ġide": 5426,
      "ĠÂ±": 5427,
      "à°ĥ": 5428,
      "à°Ĳ": 5429,
      "Ġà°Ĭ": 5430,
      "Ġà°ĭ": 5431,
      "à°¾:": 5432,
      "à±į\"": 5433,
      "Ġà¤Ŀ": 5434,
      "à°¿),": 5435,
      "à°°à°¡": 5436,
      "à°°à°ļ": 5437,
      "à°°à°«": 5438,
      "à°Ĥ;": 5439,
      "à±ģ;": 5440,
      "à°²à°Ń": 5441,
      "à°¨à°Ĺ": 5442,
      "Ġà¨Ł": 5443,
      "à©Ń": 5444,
      "Ġte": 5445,
      "Ġties": 5446,
      "Ġtest": 5447,
      "Ġtell": 5448,
      "Ġtreas": 5449,
      "Ġtuna": 5450,
      "à°¤à°²à°²": 5451,
      "hend": 5452,
      "hered": 5453,
      "à¤¾'": 5454,
      "à¤¾)": 5455,
      "anz": 5456,
      "anes": 5457,
      "anth": 5458,
      "à°¦à°¡": 5459,
      "à°¦à°¶": 5460,
      "à°ķà°¸": 5461,
      "ini": 5462,
      "ination": 5463,
      "à¤°à¤²": 5464,
      "à¤°à¤¬": 5465,
      "ongest": 5466,
      "onomy": 5467,
      "ergy": 5468,
      "eritage": 5469,
      "à°µà°ľ": 5470,
      "Ġovers": 5471,
      "Ġà°ªà°¡": 5472,
      "Ġà°ªà°°à°®": 5473,
      "Ġà°ªà°¤à°ķ": 5474,
      "Ġà°ªà°¡à°Ĺ": 5475,
      "à°¡à°ķ": 5476,
      "à°¡à°¸": 5477,
      "à°¡à°ª": 5478,
      "à°¡à°Ń": 5479,
      "à°¡à°ªà°²": 5480,
      "rel": 5481,
      "relig": 5482,
      "atar": 5483,
      "à°ªà°¯": 5484,
      "à°ªà°¶": 5485,
      "aland": 5486,
      "alys": 5487,
      "enhouse": 5488,
      "Ġà¤ķà¤¨": 5489,
      "Ġà¤ķà¤ª": 5490,
      "Ġà¤ķà¤Ł": 5491,
      "Ġà°¸à°¤": 5492,
      "aram": 5493,
      "ardh": 5494,
      "à°ļà°ķ": 5495,
      "à°ļà°¨à°²": 5496,
      "à°ļà°Ĺà°²": 5497,
      "à±Ģ-": 5498,
      "Ġà°µà°¨à°ªà°°": 5499,
      "Ġinit": 5500,
      "Ġinstitution": 5501,
      "Ġinsc": 5502,
      "Ġiniti": 5503,
      "Ġinnov": 5504,
      "itated": 5505,
      "itiz": 5506,
      "itted": 5507,
      "itness": 5508,
      "Ġaut": 5509,
      "à¤¨à¤°": 5510,
      "Ġwro": 5511,
      "Ġwear": 5512,
      "Ġwanted": 5513,
      "Ġwitness": 5514,
      "Ġà°ķà°·": 5515,
      "Ġcat": 5516,
      "Ġcro": 5517,
      "Ġcore": 5518,
      "Ġcaval": 5519,
      "Ġcabinet": 5520,
      "Ġcitiz": 5521,
      "Ġà°®à°®": 5522,
      "Ġsy": 5523,
      "Ġsil": 5524,
      "Ġsev": 5525,
      "Ġsid": 5526,
      "Ġsac": 5527,
      "Ġsoutheast": 5528,
      "Ġsari": 5529,
      "Ġsearch": 5530,
      "ioned": 5531,
      "à°ľà°Ĺ": 5532,
      "orial": 5533,
      "orbed": 5534,
      "à¤¯à¤Łà¤¨": 5535,
      "à¨°à¨«": 5536,
      "isher": 5537,
      "isations": 5538,
      "Ġ119": 5539,
      "Ġput": 5540,
      "Ġple": 5541,
      "Ġpet": 5542,
      "Ġpatt": 5543,
      "Ġpharma": 5544,
      "Ġpoint": 5545,
      "à°§à°µ": 5546,
      "à°§à°µà°°": 5547,
      "esop": 5548,
      "Ġbr": 5549,
      "Ġbig": 5550,
      "Ġblow": 5551,
      "Ġfell": 5552,
      "Ġfight": 5553,
      "Ġfram": 5554,
      "Ġfood": 5555,
      "Ġfract": 5556,
      "Ġfront": 5557,
      "Ġfeared": 5558,
      "à¨¤à¨²": 5559,
      "à°¶à°°à°¥": 5560,
      "à¥ĭ-": 5561,
      "ased": 5562,
      "Ġmort": 5563,
      "Ġmount": 5564,
      "Ġmission": 5565,
      "Ġmake": 5566,
      "Ġmakes": 5567,
      "Ġmangrov": 5568,
      "Ġmaxim": 5569,
      "Ġà°°à°¦": 5570,
      "Ġà°°à°ľ": 5571,
      "à¤¸à¤¤": 5572,
      "omp": 5573,
      "à©ĩ-": 5574,
      "ĠSa": 5575,
      "ĠSel": 5576,
      "ĠSim": 5577,
      "ĠSch": 5578,
      "ĠSik": 5579,
      "ĠShel": 5580,
      "ĠSabha": 5581,
      "à°£à°®": 5582,
      "Ġà°ħà°ľ": 5583,
      "Ġà¤®à¤Ĺ": 5584,
      "Ġà¤®à¤ľ": 5585,
      "à°¬à°¦": 5586,
      "Ġden": 5587,
      "Ġdet": 5588,
      "Ġdeg": 5589,
      "Ġdistance": 5590,
      "ĠTha": 5591,
      "ĠTwo": 5592,
      "ĠTung": 5593,
      "ĠTirth": 5594,
      "ĠTrench": 5595,
      "oup": 5596,
      "ouis": 5597,
      "à¤®à¤²": 5598,
      "à¤®à¤ª": 5599,
      "ecess": 5600,
      "à°·à°¯": 5601,
      "à°·à°²à°¨": 5602,
      "à°·à°²à°²": 5603,
      "Ġà°¤à°Ĺ": 5604,
      "elac": 5605,
      "Ġà¤¹à¤¸": 5606,
      "Ġà¤¹à¤¡": 5607,
      "Ġtoge": 5608,
      "Ġtowards": 5609,
      "Ġà°Ńà°°": 5610,
      "ĠAle": 5611,
      "ĠArav": 5612,
      "ĠAmeric": 5613,
      "ĠAzad": 5614,
      "Ġlive": 5615,
      "Ġline": 5616,
      "Ġlaw": 5617,
      "Ġlaun": 5618,
      "Ġliber": 5619,
      "Ġlongest": 5620,
      "Ġà°īà°§": 5621,
      "ĠBan": 5622,
      "ĠBaj": 5623,
      "ĠBuk": 5624,
      "ĠBadami": 5625,
      "Ġhig": 5626,
      "Ġhundred": 5627,
      "Ġà¨¦à¨°à¨¸": 5628,
      "Ġà¨¸à¨ķ": 5629,
      "Ġà¨¸à¨°à¨¸à¨µà¨¤": 5630,
      "à°°à°¤à°®": 5631,
      "à¤¦à¤¯": 5632,
      "Ġrest": 5633,
      "Ġreal": 5634,
      "Ġreef": 5635,
      "à¨¨à¨ķ": 5636,
      "à¨¨à¨Ĺà¨°": 5637,
      "ĠMay": 5638,
      "ĠMet": 5639,
      "ĠMinister": 5640,
      "ĠMesop": 5641,
      "Ġà°Ĩà°¤": 5642,
      "Ġà°Ĩà°¡": 5643,
      "Ġà°Ĩà°ľ": 5644,
      "Ġà°Ĩà°¹": 5645,
      "Ġ27": 5646,
      "à¤¹à¤¨": 5647,
      "ulk": 5648,
      "iland": 5649,
      "ilak": 5650,
      "ceut": 5651,
      "cetic": 5652,
      "Ġà°¬à°¹à°¦": 5653,
      "Ġà°¬à°²à°µ": 5654,
      "Ġà°¬à°¯à°Ł": 5655,
      "à¤ªà¤¦": 5656,
      "à¤ªà¤£": 5657,
      "à¨²à¨µ": 5658,
      "Ġnam": 5659,
      "Ġneg": 5660,
      "ĠChe": 5661,
      "ĠCha": 5662,
      "ĠCouncil": 5663,
      "ĠCalc": 5664,
      "Ġ1919": 5665,
      "amount": 5666,
      "amuna": 5667,
      "amitra": 5668,
      "ĠPre": 5669,
      "ĠPus": 5670,
      "ĠPresident": 5671,
      "ĠPSU": 5672,
      "ima": 5673,
      "iming": 5674,
      "à°¥à°¨": 5675,
      "ivate": 5676,
      "ivities": 5677,
      "à¤Ĺà¤®": 5678,
      "à¤Ĺà¤¹": 5679,
      "à¤Ĺà¤ľ": 5680,
      "à¤Ĺà¤ł": 5681,
      "Ġà°Ĺà°¨": 5682,
      "Ġà¤ħà¤ľ": 5683,
      "Ġà¤ħà¤¸à¤®": 5684,
      "à¤ľà¤¸": 5685,
      "à¤ľà¤Ł": 5686,
      "à¤ľà¤¯à¤¨": 5687,
      "à¨¼à©Ī": 5688,
      "istence": 5689,
      "Ġrain": 5690,
      "Ġrich": 5691,
      "Ġrose": 5692,
      "Ġà¤¨à¤®": 5693,
      "Ġà¤ľà¤Ĺà¤¹": 5694,
      "Ġà°ĩà°²": 5695,
      "Ġgas": 5696,
      "Ġgain": 5697,
      "Ġgend": 5698,
      "Ġgarb": 5699,
      "Ġgolden": 5700,
      "Ġthus": 5701,
      "à¨Ĩà¨ļ": 5702,
      "Ġà¤¬à¤ľà¤Ł": 5703,
      "uty": 5704,
      "uted": 5705,
      "utta": 5706,
      "cha": 5707,
      "chin": 5708,
      "ching": 5709,
      "legal": 5710,
      "ĠHamp": 5711,
      "ĠHouse": 5712,
      "ĠHeritage": 5713,
      "à¨ļà¨¨": 5714,
      "usc": 5715,
      "uss": 5716,
      "Ġà¨ħà¨¹": 5717,
      "Ġà¨ħà¨¬": 5718,
      "Ġà¨ħà¨ķà¨¤": 5719,
      "rao": 5720,
      "ĠEqu": 5721,
      "ĠEuras": 5722,
      "Ġà¨ªà¨²": 5723,
      "Ġà¨ªà¨ł": 5724,
      "Ġà°²à°²": 5725,
      "union": 5726,
      "unte": 5727,
      "ĠGu": 5728,
      "ĠGaj": 5729,
      "ĠGwali": 5730,
      "à¨¹à¨µ": 5731,
      "Ġà¤¦à¤¸": 5732,
      "à©Ĥ-": 5733,
      "Ġascetic": 5734,
      "Ġbeh": 5735,
      "Ġbegun": 5736,
      "ems": 5737,
      "à¤Łà¤µ": 5738,
      "à¨µà¨²": 5739,
      "à¨µà¨°à¨¤": 5740,
      "Ġà¨ķà¨¦": 5741,
      "Ġà¨ķà¨®": 5742,
      "Ġà¨ķà¨¹": 5743,
      "à°³à°°": 5744,
      "à°³à°¡": 5745,
      "Ġà¨¨à¨µ": 5746,
      "Ġà¤°à¤¤": 5747,
      "Ġà¤°à¤ļà¤¨": 5748,
      "à°ĸà°®": 5749,
      "ĠDhar": 5750,
      "ĠDespite": 5751,
      "ĠRes": 5752,
      "ĠRout": 5753,
      "ĠReb": 5754,
      "ĠRÃ©": 5755,
      "ĠRanj": 5756,
      "Ġà¤¤à¤¬": 5757,
      "Ġà¤¤à¤°à¤¹": 5758,
      "Ġstand": 5759,
      "Ġstated": 5760,
      "à°µà°°à°²": 5761,
      "à°¤à°°à°Ń": 5762,
      "oples": 5763,
      "Ġà¨Ńà¨°à¨¤": 5764,
      "oda": 5765,
      "Ġconce": 5766,
      "Ġconfl": 5767,
      "Ġconstruct": 5768,
      "âĢ²": 5769,
      "Ġsuper": 5770,
      "avy": 5771,
      "avati": 5772,
      "à¨°à¨¤à¨Ĺ": 5773,
      "ĠKarn": 5774,
      "ĠKhan": 5775,
      "ĠKrishn": 5776,
      "ĠOver": 5777,
      "ĠOtt": 5778,
      "Ġwithd": 5779,
      "Ġons": 5780,
      "Ġwhole": 5781,
      "ested": 5782,
      "à¨ªà¨°": 5783,
      "aken": 5784,
      "ovember": 5785,
      "Ġexisting": 5786,
      "Ġà¤Ĩà¤®": 5787,
      "à¨Ĺà¨ľ": 5788,
      "Ġà¤īà¤·": 5789,
      "à¤ļà¤²": 5790,
      "ĠNuclear": 5791,
      "ĠNortheast": 5792,
      "à¤¡à¤°": 5793,
      "à¤¼à¥ĭà¤Ĥ": 5794,
      "osing": 5795,
      "udh": 5796,
      "Ġà¨¤à¨®": 5797,
      "Ġ31": 5798,
      "Ġ32": 5799,
      "Ġ35": 5800,
      "Ġvary": 5801,
      "Ġcentres": 5802,
      "ulture": 5803,
      "riya": 5804,
      "ĠWare": 5805,
      "Ġà¨¬à¨Ĺ": 5806,
      "ducing": 5807,
      "Ġà¤¯à¤¦": 5808,
      "aga": 5809,
      "agar": 5810,
      "agos": 5811,
      "apur": 5812,
      "apse": 5813,
      "apala": 5814,
      "apons": 5815,
      "itya": 5816,
      "Ġà°¸à°®à°¸": 5817,
      "Ġord": 5818,
      "Ġ2026": 5819,
      "ott": 5820,
      "otam": 5821,
      "ĠInc": 5822,
      "ĠInternational": 5823,
      "ĠJust": 5824,
      "soons": 5825,
      "illing": 5826,
      "Ġ1943": 5827,
      "Ġ1945": 5828,
      "anging": 5829,
      "à¥Īà¤Ĥ:": 5830,
      "Ġà¥©": 5831,
      "ĠLangu": 5832,
      "ĠLouis": 5833,
      "à¨¬à¨²à¨¤": 5834,
      "tered": 5835,
      "à¤ĸà¤£": 5836,
      "Ġ1849": 5837,
      "Ġà¨Ĺà¨łà¨ľ": 5838,
      "ored": 5839,
      "Ġà¤ıà¤¨": 5840,
      "Ġà¤ıà¤²": 5841,
      "Ġà¨īà¨¨": 5842,
      "Ġà¨īà¨¸à¨¨": 5843,
      "ework": 5844,
      "Ġunre": 5845,
      "Ġuncom": 5846,
      "Ġà¤ļà¤ķ": 5847,
      "ĠChitt": 5848,
      "ĠChannel": 5849,
      "ĠChagos": 5850,
      "à¨Ńà¨¦": 5851,
      "Ġà¨Ĩà¨ı": 5852,
      "à¨Łà¨²": 5853,
      "à¨Łà¨ķ": 5854,
      "alleng": 5855,
      "Ġ650": 5856,
      "Ġ647": 5857,
      "ounded": 5858,
      "Ġregard": 5859,
      "Ġ5000": 5860,
      "Ġspice": 5861,
      "Ġà°®à°¹à°®": 5862,
      "Ġà°Ĵà°°": 5863,
      "heduled": 5864,
      "pping": 5865,
      "ĠFact": 5866,
      "ĠFollow": 5867,
      "Ġà¤¸à¤®à¤Ŀ": 5868,
      "Ġ700": 5869,
      "erals": 5870,
      "ordin": 5871,
      "Ġplan": 5872,
      "Ġsubordin": 5873,
      "193": 5874,
      "Ġyoung": 5875,
      "à°¨à°ªà°¡": 5876,
      "Ġ1565": 5877,
      "Ġà°Ĵà°ķà°°": 5878,
      "each": 5879,
      "Ġ42": 5880,
      "Ġà°ķà°²à°¹": 5881,
      "ike": 5882,
      "à°¯à°ķà°²": 5883,
      "Ġexpress": 5884,
      "Ġexports": 5885,
      "Ġmarginal": 5886,
      "à°°à°ľà°²à°²": 5887,
      "Ġcoelac": 5888,
      "Ġà©¦": 5889,
      "Ġà©«": 5890,
      "Ġresources": 5891,
      "Ġprimary": 5892,
      "Ġprivate": 5893,
      "à¥Įà¤Ĥ": 5894,
      "à°¸à°°à°²": 5895,
      "Ġending": 5896,
      "Ġdecreas": 5897,
      "Ġdecade": 5898,
      "Ġ900": 5899,
      "Ġ9000": 5900,
      "à¥Ģà¤Ĥà¥¤": 5901,
      "Ġpopulated": 5902,
      "Ġnorthwestern": 5903,
      "ruary": 5904,
      "Ġà°ĸà°°": 5905,
      "Ġà°ĸà°²": 5906,
      "Ġà°ĸà°¨": 5907,
      "ĠItal": 5908,
      "owned": 5909,
      "Ġcultiv": 5910,
      "Ġpolitics": 5911,
      "Ġformation": 5912,
      "2012": 5913,
      "Ġpeoples": 5914,
      "185": 5915,
      "Ġ1646": 5916,
      "Ġpowerful": 5917,
      "Ġabol": 5918,
      "à°¨à°µà°¨": 5919,
      "Ġà¨ļà¨²": 5920,
      "Ġreplaced": 5921,
      "Ġà¥§à¥«": 5922,
      "loth": 5923,
      "à°¡à°µà°ļ": 5924,
      "Ġ1961": 5925,
      "Ġ1964": 5926,
      "Ġimprov": 5927,
      "ensis": 5928,
      "Ġà°ķà°µà°¯": 5929,
      "Ġdisint": 5930,
      "Ġeleven": 5931,
      "ards": 5932,
      "Ġà°¡à°¯": 5933,
      "Ġwhereas": 5934,
      "ĠStein": 5935,
      "Ġextend": 5936,
      "orship": 5937,
      "ements": 5938,
      "Ġthereafter": 5939,
      "Ġ1975": 5940,
      "Ġ1976": 5941,
      "Ġconsists": 5942,
      "Ġconsump": 5943,
      "Ġà¨§à¨°à¨¤": 5944,
      "Ġmoving": 5945,
      "Ġinvolving": 5946,
      "ification": 5947,
      "à¤łà¤ķ": 5948,
      "à°²à°µà°¬à°¡": 5949,
      "Ġbasins": 5950,
      "Ġupon": 5951,
      "uck": 5952,
      "Ġcommitte": 5953,
      "egates": 5954,
      "Ġshall": 5955,
      "Ġoffice": 5956,
      "Ġrecent": 5957,
      "Ġrefl": 5958,
      "ologically": 5959,
      "Ġ1996": 5960,
      "iberal": 5961,
      "Ġà°ħà°µà°ķ": 5962,
      "Ġ260": 5963,
      "Ġà°Ĺà°£à°ªà°¤": 5964,
      "Ġprec": 5965,
      "Ġprep": 5966,
      "Ġthroughout": 5967,
      "Ġarchipelag": 5968,
      "arman": 5969,
      "Ġremain": 5970,
      "Ġremaining": 5971,
      "Ġincrease": 5972,
      "indi": 5973,
      "Ġoutp": 5974,
      "Ġoutput": 5975,
      "Ġoutside": 5976,
      "Ġoccas": 5977,
      "Ġmonsoons": 5978,
      "Ġenabl": 5979,
      "Ġenviron": 5980,
      "ĠConc": 5981,
      "Ġtransport": 5982,
      "Äģt": 5983,
      "Ġà¥¨à¥¨": 5984,
      "Ġà¥¨à¥ª": 5985,
      "Ġà¤ĺà¤°": 5986,
      "Ġnumerous": 5987,
      "Ġ1989": 5988,
      "240": 5989,
      "hyamitra": 5990,
      "Ġinterests": 5991,
      "Ġcivilian": 5992,
      "Ġimportance": 5993,
      "Ġactivities": 5994,
      "Ġsigned": 5995,
      "Ġattacked": 5996,
      "ĠMahajanapadas": 5997,
      "Ġadvoc": 5998,
      "Ġcause": 5999,
      "Ġcauses": 6000,
      "Ġterritorial": 6001,
      "Ġweapons": 6002,
      "Ġsurround": 6003,
      "Ġmethod": 6004,
      "Ġsuccessor": 6005,
      "Ġsuccessful": 6006,
      "orne": 6007,
      "Ġbelief": 6008,
      "ĠMadras": 6009,
      "Ġannounced": 6010,
      "Ġhistorians": 6011,
      "Ġà¤ħà¤µà¤§": 6012,
      "Ġgreatest": 6013,
      "Ġinfluences": 6014,
      "Ġà©§à©¨": 6015,
      "Ġdemographic": 6016,
      "Ġdominant": 6017,
      "Ġdominance": 6018,
      "Ġreven": 6019,
      "Ġrevol": 6020,
      "Ġrevolution": 6021,
      "Ġgreenhouse": 6022,
      "agadh": 6023,
      "Ġà°ĺà°¨à°¤": 6024,
      "Ġviolent": 6025,
      "lamic": 6026,
      "Ġentire": 6027,
      "Ġdivorce": 6028,
      "Ġlegislation": 6029,
      "Ġwidespread": 6030,
      "iction": 6031,
      "Ġvaried": 6032,
      "Ġoriginal": 6033,
      "Ġcommunications": 6034,
      "à¨ĺà¨°à¨¸": 6035,
      "henjo": 6036,
      "Ġwriters": 6037,
      "Ġmedic": 6038,
      "Ġ1901": 6039,
      "Ġ1905": 6040,
      "Ġ1906": 6041,
      "Ġ1909": 6042,
      "Ġtraditionally": 6043,
      "Ġexpanding": 6044,
      "Ġinvasion": 6045,
      "Ġoccupied": 6046,
      "à°¸à°Ńà°²": 6047,
      "Ġborders": 6048,
      "Ġmathematicians": 6049,
      "Ġefficient": 6050,
      "ĠJunagadh": 6051,
      "Ġà¤ĭà¤Ĺ": 6052,
      "à°µà°¹à°£": 6053,
      "Ġcensuses": 6054,
      "Ġconquest": 6055,
      "ishnu": 6056,
      "Ġparticip": 6057,
      "Ġofficially": 6058,
      "Ġprevent": 6059,
      "Ġprevious": 6060,
      "ebruary": 6061,
      "Ġinstead": 6062,
      "Ġcovering": 6063,
      "Ġpromot": 6064,
      "Ġfamous": 6065,
      "Ġfamines": 6066,
      "Ġmanagement": 6067,
      "Ġmanufact": 6068,
      "Ġmanusc": 6069,
      "Ġhyp": 6070,
      "à°ĸà°°à°°": 6071,
      "Ġà¨ľà¨¨à¨µà¨°": 6072,
      "Ġconsiderable": 6073,
      "pedition": 6074,
      "Ġà¤Ĭà¤ªà¤°": 6075,
      "anchi": 6076,
      "Ġopposed": 6077,
      "Ġsixteen": 6078,
      "Ġbroke": 6079,
      "ĠBhakti": 6080,
      "abhata": 6081,
      "Ġvolunte": 6082,
      "Ġrecords": 6083,
      "à°¨à°ķà°µ": 6084,
      "ĠAden": 6085,
      "Ġequator": 6086,
      "ĠPolitical": 6087,
      "Ġroute": 6088,
      "Ġ606": 6089,
      "Ġshowed": 6090,
      "Ġleadership": 6091,
      "Ġembra": 6092,
      "Ġpoet": 6093,
      "Ġportion": 6094,
      "Ġpredecess": 6095,
      "Ġfamily": 6096,
      "Ġdelta": 6097,
      "Ġdelegates": 6098,
      "Ġdevast": 6099,
      "Ġdevot": 6100,
      "Ġretreat": 6101,
      "ĠPalas": 6102,
      "Ġformerly": 6103,
      "duction": 6104,
      "Ġestablishment": 6105,
      "Ġà©§à©¯à©¬": 6106,
      "Ġparticularly": 6107,
      "Ġtribes": 6108,
      "Ġdestro": 6109,
      "ouchables": 6110,
      "Ġgoverned": 6111,
      "ĠHistorian": 6112,
      "ĠHistorians": 6113,
      "ĠGaut": 6114,
      "Ġorganised": 6115,
      "ĠJapanese": 6116,
      "Ġexplor": 6117,
      "Ġabsorbed": 6118,
      "Ġdistrict": 6119,
      "Ġresponsible": 6120,
      "à¤°à¤ļà¤²": 6121,
      "Ġopen": 6122,
      "Ġà°ķà°¥à°¨": 6123,
      "Ġdepth": 6124,
      "Ġhabitats": 6125,
      "ĠMozamb": 6126,
      "ĠMohenjo": 6127,
      "Ġrunning": 6128,
      "Ġvisited": 6129,
      "Ġà¥§à¥¦": 6130,
      "Ġsubsequently": 6131,
      "Ġcommonly": 6132,
      "Ġmigrated": 6133,
      "Ġmigrations": 6134,
      "ĠâĢĺ": 6135,
      "Ġcirculation": 6136,
      "ĠTurks": 6137,
      "Ġnetworks": 6138,
      "Ġà°Ĺà°ľà°ªà°¤": 6139,
      "ĠExpedition": 6140,
      "ĠEconomic": 6141,
      "ĠWithin": 6142,
      "Ġdisputed": 6143,
      "Ġdisputes": 6144,
      "Ġirreg": 6145,
      "ĠImperial": 6146,
      "à¤¯à¤¸à¤Ń": 6147,
      "Ġpersist": 6148,
      "Ġboundary": 6149,
      "Ġmutiny": 6150,
      "Ġepics": 6151,
      "Ġnominal": 6152,
      "Ġnominated": 6153,
      "Ġneverthel": 6154,
      "Ġà¤ħà¤Ĺà¤¸": 6155,
      "ĠHaryana": 6156,
      "ĠHaryanka": 6157,
      "ĠDesert": 6158,
      "Ġ345": 6159,
      "Ġvillage": 6160,
      "Ġvillages": 6161,
      "Ġcooked": 6162,
      "Ġcooking": 6163,
      "Ġextensive": 6164,
      "Ġà¥¨à¥¦à¥¦à¥ª": 6165,
      "Ġbuilding": 6166,
      "Ġlabourers": 6167,
      "known": 6168,
      "violence": 6169,
      "Ġà¤ĳà¤«": 6170,
      "Ġà¨Ķà¨°": 6171,
      "Ġwaist": 6172,
      "Ġsultanates": 6173,
      "Ġbody": 6174,
      "ĠSunda": 6175,
      "ĠTrade": 6176,
      "Ġreaching": 6177,
      "ĠPeople": 6178,
      "ĠPeshwa": 6179,
      "ĠHemisphere": 6180,
      "ĠKadambas": 6181,
      "aksha": 6182,
      "Ġ3300": 6183,
      "Ġproportion": 6184,
      "Ġà¨īà¨¤à¨ª": 6185,
      "Ġhelped": 6186,
      "Ġknowledge": 6187,
      "ĠSumatra": 6188,
      "Ġfossils": 6189,
      "daro": 6190,
      "Ġprior": 6191,
      "Ġfarmers": 6192,
      "ĠSatavah": 6193,
      "Ġtowns": 6194,
      "ĠPanchala": 6195,
      "irtually": 6196,
      "Ġissue": 6197,
      "Ġsteel": 6198,
      "Ġexercised": 6199,
      "Ġà¨¬à¨¦à¨²": 6200,
      "Ġkilometres": 6201,
      "ĠVolume": 6202,
      "Ġexpedition": 6203,
      "Ġindenture": 6204,
      "ĠHindustan": 6205,
      "Ġdefinition": 6206,
      "Ġadministrators": 6207,
      "Ġà¤ĭà¤·à¤Ńà¤¦": 6208,
      "Ġpredominantly": 6209,
      "Ġecosystems": 6210,
      "ĠÅļramaá¹ĩa": 6211,
      "ĠVaishnav": 6212,
      "ĠCommissioners": 6213,
      "Ġtitles": 6214,
      "Ġseverely": 6215,
      "Ġphytop": 6216,
      "Ġfrequ": 6217,
      "Ġfirmly": 6218,
      "Ġdocu": 6219,
      "Ġroles": 6220,
      "ĠEdward": 6221,
      "ĠRenaissance": 6222,
      "Ġexceeding": 6223,
      "Ġadapted": 6224,
      "Ġundertook": 6225,
      "Ġtransmitted": 6226,
      "Ġtransformed": 6227,
      "ĠMaldives": 6228,
      "Ġstrateg": 6229,
      "Ġtechniques": 6230,
      "Ġproclaimed": 6231,
      "Ġtraveller": 6232,
      "Ġvisitors": 6233,
      "Ġprosperity": 6234,
      "Ġbriefly": 6235,
      "Ġorthodoxy": 6236,
      "Artic": 6237,
      "Islamic": 6238,
      "dramas": 6239,
      "Ġillegal": 6240,
      "Ġinitially": 6241,
      "Ġinscript": 6242,
      "Ġwrote": 6243,
      "Ġcavalry": 6244,
      "Ġpharmaceut": 6245,
      "Ġframework": 6246,
      "Ġmortality": 6247,
      "Ġmaximum": 6248,
      "ĠSikkim": 6249,
      "ĠShelf": 6250,
      "Ġà¤®à¤Ĺà¤§": 6251,
      "ĠThailand": 6252,
      "ĠTungabhadra": 6253,
      "ĠTirthank": 6254,
      "Ġtogether": 6255,
      "Ġlaunched": 6256,
      "ĠBukka": 6257,
      "Ġreefs": 6258,
      "ĠMetcalf": 6259,
      "ĠMesopotam": 6260,
      "ĠCalcutta": 6261,
      "ĠPushyamitra": 6262,
      "à¤ľà¤¯à¤¨à¤Ĺà¤°": 6263,
      "Ġgarbage": 6264,
      "ĠHampi": 6265,
      "Ġà¨ħà¨ķà¨¤à¨¸": 6266,
      "ĠEquator": 6267,
      "ĠGwalior": 6268,
      "ĠRÃ©union": 6269,
      "ĠRanjit": 6270,
      "à¨¬à¨²à¨¤à¨¨": 6271,
      "Ġuncommon": 6272,
      "ĠFollowing": 6273,
      "Ġdisinteg": 6274,
      "Ġconsumption": 6275,
      "Ġpredecessors": 6276,
      "ĠMozambique": 6277,
      "Ġnevertheless": 6278,
      "Ġphytoplankton": 6279,
      "Ġpharmaceutical": 6280,
      "')": 6281,
      ")à¥¤": 6282,
      ".;": 6283,
      "01": 6284,
      "04": 6285,
      "022": 6286,
      "250": 6287,
      "38": 6288,
      "41": 6289,
      "43": 6290,
      "415": 6291,
      "59": 6292,
      "521": 6293,
      "62": 6294,
      "67": 6295,
      "630": 6296,
      "71": 6297,
      "700": 6298,
      "7000": 6299,
      "800": 6300,
      "92": 6301,
      "Am": 6302,
      "Arab": 6303,
      "Austral": 6304,
      "Burma": 6305,
      "GW": 6306,
      "Hak": 6307,
      "Laccadive": 6308,
      "OW": 6309,
      "Oxford": 6310,
      "PP": 6311,
      "Ved": 6312,
      "Western": 6313,
      "aff": 6314,
      "auj": 6315,
      "bra": 6316,
      "bot": 6317,
      "bha": 6318,
      "ck": 6319,
      "cl": 6320,
      "cies": 6321,
      "carb": 6322,
      "ds": 6323,
      "ding": 6324,
      "dition": 6325,
      "dden": 6326,
      "ege": 6327,
      "eum": 6328,
      "euc": 6329,
      "eolithic": 6330,
      "fed": 6331,
      "fices": 6332,
      "ga": 6333,
      "gress": 6334,
      "gather": 6335,
      "general": 6336,
      "ground": 6337,
      "ho": 6338,
      "hor": 6339,
      "hom": 6340,
      "had": 6341,
      "hol": 6342,
      "ham": 6343,
      "history": 6344,
      "iel": 6345,
      "ken": 6346,
      "king": 6347,
      "killed": 6348,
      "lic": 6349,
      "like": 6350,
      "men": 6351,
      "mitt": 6352,
      "mopol": 6353,
      "mosphere": 6354,
      "mapala": 6355,
      "oz": 6356,
      "och": 6357,
      "ocean": 6358,
      "por": 6359,
      "pic": 6360,
      "pay": 6361,
      "pts": 6362,
      "pet": 6363,
      "pired": 6364,
      "riv": 6365,
      "rian": 6366,
      "rdu": 6367,
      "rust": 6368,
      "rise": 6369,
      "rule": 6370,
      "roup": 6371,
      "ser": 6372,
      "sur": 6373,
      "sid": 6374,
      "such": 6375,
      "tle": 6376,
      "tropical": 6377,
      "touchability": 6378,
      "ve": 6379,
      "vant": 6380,
      "vention": 6381,
      "wal": 6382,
      "water": 6383,
      "wise": 6384,
      "yre": 6385,
      "ªà¥Ń": 6386,
      "Ġult": 6387,
      "Ġif": 6388,
      "Ġund": 6389,
      "Ġeng": 6390,
      "Ġess": 6391,
      "Ġice": 6392,
      "à¤ī": 6393,
      "à¨Ĳ": 6394,
      "Ġà¤ł": 6395,
      "à°¿\"": 6396,
      "à°°à°Ł": 6397,
      "à°Ĥ).": 6398,
      "à°²à°ľ": 6399,
      "à°²à°¬": 6400,
      "à©¯": 6401,
      "Ġtur": 6402,
      "Ġtreat": 6403,
      "Ġtip": 6404,
      "Ġtitle": 6405,
      "Ġtreaty": 6406,
      "Ġtyp": 6407,
      "Ġtaken": 6408,
      "Ġteach": 6409,
      "à°¤à°¸": 6410,
      "à°¤à°¶": 6411,
      "à°¤à°²à°ķ": 6412,
      "à°¤à°ķà°°": 6413,
      "ane": 6414,
      "anak": 6415,
      "ancial": 6416,
      "à°¦à°°à°£": 6417,
      "à°ķà°ķ": 6418,
      "à°ķà°Ĺ": 6419,
      "à°ķà°ľ": 6420,
      "à°ķà°Łà°°": 6421,
      "inat": 6422,
      "inth": 6423,
      "inies": 6424,
      "inqu": 6425,
      "iness": 6426,
      "à°¯à°¤à°¨": 6427,
      "à°¯à°¦à°°": 6428,
      "Ġtheory": 6429,
      "à¤°à¤Ĺà¤¤": 6430,
      "onse": 6431,
      "erar": 6432,
      "eries": 6433,
      "eros": 6434,
      "erors": 6435,
      "ergu": 6436,
      "à°µà°Ń": 6437,
      "à°µà°²à°¨": 6438,
      "à°µà°³": 6439,
      "à°Ĺà°¦": 6440,
      "à°Ĺà°¦à°°": 6441,
      "à°Ĺà°®à°¨": 6442,
      "à°Ĺà°¢": 6443,
      "à°Ĺà°³à°°": 6444,
      "Ġox": 6445,
      "Ġoper": 6446,
      "à°¡à°³": 6447,
      "à°¡à°²à°²": 6448,
      "rep": 6449,
      "reland": 6450,
      "à°¸à°°à°®": 6451,
      "atis": 6452,
      "atom": 6453,
      "atus": 6454,
      "atik": 6455,
      "atrap": 6456,
      "à°ªà°µà°ļ": 6457,
      "stant": 6458,
      "alk": 6459,
      "alu": 6460,
      "alia": 6461,
      "enith": 6462,
      "enior": 6463,
      "encies": 6464,
      "Ġà¤ķà¤¥": 6465,
      "Ġà¤ķà¤¡": 6466,
      "Ġà°¸à°µ": 6467,
      "à¤Ĥ,": 6468,
      "à°Łà°¯": 6469,
      "à°Łà°¸": 6470,
      "à°Łà°ķà°²": 6471,
      "à°¿à°Ĥ-": 6472,
      "arc": 6473,
      "arrow": 6474,
      "aravati": 6475,
      "andh": 6476,
      "à¥Ģ.": 6477,
      "Ġà°µà°Ł": 6478,
      "Ġà°µà°²à°¨": 6479,
      "itan": 6480,
      "itment": 6481,
      "itance": 6482,
      "itals": 6483,
      "à¤¨à¤²": 6484,
      "Ġwet": 6485,
      "Ġwood": 6486,
      "Ġwelf": 6487,
      "ĠIan": 6488,
      "ĠIreland": 6489,
      "Ġcal": 6490,
      "Ġcow": 6491,
      "Ġcra": 6492,
      "Ġcop": 6493,
      "Ġcost": 6494,
      "Ġcred": 6495,
      "Ġcust": 6496,
      "Ġcare": 6497,
      "Ġcattle": 6498,
      "Ġcoral": 6499,
      "Ġcurrent": 6500,
      "Ġcloth": 6501,
      "Ġà°®à°¯": 6502,
      "Ġà°®à°ł": 6503,
      "Ġà°®à°¨à°¦": 6504,
      "Ġshe": 6505,
      "Ġsit": 6506,
      "Ġsom": 6507,
      "Ġsay": 6508,
      "Ġsiz": 6509,
      "Ġsamp": 6510,
      "Ġscient": 6511,
      "Ġsought": 6512,
      "Ġship": 6513,
      "Ġself": 6514,
      "Ġsacked": 6515,
      "Ġskilled": 6516,
      "à°ľà°®": 6517,
      "à°ľà°¸": 6518,
      "oro": 6519,
      "oros": 6520,
      "orous": 6521,
      "origin": 6522,
      "à¤¯à¤²": 6523,
      "isen": 6524,
      "isis": 6525,
      "isine": 6526,
      "Ġ120": 6527,
      "à¨¿,": 6528,
      "Ġpur": 6529,
      "Ġpos": 6530,
      "Ġpill": 6531,
      "Ġpens": 6532,
      "Ġphas": 6533,
      "Ġpett": 6534,
      "Ġpubl": 6535,
      "Ġpush": 6536,
      "à°§à°Ń": 6537,
      "à°§à°°à°£": 6538,
      "à©Ģ.": 6539,
      "à¤ķà¤²": 6540,
      "Ġbar": 6541,
      "Ġbond": 6542,
      "Ġbran": 6543,
      "Ġbones": 6544,
      "Ġbring": 6545,
      "Ġbeds": 6546,
      "Ġbronze": 6547,
      "Ġful": 6548,
      "Ġfut": 6549,
      "Ġfac": 6550,
      "Ġfine": 6551,
      "Ġflo": 6552,
      "Ġfash": 6553,
      "Ġfrag": 6554,
      "Ġfather": 6555,
      "Ġfolk": 6556,
      "Ġà¤¸à¤¶": 6557,
      "à°¶à°µ": 6558,
      "à°¶à°µà°°": 6559,
      "asa": 6560,
      "ase": 6561,
      "asse": 6562,
      "Ġmya": 6563,
      "Ġmales": 6564,
      "Ġministers": 6565,
      "Ġmoist": 6566,
      "icch": 6567,
      "icus": 6568,
      "ician": 6569,
      "ĠIndira": 6570,
      "à¤¸à¤¸": 6571,
      "à¤¸à¤²": 6572,
      "à¤¸à¤¶": 6573,
      "inger": 6574,
      "à±Ĥ-": 6575,
      "ĠSI": 6576,
      "ĠSm": 6577,
      "ĠShe": 6578,
      "ĠSan": 6579,
      "ĠSam": 6580,
      "ĠSun": 6581,
      "ĠSher": 6582,
      "ĠSard": 6583,
      "ĠSind": 6584,
      "ĠSite": 6585,
      "ĠSharma": 6586,
      "ĠSÄģt": 6587,
      "Ġà°¨à°·": 6588,
      "à°£à°¶": 6589,
      "Ġà°ħà°ĸ": 6590,
      "Ġà°ħà°¡à°µ": 6591,
      "Ġà°ħà°°à°µ": 6592,
      "entar": 6593,
      "entually": 6594,
      "à°¬à°¨": 6595,
      "Ġà°ļà°¤": 6596,
      "Ġà°ļà°µ": 6597,
      "Ġà¤ªà¤ł": 6598,
      "Ġà¤ªà¤¤à¤¨": 6599,
      "Ġdi": 6600,
      "Ġdual": 6601,
      "Ġdry": 6602,
      "Ġdram": 6603,
      "Ġdating": 6604,
      "Ġdrew": 6605,
      "ĠTir": 6606,
      "ĠTri": 6607,
      "ĠThar": 6608,
      "ĠTip": 6609,
      "ĠTib": 6610,
      "ĠTimes": 6611,
      "ĠTrip": 6612,
      "ĠTeth": 6613,
      "ĠTilak": 6614,
      "oura": 6615,
      "ecogn": 6616,
      "ecause": 6617,
      "elt": 6618,
      "elen": 6619,
      "eland": 6620,
      "Ġà¤¹à¤¤": 6621,
      "Ġtop": 6622,
      "à¤²à¤¦": 6623,
      "à¨¸à¨µ": 6624,
      "ĠAc": 6625,
      "ĠAth": 6626,
      "à¤µà¤¯": 6627,
      "à¤µà¤§": 6628,
      "Ġlit": 6629,
      "Ġlies": 6630,
      "Ġlived": 6631,
      "Ġliberal": 6632,
      "ura": 6633,
      "uris": 6634,
      "urid": 6635,
      "urang": 6636,
      "urran": 6637,
      "à°¹à°¶": 6638,
      "Ġeas": 6639,
      "ĠBar": 6640,
      "ĠBur": 6641,
      "ĠBund": 6642,
      "ĠBrown": 6643,
      "ĠBlack": 6644,
      "ĠBerar": 6645,
      "Ġham": 6646,
      "Ġhun": 6647,
      "Ġhost": 6648,
      "Ġhome": 6649,
      "Ġhomin": 6650,
      "Ġhold": 6651,
      "Ġhouse": 6652,
      "Ġhosts": 6653,
      "Ġà¨¦à¨¸": 6654,
      "ads": 6655,
      "adem": 6656,
      "aditya": 6657,
      "à¥ĩà¤Ĥ)": 6658,
      "à¥ĩà¤Ĥà¥¤": 6659,
      "à¤¦à¤¨": 6660,
      "Ġreas": 6661,
      "Ġreun": 6662,
      "Ġrequ": 6663,
      "à¨¨à¨ª": 6664,
      "ĠMe": 6665,
      "ĠMor": 6666,
      "ĠMam": 6667,
      "ĠMaj": 6668,
      "ĠMac": 6669,
      "ĠMeh": 6670,
      "ĠMyan": 6671,
      "ĠMumb": 6672,
      "ĠMih": 6673,
      "Ġà°Ĩà°³": 6674,
      "Ġà°Ĩà°¨à°µ": 6675,
      "Ġà°Ĩà°ļà°°": 6676,
      "à¤¹à¤¤": 6677,
      "thra": 6678,
      "third": 6679,
      "uls": 6680,
      "uly": 6681,
      "ulab": 6682,
      "ulars": 6683,
      "iled": 6684,
      "Ġà¨µà¨°à¨¤": 6685,
      "Ġà°¬à°¤": 6686,
      "Ġà°¬à°®": 6687,
      "Ġà¤Ńà¤ķ": 6688,
      "oli": 6689,
      "olls": 6690,
      "olute": 6691,
      "à¤ªà¤¶": 6692,
      "à¤ªà¤ı": 6693,
      "à¨²à¨Ŀ": 6694,
      "à¨²à¨¸à¨°": 6695,
      "Ġnor": 6696,
      "Ġnine": 6697,
      "Ġnarrow": 6698,
      "ĠCor": 6699,
      "ĠCont": 6700,
      "ĠCaves": 6701,
      "ĠCarnat": 6702,
      "ĠClimate": 6703,
      "Ġ1911": 6704,
      "à¨ķà¨²": 6705,
      "à¨ķà¨£": 6706,
      "à¨ķà¨°à¨£": 6707,
      "Ġà°ľà°¹": 6708,
      "Ġà°ľà°²à°ª": 6709,
      "Ġà°ľà°²à°Ĺ": 6710,
      "amy": 6711,
      "ĠPet": 6712,
      "ĠPot": 6713,
      "ĠPass": 6714,
      "ĠPGW": 6715,
      "ectus": 6716,
      "ectual": 6717,
      "lying": 6718,
      "à¤·à¤¤": 6719,
      "à¤·à¤°à¤¤": 6720,
      "à°¥à°µ": 6721,
      "à°¥à°Ĺ": 6722,
      "iven": 6723,
      "Ġà¨¹à¨°": 6724,
      "Ġà¨¹à¨¸à¨¤": 6725,
      "Ġà¨¹à©ľ": 6726,
      "Ġà°Ĺà°¤": 6727,
      "Ġà¤ħà¤ļ": 6728,
      "Ġà¤ħà¤Ĺà¤²": 6729,
      "Ġà¤ħà¤¥à¤µ": 6730,
      "à¤ľà¤¹": 6731,
      "à¤ľà¤Ń": 6732,
      "Ġro": 6733,
      "Ġrad": 6734,
      "Ġrough": 6735,
      "Ġrice": 6736,
      "Ġrati": 6737,
      "Ġrhin": 6738,
      "Ġà¤¨à¤Ī": 6739,
      "Ġà°¶à°°": 6740,
      "Ġà¤µà¤¨": 6741,
      "Ġà¤µà¤ķ": 6742,
      "Ġà¤µà¤¸": 6743,
      "Ġà¤µà¤ľà¤¹": 6744,
      "Ġà°ĩà°³": 6745,
      "Ġà°ĩà°Łà°²": 6746,
      "Ġgl": 6747,
      "Ġgulf": 6748,
      "Ġgeolog": 6749,
      "Ġgaining": 6750,
      "Ġgrain": 6751,
      "Ġthous": 6752,
      "Ġthrone": 6753,
      "à¨Ĩà¨Ī": 6754,
      "Ġà¤¬à¤¤": 6755,
      "uta": 6756,
      "utle": 6757,
      "chre": 6758,
      "lem": 6759,
      "lement": 6760,
      "ĠHum": 6761,
      "ĠHill": 6762,
      "ĠHoy": 6763,
      "ĠHuna": 6764,
      "iger": 6765,
      "igorous": 6766,
      "usp": 6767,
      "idel": 6768,
      "Ġà¨ħà¨²": 6769,
      "Ġà¨ħà¨ķà¨¸": 6770,
      "raits": 6771,
      "à¥Ĥ,": 6772,
      "à¥Ĥ-": 6773,
      "ĠEl": 6774,
      "ĠEnd": 6775,
      "ĠEth": 6776,
      "ĠEry": 6777,
      "ĠEll": 6778,
      "à¨®à¨¨": 6779,
      "à¨®à¨µà¨°à¨¸": 6780,
      "Ġà°²à°ļ": 6781,
      "unct": 6782,
      "unaga": 6783,
      "ĠGe": 6784,
      "ĠGod": 6785,
      "ĠGeolog": 6786,
      "ĠGeneral": 6787,
      "ĠGama": 6788,
      "ĠGolden": 6789,
      "ĠGulab": 6790,
      "Ġà¤¦à¤²": 6791,
      "Ġaspects": 6792,
      "emen": 6793,
      "emic": 6794,
      "romise": 6795,
      "à¨µà¨¸": 6796,
      "à¨µà¨¸à¨¥": 6797,
      "Ġà¨ķà¨²": 6798,
      "Ġà¨ķà©ľ": 6799,
      "Ġà¨¨à¨¤": 6800,
      "Ġà¨¨à¨¸": 6801,
      "erson": 6802,
      "à°ĸà°²": 6803,
      "à¨ľà¨°": 6804,
      "à¨ľà¨ķ": 6805,
      "ithili": 6806,
      "ĠDi": 6807,
      "ĠDav": 6808,
      "ĠDay": 6809,
      "ĠDog": 6810,
      "ĠDance": 6811,
      "ĠDisc": 6812,
      "ĠDurran": 6813,
      "ĠRs": 6814,
      "ĠRig": 6815,
      "ĠRoman": 6816,
      "Ġstri": 6817,
      "Ġstress": 6818,
      "Ġstron": 6819,
      "Ġstood": 6820,
      "abil": 6821,
      "abhar": 6822,
      "abour": 6823,
      "abited": 6824,
      "Ġà°¹à°¸": 6825,
      "opal": 6826,
      "opala": 6827,
      "ode": 6828,
      "Ġconsequ": 6829,
      "Ġconfed": 6830,
      "âĢĻ": 6831,
      "Ġsust": 6832,
      "à¤Ńà¤ķ": 6833,
      "à¤Ńà¤µà¤°": 6834,
      "avÄģ": 6835,
      "avarsha": 6836,
      "ĠKak": 6837,
      "ĠKum": 6838,
      "ĠKhy": 6839,
      "ĠKsh": 6840,
      "ĠKanish": 6841,
      "ĠKergu": 6842,
      "ĠOchre": 6843,
      "Ġà¤ĩà¤ļ": 6844,
      "Ġwhom": 6845,
      "Ġwhite": 6846,
      "establ": 6847,
      "à¨£à¨ķ": 6848,
      "à¨ªà¨¦": 6849,
      "akat": 6850,
      "ainly": 6851,
      "ainted": 6852,
      "over": 6853,
      "oved": 6854,
      "overed": 6855,
      "Ġexistence": 6856,
      "Ġà¨ľà¨®à¨¹": 6857,
      "Ġà¤Ĩà¤ł": 6858,
      "Ġà¨ĩà¨ķ": 6859,
      "ishunaga": 6860,
      "à¨Ĺà¨®": 6861,
      "Ġà¤īà¤²": 6862,
      "Ġà¤īà¤ł": 6863,
      "à¤ļà¤µ": 6864,
      "ĠNo": 6865,
      "ĠNon": 6866,
      "ĠNar": 6867,
      "ĠNDA": 6868,
      "ĠNovember": 6869,
      "Ġanth": 6870,
      "à¤¼,": 6871,
      "à°²à°ķà°¤": 6872,
      "ianity": 6873,
      "iances": 6874,
      "etah": 6875,
      "osen": 6876,
      "osite": 6877,
      "Ġà¨¤à¨°": 6878,
      "Ġà¨¤à¨¦": 6879,
      "Ġà¨¤à¨Ł": 6880,
      "Ġintell": 6881,
      "Ġintens": 6882,
      "Ġintention": 6883,
      "Ġ38": 6884,
      "Ġ350": 6885,
      "Ġviceroy": 6886,
      "Ġview": 6887,
      "Ġvirtually": 6888,
      "Ġvege": 6889,
      "Ġvigorous": 6890,
      "Ġcentred": 6891,
      "aji": 6892,
      "riha": 6893,
      "rifices": 6894,
      "Ġà¨®à¨°": 6895,
      "Ġà¨¬à¨²": 6896,
      "arter": 6897,
      "arting": 6898,
      "artite": 6899,
      "Ġà°¯à°®": 6900,
      "acer": 6901,
      "agore": 6902,
      "agues": 6903,
      "aggar": 6904,
      "umn": 6905,
      "apore": 6906,
      "eph": 6907,
      "Ġkame": 6908,
      "Ġkey": 6909,
      "ĠVir": 6910,
      "ĠVall": 6911,
      "ĠVasc": 6912,
      "ĠVats": 6913,
      "ĠVakat": 6914,
      "Ġà¨°à¨ļà¨¨": 6915,
      "Ġorally": 6916,
      "Ġ205": 6917,
      "Ġ2019": 6918,
      "Ġ2024": 6919,
      "otra": 6920,
      "à°°à°£à°Ĺ": 6921,
      "ĠInst": 6922,
      "ĠJhar": 6923,
      "ĠJava": 6924,
      "ĠJuly": 6925,
      "ills": 6926,
      "ials": 6927,
      "angir": 6928,
      "Ġà¥¯": 6929,
      "à¨ĸà¨¦": 6930,
      "Ġatmosphere": 6931,
      "Ġatolls": 6932,
      "ĠLank": 6933,
      "ĠLaksh": 6934,
      "ĠLaccadive": 6935,
      "ĠLodi": 6936,
      "ĠLicch": 6937,
      "ĠLabour": 6938,
      "à¨¬à¨¨": 6939,
      "Ġtrig": 6940,
      "Ġà°İà°²à°ķ": 6941,
      "iff": 6942,
      "à¤ĸà¤¨à¤¨": 6943,
      "Ġ1818": 6944,
      "Ġ1899": 6945,
      "Ġ1846": 6946,
      "Ġarid": 6947,
      "Ġarising": 6948,
      "Ġproved": 6949,
      "Ġprojected": 6950,
      "ocked": 6951,
      "oceros": 6952,
      "à¤ıà¤¶à¤¨": 6953,
      "à°ĺà°°": 6954,
      "à°ĺà°ķ": 6955,
      "Ġà¨īà¨¦": 6956,
      "Ġà¨īà¨¹à¨¨": 6957,
      "Ġunit": 6958,
      "Ġunknown": 6959,
      "Ġuntouchability": 6960,
      "Ġà¤ļà¤°à¤®": 6961,
      "ĠChh": 6962,
      "ĠChar": 6963,
      "ĠChrist": 6964,
      "ĠUrdu": 6965,
      "à¨Ńà¨µà¨°à¨¸": 6966,
      "Ġà¨Ĩà¨ī": 6967,
      "à¨Łà¨¸": 6968,
      "Ġà°ıà°¡à°µ": 6969,
      "arya": 6970,
      "allel": 6971,
      "Ġ63": 6972,
      "Ġ65": 6973,
      "Ġregist": 6974,
      "Ġ52": 6975,
      "Ġ550": 6976,
      "Ġ565": 6977,
      "Ġà°®à°¹à°²": 6978,
      "Ġà°Ĵà°²": 6979,
      "Ġà¨²à¨¹": 6980,
      "Ġà°īà°ªà°¨à°¦": 6981,
      "pped": 6982,
      "ĠFed": 6983,
      "ĠFore": 6984,
      "ĠFive": 6985,
      "ĠFurther": 6986,
      "ĠFisher": 6987,
      "ĠFebruary": 6988,
      "nthes": 6989,
      "ricket": 6990,
      "Ġcontrast": 6991,
      "à¨ħà¨µà¨°à¨¤": 6992,
      "ords": 6993,
      "Ġà¤ķà¤°à¤µ": 6994,
      "ĠMahend": 6995,
      "ĠMaithili": 6996,
      "Ġ1700": 6997,
      "Ġ1799": 6998,
      "Ġ1765": 6999,
      "Ġ1770": 7000,
      "Ġplunder": 7001,
      "Ġplural": 7002,
      "Ġplains": 7003,
      "Ġsubdu": 7004,
      "1998": 7005,
      "1990": 7006,
      "1951": 7007,
      "Ġyou": 7008,
      "Ġyet": 7009,
      "Ġ1518": 7010,
      "ogamy": 7011,
      "ength": 7012,
      "Ġ44": 7013,
      "Ġ45": 7014,
      "Ġ4000": 7015,
      "sets": 7016,
      "Ġ2016": 7017,
      "ikota": 7018,
      "Ġexplo": 7019,
      "Ġexpected": 7020,
      "Ġexperi": 7021,
      "Ġparties": 7022,
      "Ġmarital": 7023,
      "Ġmarks": 7024,
      "Ġà°īà°¦à°¯": 7025,
      "Ġà°īà°¦à°¯à°ª": 7026,
      "Ġindirect": 7027,
      "Ġmillions": 7028,
      "à°°à°ľà°²à°¨": 7029,
      "à°°à°ľà°²à°ķ": 7030,
      "à°¤à°®à°¯": 7031,
      "Ġcoinage": 7032,
      "Ġà©ª": 7033,
      "Ġrelative": 7034,
      "Ġrelinqu": 7035,
      "Ġresident": 7036,
      "Ġresistance": 7037,
      "Ġregionally": 7038,
      "Ġprison": 7039,
      "Ġearth": 7040,
      "Ġhered": 7041,
      "Ġheight": 7042,
      "Ġheights": 7043,
      "Ġhealth": 7044,
      "Ġheaded": 7045,
      "reath": 7046,
      "Ġcompet": 7047,
      "Ġcompromise": 7048,
      "à°¯à°¤à°²": 7049,
      "Ġoverran": 7050,
      "Ġdecolon": 7051,
      "Ġdecidu": 7052,
      "Ġgrands": 7053,
      "Ġgranted": 7054,
      "ĠPakistani": 7055,
      "ĠRajag": 7056,
      "ĠRajya": 7057,
      "Ġpopulous": 7058,
      "Ġà¤Īà¤¦": 7059,
      "ryas": 7060,
      "2010": 7061,
      "2014": 7062,
      "ught": 7063,
      "Ġ82": 7064,
      "Ġ83": 7065,
      "à°¨à°¦à°¨": 7066,
      "à©ľà¨ķ": 7067,
      "Ġchose": 7068,
      "Ġchains": 7069,
      "Ġchalleng": 7070,
      "Ġchurid": 7071,
      "Ġchosen": 7072,
      "1858": 7073,
      "1833": 7074,
      "à¨ĩà¨¤": 7075,
      "ountry": 7076,
      "Ġà¨ĩà¨¸à¨¨": 7077,
      "ganization": 7078,
      "ĠThom": 7079,
      "ĠThree": 7080,
      "ĠThird": 7081,
      "ĠThanes": 7082,
      "Ġà°ľà°¨à°¤": 7083,
      "Ġà°ľà°¨à°µà°°": 7084,
      "Ġà°ľà°¨à°Ĺà°£": 7085,
      "Ġà¥§à¥¨": 7086,
      "Ġ1966": 7087,
      "Ġà¤¬à¤¨à¤¨": 7088,
      "ipat": 7089,
      "iputra": 7090,
      "ipitation": 7091,
      "Ġallies": 7092,
      "Ġalliances": 7093,
      "Ġdishes": 7094,
      "Ġdiseas": 7095,
      "Ġelect": 7096,
      "Ġeleph": 7097,
      "hmani": 7098,
      "Ġ1255": 7099,
      "ĠStill": 7100,
      "Ġà¤®à¤¨à¤®": 7101,
      "alsa": 7102,
      "Ġclans": 7103,
      "Ġclothes": 7104,
      "ĠAlong": 7105,
      "ĠAlso": 7106,
      "Ġthereby": 7107,
      "acking": 7108,
      "exp": 7109,
      "Ġà¨«à¨²à¨¸à¨°": 7110,
      "Ġà¤«à¤²": 7111,
      "Ġsocio": 7112,
      "rence": 7113,
      "Ġà°Ĩà°¯à°¨à°¨": 7114,
      "Ġà¨ķà¨°à¨£": 7115,
      "1772": 7116,
      "1798": 7117,
      "1707": 7118,
      "ahili": 7119,
      "Ġà°ªà°¦à°¹": 7120,
      "Ġparamount": 7121,
      "Ġparallel": 7122,
      "egu": 7123,
      "izont": 7124,
      "Ġ1957": 7125,
      "Ġ1958": 7126,
      "Ġusually": 7127,
      "à¤ĩà¤¯": 7128,
      "à¤ĩà¤¸": 7129,
      "Ġoffsh": 7130,
      "Ġleads": 7131,
      "Ġappare": 7132,
      "Ġappoint": 7133,
      "ĠArt": 7134,
      "ological": 7135,
      "à¤ľà¤¨à¤ªà¤¦": 7136,
      "Ġà¤īà¤¨à¤®": 7137,
      "Ġspecial": 7138,
      "ible": 7139,
      "Ġacceded": 7140,
      "Ġaccomp": 7141,
      "ĠArabia": 7142,
      "Ġlandm": 7143,
      "raph": 7144,
      "roleum": 7145,
      "Ġpreced": 7146,
      "Ġgenetic": 7147,
      "Ġarchaic": 7148,
      "Ġprincipal": 7149,
      "ukh": 7150,
      "Ġjud": 7151,
      "onda": 7152,
      "Ġslope": 7153,
      "Ġmonths": 7154,
      "Ġà¥§à¥¯à¥«à¥¦": 7155,
      "Ġà¥§à¥¯à¥ªà¥Ń": 7156,
      "Ġdeveloping": 7157,
      "2001": 7158,
      "2002": 7159,
      "Ġenergy": 7160,
      "Ġamend": 7161,
      "ĠGandhara": 7162,
      "Äģrat": 7163,
      "Ġinform": 7164,
      "Ġscale": 7165,
      "Ġscripts": 7166,
      "Ġscheduled": 7167,
      "Ġà°Ĩà°Ĺà°®à°¨": 7168,
      "Ġà¥¨à¥¬": 7169,
      "Ġà¤¡à¤ļ": 7170,
      "à°ķà°°à°£à°¨": 7171,
      "Ġmilit": 7172,
      "Ġmillet": 7173,
      "Ġassign": 7174,
      "Ġassemb": 7175,
      "Ġartic": 7176,
      "Ġartists": 7177,
      "Ġartistic": 7178,
      "Ġà¤ĺà¤Łà¤¨": 7179,
      "à°µà°¨à°ķ": 7180,
      "Ġcapita": 7181,
      "issa": 7182,
      "issions": 7183,
      "ĠShast": 7184,
      "ĠShak": 7185,
      "ĠShiva": 7186,
      "Ġnumerals": 7187,
      "Ġ1983": 7188,
      "Ġ1985": 7189,
      "ietnam": 7190,
      "ertain": 7191,
      "Ġlasting": 7192,
      "à¤¹à¤°à¤Ĺà¤¢": 7193,
      "Ġsupplied": 7194,
      "Ġprovince": 7195,
      "Ġaccept": 7196,
      "Ġà°ķà°³à°²à°ķ": 7197,
      "Ġseals": 7198,
      "Ġseek": 7199,
      "ĠAttle": 7200,
      "Ġintermitt": 7201,
      "Ġà¨Īà¨¸à¨Ł": 7202,
      "Ġproduce": 7203,
      "Ġlegal": 7204,
      "Ġlegacy": 7205,
      "anned": 7206,
      "ographers": 7207,
      "á¹ĩ": 7208,
      "Ġ...": 7209,
      "ĠIsland": 7210,
      "Ġpatch": 7211,
      "ĠMahÄģ": 7212,
      "ĠMahavira": 7213,
      "ĠMahabhar": 7214,
      "Ġadvent": 7215,
      "à¥¨à¥¦à¥¦": 7216,
      "ĠMalay": 7217,
      "ĠMalacc": 7218,
      "oints": 7219,
      "Ġwealth": 7220,
      "Ġsurpass": 7221,
      "Ġliterary": 7222,
      "Ġsuccessive": 7223,
      "Ġà¨Ĩà¨ªà¨¸": 7224,
      "ĠPlasse": 7225,
      "ĠJanata": 7226,
      "ĠJanapadas": 7227,
      "Ġresponse": 7228,
      "1565": 7229,
      "ĠYoung": 7230,
      "ĠSingapore": 7231,
      "ĠSumer": 7232,
      "Ġhistorically": 7233,
      "Ġà¤ħà¤µà¤¸": 7234,
      "Ġà©§à©§": 7235,
      "Ġà°®à°Ĺà°§à°²": 7236,
      "hanas": 7237,
      "Ġdemocracy": 7238,
      "Ġdemocratic": 7239,
      "ĠAmaravati": 7240,
      "teenth": 7241,
      "Ġà°ĺà°°": 7242,
      "à¥«à¥¨": 7243,
      "atiya": 7244,
      "ĠPrime": 7245,
      "ĠPrince": 7246,
      "à¨®à¨°à¨ľ": 7247,
      "lamen": 7248,
      "Ġtextil": 7249,
      "Ġworked": 7250,
      "Ġdivision": 7251,
      "Ġdivisions": 7252,
      "Ġlegislatures": 7253,
      "Ġà°Ĳà°ķ": 7254,
      "Ġwarri": 7255,
      "Ġhimself": 7256,
      "ĠProvince": 7257,
      "Ġoriginally": 7258,
      "Ġpartitioned": 7259,
      "Ġcommunal": 7260,
      "Ġcommunity": 7261,
      "Ġerectus": 7262,
      "à°·à°£à°¨": 7263,
      "1948": 7264,
      "ruction": 7265,
      "Ġrepresenting": 7266,
      "Ġoccupations": 7267,
      "Ġpatrons": 7268,
      "comp": 7269,
      "Ġzeb": 7270,
      "Ġzenith": 7271,
      "à°ĩà°¸": 7272,
      "Ġà°¸à°²à°¹": 7273,
      "Ġcrisis": 7274,
      "à¤ķà¤¸à¤Ń": 7275,
      "Ġmathematical": 7276,
      "Ġmathematician": 7277,
      "à¨¸à¨ķà¨°": 7278,
      "Ġeffort": 7279,
      "Ġseparated": 7280,
      "Ġindustries": 7281,
      "333": 7282,
      "iquity": 7283,
      "ooks": 7284,
      "archy": 7285,
      "Ġflowering": 7286,
      "Ġneither": 7287,
      "ĠEnviron": 7288,
      "Ġdistinctions": 7289,
      "Ġpeacefully": 7290,
      "Ġmerged": 7291,
      "Ġmeridian": 7292,
      "Ġdrain": 7293,
      "Ġdrawn": 7294,
      "Ġdrainage": 7295,
      "Ġdrafted": 7296,
      "Ġconnects": 7297,
      "Ġconnecting": 7298,
      "Ġconquests": 7299,
      "Ġà¤Ĩà¤¦à¤°": 7300,
      "Ġofficers": 7301,
      "Ġpreval": 7302,
      "Ġdescend": 7303,
      "560": 7304,
      "Indian": 7305,
      "Ġinstance": 7306,
      "Ġfactory": 7307,
      "urrently": 7308,
      "à°¤à°°à°£à°¨": 7309,
      "Ġà¨ľà¨¨à¨¸": 7310,
      "Ġarriving": 7311,
      "Ġà¤ıà¤µà¤®": 7312,
      "Ġdiscrim": 7313,
      "Ġconsider": 7314,
      "Ġcollectively": 7315,
      "Ġcollections": 7316,
      "Ġcollapse": 7317,
      "127": 7318,
      "aá¹ħ": 7319,
      "kets": 7320,
      "Ġopposition": 7321,
      "Ġcanal": 7322,
      "Ġbrother": 7323,
      "à¤¸à¤¦à¤¨": 7324,
      "ĠAgency": 7325,
      "Ġrebels": 7326,
      "Ġà¤ħà¤¸à¤«à¤²": 7327,
      "abhbha": 7328,
      "abitants": 7329,
      "Ġvolcan": 7330,
      "Ġprotection": 7331,
      "Ġprotected": 7332,
      "ĠArchaeolog": 7333,
      "Ġoccurs": 7334,
      "à°Ĺà°Ńà°Ł": 7335,
      "Ġfinancial": 7336,
      "Ġlowest": 7337,
      "ĠBrahman": 7338,
      "ĠBrahmaputra": 7339,
      "ĠPolitics": 7340,
      "Ġrouted": 7341,
      "Ġ361": 7342,
      "ockwise": 7343,
      "ĠChandra": 7344,
      "ĠForce": 7345,
      "ographics": 7346,
      "Ġstrongly": 7347,
      "pura": 7348,
      "Ġà°µà°²à°¸à°°": 7349,
      "isional": 7350,
      "Ġpoor": 7351,
      "ombo": 7352,
      "Ġà°¤à°²à°¸à°°": 7353,
      "Ġthreats": 7354,
      "Ġthreatened": 7355,
      "irao": 7356,
      "ĠGreeks": 7357,
      "Ġà¨īà¨ªà¨ľ": 7358,
      "Ġseason": 7359,
      "Ġà©§à©¯à©Ń": 7360,
      "Ġshipping": 7361,
      "Ġà°¦à°¶à°²": 7362,
      "ĠPallava": 7363,
      "Ġgoverning": 7364,
      "ĠHistoriography": 7365,
      "Ġorganisation": 7366,
      "ĠMaharana": 7367,
      "Ġexplored": 7368,
      "Ġabsence": 7369,
      "Ġabsolute": 7370,
      "Ġsettlement": 7371,
      "umped": 7372,
      "Ġopened": 7373,
      "Ġowned": 7374,
      "Ġà°ķà°¥à°ķ": 7375,
      "à¨¤à¨®à¨ķ": 7376,
      "ĠSuri": 7377,
      "ĠSurat": 7378,
      "Ġrunoff": 7379,
      "ĠGhaggar": 7380,
      "Ġbeginnings": 7381,
      "ĠDeva": 7382,
      "ĠNizams": 7383,
      "Ġintroduction": 7384,
      "Ġvictories": 7385,
      "Ġà¥§à¥¦à¥¦à¥¦": 7386,
      "Ġreference": 7387,
      "Ġsurvived": 7388,
      "Ġdiscovery": 7389,
      "ĠRashtrakutas": 7390,
      "garh": 7391,
      "riline": 7392,
      "rigation": 7393,
      "à°°à°¥à°®à°¸": 7394,
      "Ġcreativity": 7395,
      "Ġpastoral": 7396,
      "Ġpresident": 7397,
      "Ġà¤¸à¤¤à¤ª": 7398,
      "ĠSomalia": 7399,
      "ĠTurkic": 7400,
      "ĠPratihara": 7401,
      "Ġgoal": 7402,
      "ĠKannauj": 7403,
      "Ġà¤Ĩà¤ªà¤ķ": 7404,
      "Ġ1807": 7405,
      "Ġscripture": 7406,
      "Ġweakened": 7407,
      "Ġweakening": 7408,
      "Ġtextbook": 7409,
      "Ġcampaigns": 7410,
      "tym": 7411,
      "vaita": 7412,
      "Ġirrigation": 7413,
      "Ġà¨Ĳà¨²": 7414,
      "Ġà¨Ĳà¨®à¨°à¨ľ": 7415,
      "Ġcheetah": 7416,
      "Ġshelf": 7417,
      "Ġshelves": 7418,
      "Ġsediments": 7419,
      "ionalism": 7420,
      "Ġmutinies": 7421,
      "Ġmassac": 7422,
      "ĠColoured": 7423,
      "ĠColombo": 7424,
      "Ġisolation": 7425,
      "Ġisolated": 7426,
      "ĠDemocracy": 7427,
      "ĠDemographics": 7428,
      "ĠKhalsa": 7429,
      "Ġcomplex": 7430,
      "Ġdispersal": 7431,
      "Ġextreme": 7432,
      "Ġextremely": 7433,
      "Ġà¥§à¥¯à¥¯à¥§": 7434,
      "Ġadditional": 7435,
      "Ġcurrents": 7436,
      "Ġcorresponds": 7437,
      "Ġcorresponding": 7438,
      "Ġdomesticated": 7439,
      "eastern": 7440,
      "violent": 7441,
      "ĠQu": 7442,
      "à°īà°¦": 7443,
      "Ġà¤ĳà¤ªà¤°": 7444,
      "Ġà¨Ķà¨°à¨¤": 7445,
      "Ġwildlife": 7446,
      "Ġcase": 7447,
      "Ġcases": 7448,
      "Ġbodies": 7449,
      "Ġlearning": 7450,
      "Ġethnic": 7451,
      "ĠBabur": 7452,
      "ĠPeriod": 7453,
      "Ġguide": 7454,
      "Ġstretched": 7455,
      "Ġstretching": 7456,
      "Ġconcerns": 7457,
      "Ġconstitute": 7458,
      "Ġconstitutes": 7459,
      "ĠKadamba": 7460,
      "ĠUntouchability": 7461,
      "ĠFrontier": 7462,
      "Ġhelp": 7463,
      "Ġoverthrew": 7464,
      "Ġmixed": 7465,
      "Ġà¥§à¥¯à¥®à¥ª": 7466,
      "ĠSumatran": 7467,
      "Ġtrend": 7468,
      "Ġavail": 7469,
      "Ġcleared": 7470,
      "Ġpottery": 7471,
      "Ġpractices": 7472,
      "Ġphilosophy": 7473,
      "Ġfemale": 7474,
      "Ġfemales": 7475,
      "Ġmodel": 7476,
      "ĠSwahili": 7477,
      "ĠSubcontinent": 7478,
      "Ġderecogn": 7479,
      "ĠTalbot": 7480,
      "ĠTalikota": 7481,
      "ĠAjanta": 7482,
      "Ġlinked": 7483,
      "ĠBahmani": 7484,
      "Ġhouses": 7485,
      "Ġà¨µà¨°à¨Ĺ": 7486,
      "Ġà¨µà¨°à¨ĸ": 7487,
      "Ġnatal": 7488,
      "Ġnatural": 7489,
      "Ġrailways": 7490,
      "Ġraiders": 7491,
      "Ġgods": 7492,
      "ĠEmpires": 7493,
      "à¨¹à¨®à¨£": 7494,
      "ĠDoab": 7495,
      "Ġstopped": 7496,
      "Ġfortified": 7497,
      "ĠOrganization": 7498,
      "ĠOrissa": 7499,
      "Ġà¥ªà¥¦": 7500,
      "Ġà¨Ĩà¨¸à¨ª": 7501,
      "Ġagreed": 7502,
      "Ġindicates": 7503,
      "Ġchildren": 7504,
      "Ġrepeatedly": 7505,
      "Ġinvestments": 7506,
      "Ġcolleges": 7507,
      "Ġcolleagues": 7508,
      "Ġrecognised": 7509,
      "Ġencompasses": 7510,
      "ĠMadhav": 7511,
      "Ġtemperature": 7512,
      "Ġseparating": 7513,
      "Ġneighbours": 7514,
      "ĠHarappan": 7515,
      "Ġachievement": 7516,
      "Ġindividuals": 7517,
      "oja": 7518,
      "rupted": 7519,
      "Ġidentity": 7520,
      "Ġà°Ľà°¤": 7521,
      "Ġinheritance": 7522,
      "Ġcosmopol": 7523,
      "Ġfavour": 7524,
      "Ġfarther": 7525,
      "Ġmissing": 7526,
      "ĠSocotra": 7527,
      "ĠTomaras": 7528,
      "ĠTelugu": 7529,
      "Ġtolerant": 7530,
      "ĠAhmad": 7531,
      "Ġloosely": 7532,
      "Ġhomeland": 7533,
      "adweep": 7534,
      "Ġreceived": 7535,
      "Ġnavig": 7536,
      "à¨ķà¨°à¨¯": 7537,
      "ĠEarth": 7538,
      "ĠRelig": 7539,
      "ĠKosala": 7540,
      "ĠKushans": 7541,
      "ĠNadu": 7542,
      "Ġvassal": 7543,
      "Ġvarna": 7544,
      "ĠJahangir": 7545,
      "Ġà¨īà¨Ńà¨°": 7546,
      "Ġdecisively": 7547,
      "Ġabandoned": 7548,
      "ĠThroughflow": 7549,
      "Ġclaimed": 7550,
      "Ġjoined": 7551,
      "Ġemergence": 7552,
      "Ġexclusively": 7553,
      "ĠShaivism": 7554,
      "Ġhydrocarb": 7555,
      "Ġgeographically": 7556,
      "Ġobligations": 7557,
      "Ġsalinity": 7558,
      "Ġfeudat": 7559,
      "Ġà¥¨à¥¦à¥§à¥ª": 7560,
      "Brahmaputra": 7561,
      "Pratiharas": 7562,
      "religious": 7563,
      "ardhana": 7564,
      "Ġautonomy": 7565,
      "Ġwitnessed": 7566,
      "Ġcatch": 7567,
      "Ġcitizens": 7568,
      "Ġsides": 7569,
      "Ġsacrifices": 7570,
      "Ġpetroleum": 7571,
      "Ġfracture": 7572,
      "ĠSeleuc": 7573,
      "ĠAlex": 7574,
      "Ġlaws": 7575,
      "ĠBajirao": 7576,
      "Ġhighest": 7577,
      "Ġà°¬à°¯à°Łà°ªà°¡": 7578,
      "Ġnegot": 7579,
      "Ġrainfall": 7580,
      "Ġgender": 7581,
      "ĠEurasia": 7582,
      "ĠGajap": 7583,
      "Ġbehalf": 7584,
      "ĠDharmapala": 7585,
      "ĠResearch": 7586,
      "ĠRoutledge": 7587,
      "ĠRebellion": 7588,
      "Ġconcepts": 7589,
      "Ġconstruction": 7590,
      "ĠKrishna": 7591,
      "Ġwithdra": 7592,
      "Ġvarying": 7593,
      "Ġordered": 7594,
      "ottom": 7595,
      "ĠJustice": 7596,
      "ĠLanguages": 7597,
      "ĠChittor": 7598,
      "Ġregarded": 7599,
      "Ġyounger": 7600,
      "Ġcultivated": 7601,
      "Ġabolished": 7602,
      "Ġshallow": 7603,
      "Ġprecipitation": 7604,
      "Ġprepar": 7605,
      "Ġoutposts": 7606,
      "Ġenabled": 7607,
      "Ġrevenues": 7608,
      "Ġparticipation": 7609,
      "Ġmanufacturing": 7610,
      "Ġhypothes": 7611,
      "Ġembrace": 7612,
      "Ġdestroyed": 7613,
      "ĠGautama": 7614,
      "Ġexplorers": 7615,
      "Ġpersistent": 7616,
      "ĠSatavahana": 7617,
      "ĠVaishnavism": 7618,
      "Ġdocument": 7619,
      "Ġinscriptions": 7620,
      "ĠMesopotamia": 7621,
      "Australian": 7622,
      "Hakra": 7623,
      "gatherers": 7624,
      "sidiary": 7625,
      "Ġteachings": 7626,
      "atomically": 7627,
      "Ġwelfare": 7628,
      "Ġcopper": 7629,
      "Ġ1206": 7630,
      "Ġpurch": 7631,
      "Ġpillar": 7632,
      "Ġphase": 7633,
      "Ġfuture": 7634,
      "Ġà¤¸à¤¶à¤¸": 7635,
      "ĠSamud": 7636,
      "ĠSardar": 7637,
      "ĠTipu": 7638,
      "ĠTibet": 7639,
      "ĠBundel": 7640,
      "Ġhunter": 7641,
      "ĠMyanmar": 7642,
      "ĠMumbai": 7643,
      "thraean": 7644,
      "ĠCarnatic": 7645,
      "ĠPottery": 7646,
      "Ġroughly": 7647,
      "Ġrhinoceros": 7648,
      "Ġthousand": 7649,
      "utlej": 7650,
      "ĠHoys": 7651,
      "ĠErythraean": 7652,
      "ĠEllora": 7653,
      "ĠDurrani": 7654,
      "Ġstrike": 7655,
      "Ġstrongest": 7656,
      "avÄģhanas": 7657,
      "ĠKhyber": 7658,
      "ĠKanishka": 7659,
      "ĠKerguelen": 7660,
      "established": 7661,
      "Ġà¤Ĩà¤łà¤µ": 7662,
      "Ġveget": 7663,
      "Ġkameez": 7664,
      "ĠVallabhbha": 7665,
      "ĠVasco": 7666,
      "ĠJharkhand": 7667,
      "ĠLankan": 7668,
      "ĠLakshadweep": 7669,
      "ĠLicchav": 7670,
      "ĠChristianity": 7671,
      "Ġplundered": 7672,
      "Ġresidents": 7673,
      "Ġdeciduous": 7674,
      "Ġgrandson": 7675,
      "Ġchuridars": 7676,
      "ĠThanesar": 7677,
      "Ġparamountcy": 7678,
      "Ġoffshore": 7679,
      "ĠAttlee": 7680,
      "Ġintermittently": 7681,
      "ĠMahabharata": 7682,
      "ĠMalacca": 7683,
      "ĠPlassey": 7684,
      "Ġzebu": 7685,
      "ĠEnvironmental": 7686,
      "Ġcosmopolitan": 7687,
      "Ġhydrocarbons": 7688,
      "ĠVallabhbhai": 7689,
      "\").": 7690,
      "))": 7691,
      ")-": 7692,
      "):": 7693,
      ")).": 7694,
      "//": 7695,
      "06": 7696,
      "09": 7697,
      "1240": 7698,
      "29": 7699,
      "210": 7700,
      "235": 7701,
      "34": 7702,
      "350": 7703,
      "42": 7704,
      "44": 7705,
      "422": 7706,
      "413": 7707,
      "517": 7708,
      "63": 7709,
      "69": 7710,
      "750": 7711,
      "740": 7712,
      "84": 7713,
      "840": 7714,
      "950": 7715,
      "920": 7716,
      "://": 7717,
      "Al": 7718,
      "At": 7719,
      "Aph": 7720,
      "Bh": 7721,
      "Bos": 7722,
      "Black": 7723,
      "CO": 7724,
      "Car": 7725,
      "Com": 7726,
      "Congress": 7727,
      "Comm": 7728,
      "DNA": 7729,
      "ES": 7730,
      "Emp": 7731,
      "First": 7732,
      "Great": 7733,
      "Gree": 7734,
      "IA": 7735,
      "IC": 7736,
      "Mer": 7737,
      "Mand": 7738,
      "Mugh": 7739,
      "Mah": 7740,
      "North": 7741,
      "PI": 7742,
      "Pers": 7743,
      "Prol": 7744,
      "Palas": 7745,
      "RS": 7746,
      "Roman": 7747,
      "Scy": 7748,
      "Tur": 7749,
      "Vishnu": 7750,
      "Wh": 7751,
      "West": 7752,
      "Xu": 7753,
      "Yamuna": 7754,
      "ao": 7755,
      "aË": 7756,
      "aur": 7757,
      "aul": 7758,
      "aut": 7759,
      "aism": 7760,
      "auna": 7761,
      "ba": 7762,
      "be": 7763,
      "bn": 7764,
      "band": 7765,
      "bis": 7766,
      "bod": 7767,
      "bated": 7768,
      "bean": 7769,
      "bally": 7770,
      "bands": 7771,
      "break": 7772,
      "bisc": 7773,
      "based": 7774,
      "buck": 7775,
      "cer": 7776,
      "car": 7777,
      "cul": 7778,
      "cot": 7779,
      "cence": 7780,
      "cked": 7781,
      "chel": 7782,
      "da": 7783,
      "din": 7784,
      "des": 7785,
      "das": 7786,
      "def": 7787,
      "dess": 7788,
      "distance": 7789,
      "disc": 7790,
      "diction": 7791,
      "ees": 7792,
      "eav": 7793,
      "eals": 7794,
      "eks": 7795,
      "fast": 7796,
      "fts": 7797,
      "fish": 7798,
      "fort": 7799,
      "found": 7800,
      "four": 7801,
      "file": 7802,
      "go": 7803,
      "gen": 7804,
      "gation": 7805,
      "grav": 7806,
      "grow": 7807,
      "gency": 7808,
      "graph": 7809,
      "hav": 7810,
      "hot": 7811,
      "hous": 7812,
      "histor": 7813,
      "hira": 7814,
      "hami": 7815,
      "ien": 7816,
      "iec": 7817,
      "iop": 7818,
      "ium": 7819,
      "iots": 7820,
      "jib": 7821,
      "jects": 7822,
      "jaya": 7823,
      "jee": 7824,
      "kon": 7825,
      "kara": 7826,
      "key": 7827,
      "level": 7828,
      "lers": 7829,
      "long": 7830,
      "live": 7831,
      "lave": 7832,
      "lished": 7833,
      "luk": 7834,
      "losed": 7835,
      "lines": 7836,
      "lications": 7837,
      "mo": 7838,
      "mast": 7839,
      "may": 7840,
      "mical": 7841,
      "mund": 7842,
      "mised": 7843,
      "made": 7844,
      "making": 7845,
      "mission": 7846,
      "misphere": 7847,
      "mainly": 7848,
      "na": 7849,
      "nal": 7850,
      "nad": 7851,
      "nim": 7852,
      "now": 7853,
      "not": 7854,
      "nia": 7855,
      "nail": 7856,
      "ney": 7857,
      "nitude": 7858,
      "nerable": 7859,
      "nagar": 7860,
      "of": 7861,
      "oon": 7862,
      "oor": 7863,
      "ogh": 7864,
      "oise": 7865,
      "oice": 7866,
      "ooth": 7867,
      "pol": 7868,
      "pect": 7869,
      "pir": 7870,
      "pop": 7871,
      "present": 7872,
      "pert": 7873,
      "plus": 7874,
      "prem": 7875,
      "pective": 7876,
      "pentar": 7877,
      "rich": 7878,
      "rical": 7879,
      "rary": 7880,
      "rine": 7881,
      "rived": 7882,
      "rupt": 7883,
      "rgarh": 7884,
      "sep": 7885,
      "shy": 7886,
      "second": 7887,
      "settled": 7888,
      "tre": 7889,
      "ting": 7890,
      "tol": 7891,
      "tern": 7892,
      "ties": 7893,
      "tism": 7894,
      "uv": 7895,
      "uin": 7896,
      "ued": 7897,
      "uum": 7898,
      "uous": 7899,
      "uber": 7900,
      "uins": 7901,
      "uaries": 7902,
      "van": 7903,
      "ven": 7904,
      "vap": 7905,
      "vard": 7906,
      "ww": 7907,
      "was": 7908,
      "well": 7909,
      "wars": 7910,
      "wah": 7911,
      "wala": 7912,
      "wice": 7913,
      "weri": 7914,
      "xisting": 7915,
      "yam": 7916,
      "yle": 7917,
      "yid": 7918,
      "yot": 7919,
      "year": 7920,
      "yÄģ": 7921,
      "yani": 7922,
      "ygar": 7923,
      "ylon": 7924,
      "zeb": 7925,
      "£á¹Ń": 7926,
      "ªà©Ń": 7927,
      "®à¥«": 7928,
      "¯à¥¦": 7929,
      "¸Î": 7930,
      "¼¸Î": 7931,
      "½Î": 7932,
      "Ã¸": 7933,
      "ËĪ": 7934,
      "ÙĨ": 7935,
      "á¼¸Î": 7936,
      "âĤ": 7937,
      "Ġ+": 7938,
      "ĠÃ": 7939,
      "Ġic": 7940,
      "Ġ),": 7941,
      "ĠXu": 7942,
      "ĠâĤ": 7943,
      "Ĭà¨°à¨ľ": 7944,
      "Ĵà°ķ": 7945,
      "ĵà©ľà¨ķ": 7946,
      "à°±": 7947,
      "à°ı": 7948,
      "à°ĵ": 7949,
      "à°Ĵà°ķ": 7950,
      "Ġà°Ŀ": 7951,
      "à°¾\"": 7952,
      "à°¾;": 7953,
      "à±į:": 7954,
      "à¥¯à¥": 7955,
      "à°°à°²à°¨": 7956,
      "à°°à°¦à°°": 7957,
      "à±ģ(": 7958,
      "à±ģ\".": 7959,
      "à°²à°²à°¨": 7960,
      "à°²à°¯à°¨": 7961,
      "à°¨à°µà°°": 7962,
      "à°¨à°²à°²": 7963,
      "à°¨à°Ĺà°²": 7964,
      "Ġà¨Ŀ": 7965,
      "Ġà¨Ĭà¨°à¨ľ": 7966,
      "Ġà¨ĵà©ľà¨ķ": 7967,
      "Ġtin": 7968,
      "Ġtand": 7969,
      "Ġtun": 7970,
      "Ġtort": 7971,
      "Ġtri": 7972,
      "Ġtour": 7973,
      "Ġtied": 7974,
      "Ġtract": 7975,
      "Ġtake": 7976,
      "Ġtrip": 7977,
      "Ġtried": 7978,
      "Ġtiny": 7979,
      "Ġtwent": 7980,
      "Ġtuber": 7981,
      "Ġtwice": 7982,
      "à°¤à°¯": 7983,
      "à°¤à°¡": 7984,
      "à°¤à°Ń": 7985,
      "à°¤à°¥": 7986,
      "à°¤à°ªà°²": 7987,
      "à°¤à°µà°°à°ķ": 7988,
      "hera": 7989,
      "heta": 7990,
      "heistic": 7991,
      "à¤¾.": 7992,
      "à¤¾;": 7993,
      "à¤¾âĢĻ": 7994,
      "aned": 7995,
      "anct": 7996,
      "ancy": 7997,
      "ancing": 7998,
      "anath": 7999,
      "anths": 8000,
      "aneous": 8001,
      "anipat": 8002,
      "anweri": 8003,
      "à°¦à°¯": 8004,
      "à°¦à°²à°¨": 8005,
      "à°¦à°²à°ķ": 8006,
      "à°¦à°¨à°²": 8007,
      "à°¦à°¸à°®": 8008,
      "à°ķà°£": 8009,
      "à°ķà°Ń": 8010,
      "à°ķà°²à°¨": 8011,
      "à°ķà°¬à°¡": 8012,
      "à°ķà°°à°®": 8013,
      "à°ķà°¤à°¨": 8014,
      "à°ķà°²à°¤": 8015,
      "à°ķà°¦à°³": 8016,
      "ino": 8017,
      "inal": 8018,
      "init": 8019,
      "inion": 8020,
      "ining": 8021,
      "inel": 8022,
      "indu": 8023,
      "inations": 8024,
      "à°¯à°Ĺ": 8025,
      "à°¯à°¶": 8026,
      "à°¯à°ĸ": 8027,
      "à°¯à°µà°°": 8028,
      "à°¯à°ªà°°": 8029,
      "à°¯à°¶à°ķ": 8030,
      "Ġtheore": 8031,
      "Ġtheistic": 8032,
      "à¤°à¤Ĺ": 8033,
      "à¤°à¤ĸ": 8034,
      "à¤°à¤ªà¤¤": 8035,
      "à±ĭ:": 8036,
      "ony": 8037,
      "onic": 8038,
      "onies": 8039,
      "onian": 8040,
      "onso": 8041,
      "onomet": 8042,
      "erv": 8043,
      "erly": 8044,
      "erem": 8045,
      "erate": 8046,
      "eria": 8047,
      "erjee": 8048,
      "à°µà°®": 8049,
      "à°µà°Ł": 8050,
      "à°µà°¨à°²": 8051,
      "à°Ĺà°ķ": 8052,
      "à°Ĺà°¡": 8053,
      "à°Ĺà°ªà°Ł": 8054,
      "Ġour": 8055,
      "Ġà°ªà°¸": 8056,
      "Ġà°ªà°¯à°¨": 8057,
      "Ġà°ªà°ł": 8058,
      "Ġà°ªà°¥à°ķ": 8059,
      "à°¡à°¦": 8060,
      "à°¡à°¡": 8061,
      "à°¡à°¬à°²": 8062,
      "à¨¾à©°": 8063,
      "rest": 8064,
      "à°®à°µ": 8065,
      "à°®à°¡": 8066,
      "à°®à°®": 8067,
      "à°®à°ļ": 8068,
      "à°®à°¶": 8069,
      "à°®à°¤à°°": 8070,
      "à°®à°²à°ķ": 8071,
      "à°®à°ķà°¤": 8072,
      "atin": 8073,
      "atre": 8074,
      "atts": 8075,
      "atri": 8076,
      "athi": 8077,
      "atter": 8078,
      "atha": 8079,
      "ators": 8080,
      "atta": 8081,
      "athes": 8082,
      "atically": 8083,
      "athan": 8084,
      "à°ªà°ļ": 8085,
      "à°ªà°¬": 8086,
      "à°ªà°¥": 8087,
      "à°ªà°µà°¨": 8088,
      "à¤¤à¤ķà¤°": 8089,
      "stand": 8090,
      "stron": 8091,
      "string": 8092,
      "style": 8093,
      "à¤¿-": 8094,
      "aled": 8095,
      "alis": 8096,
      "alus": 8097,
      "alid": 8098,
      "also": 8099,
      "alised": 8100,
      "alanda": 8101,
      "alji": 8102,
      "aliputra": 8103,
      "alwars": 8104,
      "ena": 8105,
      "enic": 8106,
      "enment": 8107,
      "enya": 8108,
      "ede": 8109,
      "à°Łà°Ĺ": 8110,
      "à°Łà°ª": 8111,
      "à°Łà°ļ": 8112,
      "à°Łà°²à°ķ": 8113,
      "à°Łà°ªà°°à°®": 8114,
      "à°Łà°¬à°¦": 8115,
      "aris": 8116,
      "arhi": 8117,
      "arÄģ": 8118,
      "araja": 8119,
      "arva": 8120,
      "aroj": 8121,
      "à°ļà°¯": 8122,
      "à°ļà°µ": 8123,
      "à°ļà°®": 8124,
      "à°ļà°ľ": 8125,
      "à°ļà°µà°ļ": 8126,
      "andy": 8127,
      "andra": 8128,
      "andise": 8129,
      "à±Ģ\"": 8130,
      "Ġà°µà°¡": 8131,
      "Ġà°µà°ľ": 8132,
      "Ġà°µà°¶": 8133,
      "Ġà°µà°¯à°¸": 8134,
      "Ġà°µà°¶à°®": 8135,
      "Ġinef": 8136,
      "Ġinade": 8137,
      "Ġinstitut": 8138,
      "itim": 8139,
      "itum": 8140,
      "iticians": 8141,
      "itarian": 8142,
      "itaditya": 8143,
      "Ġaward": 8144,
      "Ġaustral": 8145,
      "à¤¨à¤µà¤¤": 8146,
      "à¤¨à¤µà¤°": 8147,
      "Ġwart": 8148,
      "Ġword": 8149,
      "Ġwave": 8150,
      "Ġwip": 8151,
      "Ġwool": 8152,
      "Ġà°ķà°£": 8153,
      "Ġà°ķà°¬à°¡": 8154,
      "Ġà°ķà°°à°ķ": 8155,
      "Ġà°ķà°²à°¯": 8156,
      "Ġà°ķà°®à°²": 8157,
      "Ġà°ķà°£à°ķ": 8158,
      "Ġà°ķà°²à°ķà°¤": 8159,
      "Ġcul": 8160,
      "Ġcut": 8161,
      "Ġcere": 8162,
      "Ġclim": 8163,
      "Ġcement": 8164,
      "Ġcoun": 8165,
      "Ġclear": 8166,
      "Ġcounc": 8167,
      "Ġcosts": 8168,
      "Ġcertain": 8169,
      "Ġcerem": 8170,
      "Ġà°®à°ķ": 8171,
      "Ġà°®à°²à°¯": 8172,
      "Ġà°®à°¨à°µ": 8173,
      "Ġà°®à°¨à°®": 8174,
      "Ġsel": 8175,
      "Ġsem": 8176,
      "Ġsav": 8177,
      "Ġsex": 8178,
      "Ġside": 8179,
      "Ġseg": 8180,
      "Ġsons": 8181,
      "Ġsole": 8182,
      "Ġsaved": 8183,
      "Ġsenior": 8184,
      "Ġsusp": 8185,
      "Ġsacking": 8186,
      "Ġsnail": 8187,
      "Ġsanct": 8188,
      "ndra": 8189,
      "ndering": 8190,
      "à°ľà°Ń": 8191,
      "à°ľà°¤à°°": 8192,
      "orin": 8193,
      "organ": 8194,
      "oristic": 8195,
      "orph": 8196,
      "orpor": 8197,
      "à¤¯à¤¯": 8198,
      "à¨°à¨¥": 8199,
      "à¨°à¨¹à¨®": 8200,
      "isans": 8201,
      "isition": 8202,
      "Ġ118": 8203,
      "Ġpir": 8204,
      "Ġpra": 8205,
      "Ġpun": 8206,
      "Ġpap": 8207,
      "Ġpup": 8208,
      "Ġpear": 8209,
      "Ġpress": 8210,
      "Ġpree": 8211,
      "Ġpala": 8212,
      "Ġpants": 8213,
      "Ġpages": 8214,
      "Ġpaid": 8215,
      "Ġpanch": 8216,
      "Ġpeninsula": 8217,
      "Ġparen": 8218,
      "Ġpurs": 8219,
      "Ġpaved": 8220,
      "Ġpoints": 8221,
      "Ġpiec": 8222,
      "à°§à°¸": 8223,
      "à°§à°²à°¤": 8224,
      "à°§à°°à°£à°ķ": 8225,
      "esi": 8226,
      "esian": 8227,
      "à©Ģ\"": 8228,
      "à©Ģ;": 8229,
      "à¤ķà¤¡": 8230,
      "à¤ķà¤¤à¤°": 8231,
      "Ġbal": 8232,
      "Ġband": 8233,
      "Ġbir": 8234,
      "Ġbus": 8235,
      "Ġbore": 8236,
      "Ġblo": 8237,
      "Ġbread": 8238,
      "Ġborn": 8239,
      "Ġbridge": 8240,
      "Ġbulk": 8241,
      "Ġbreath": 8242,
      "Ġbottom": 8243,
      "Ġfer": 8244,
      "Ġfil": 8245,
      "Ġfus": 8246,
      "Ġfest": 8247,
      "Ġfire": 8248,
      "Ġfif": 8249,
      "Ġfoc": 8250,
      "Ġfans": 8251,
      "Ġfru": 8252,
      "Ġfilled": 8253,
      "Ġfaced": 8254,
      "Ġfiel": 8255,
      "Ġfinger": 8256,
      "Ġfelt": 8257,
      "Ġfunct": 8258,
      "Ġà¤¸à¤¤à¤°": 8259,
      "à¨¤à¨°à¨¤": 8260,
      "à¨¤à¨Ń": 8261,
      "ĠIndust": 8262,
      "à°¶à°²à°¨": 8263,
      "à°¶à°Ńà°ķ": 8264,
      "asp": 8265,
      "asul": 8266,
      "asir": 8267,
      "asmin": 8268,
      "asaá¹ħ": 8269,
      "Ġmand": 8270,
      "Ġming": 8271,
      "Ġmur": 8272,
      "Ġmere": 8273,
      "Ġmos": 8274,
      "Ġmag": 8275,
      "Ġmour": 8276,
      "Ġmater": 8277,
      "Ġmean": 8278,
      "Ġmob": 8279,
      "Ġmaking": 8280,
      "Ġmaps": 8281,
      "Ġmahar": 8282,
      "icult": 8283,
      "icial": 8284,
      "Ġà°°à°¤": 8285,
      "à¤¸à¤ľ": 8286,
      "à¤¸à¤ķà¤°": 8287,
      "inge": 8288,
      "omans": 8289,
      "omani": 8290,
      "à±Ĥà°Ĥ": 8291,
      "à¥¤à¥¤": 8292,
      "ĠSon": 8293,
      "ĠSent": 8294,
      "ĠSup": 8295,
      "ĠSant": 8296,
      "ĠSystem": 8297,
      "ĠSamb": 8298,
      "ĠSey": 8299,
      "ĠSarnat": 8300,
      "ĠSched": 8301,
      "ĠSway": 8302,
      "ĠSark": 8303,
      "ĠSettled": 8304,
      "ĠSanchi": 8305,
      "ĠSriv": 8306,
      "ĠSutlej": 8307,
      "ĠSlave": 8308,
      "ĠSaroj": 8309,
      "à°£à°¨": 8310,
      "Ġà°ħà°·": 8311,
      "Ġà°ħà°°à°£": 8312,
      "Ġà°ħà°®à°²": 8313,
      "Ġà¤®à¤²": 8314,
      "Ġà¤®à¤¶": 8315,
      "entil": 8316,
      "entions": 8317,
      "entry": 8318,
      "Ġà°ļà°¦à°°": 8319,
      "Ġà¤ªà¤²": 8320,
      "Ġà¤ªà¤¸à¤¨": 8321,
      "Ġà¤ªà¤Łà¤²": 8322,
      "Ġdon": 8323,
      "Ġdam": 8324,
      "Ġdow": 8325,
      "Ġdro": 8326,
      "Ġdated": 8327,
      "Ġdri": 8328,
      "Ġdress": 8329,
      "Ġdorm": 8330,
      "Ġdense": 8331,
      "Ġdespite": 8332,
      "ĠTer": 8333,
      "ĠTrap": 8334,
      "ĠTob": 8335,
      "ĠTai": 8336,
      "ĠTiger": 8337,
      "oub": 8338,
      "à¤®à¤¯": 8339,
      "à¤®à¤Ĺ": 8340,
      "à¤®à¤¬": 8341,
      "à°·à°¶": 8342,
      "à°·à°²à°¤": 8343,
      "à°·à°°à°¬": 8344,
      "Ġà°¤à°ª": 8345,
      "Ġà¤¹à¤µ": 8346,
      "Ġà¤¹à¤Ł": 8347,
      "Ġà¤¹à¤¨à¤¨": 8348,
      "Ġtoo": 8349,
      "Ġtool": 8350,
      "Ġtoll": 8351,
      "Ġà°Ńà°µ": 8352,
      "à¤²à¤¹": 8353,
      "à¤²à¤Ĺ": 8354,
      "à¨¸à¨¸": 8355,
      "à¨¸à¨®": 8356,
      "à¨¸à¨¹": 8357,
      "à¨¸à¨Ł": 8358,
      "ĠAD": 8359,
      "ĠAut": 8360,
      "ĠAry": 8361,
      "ĠAá¹": 8362,
      "ĠAryan": 8363,
      "ĠAwad": 8364,
      "ĠAcha": 8365,
      "ĠAhom": 8366,
      "ĠAvant": 8367,
      "ĠAurang": 8368,
      "Ġling": 8369,
      "Ġlack": 8370,
      "Ġlight": 8371,
      "Ġlives": 8372,
      "Ġlaid": 8373,
      "Ġlines": 8374,
      "Ġliving": 8375,
      "Ġloyal": 8376,
      "Ġlosing": 8377,
      "Ġlength": 8378,
      "urta": 8379,
      "urai": 8380,
      "urray": 8381,
      "à¨Ĥ,": 8382,
      "à¨Ĥ;": 8383,
      "à¨Ĥà¥¤": 8384,
      "à°¹à°Ĺ": 8385,
      "à°¹à°°à°£à°Ĺ": 8386,
      "Ġà°īà°ķ": 8387,
      "Ġà°īà°ļ": 8388,
      "Ġà°īà°®à°¯": 8389,
      "ĠBP": 8390,
      "ĠBol": 8391,
      "ĠBim": 8392,
      "ĠBir": 8393,
      "ĠBro": 8394,
      "ĠBod": 8395,
      "ĠBet": 8396,
      "ĠBri": 8397,
      "ĠBef": 8398,
      "ĠBhas": 8399,
      "ĠBind": 8400,
      "ĠBij": 8401,
      "ĠBridge": 8402,
      "ĠBakh": 8403,
      "ĠBiodiversity": 8404,
      "ĠBronze": 8405,
      "ĠBecause": 8406,
      "ĠBooks": 8407,
      "Ġhon": 8408,
      "Ġhor": 8409,
      "Ġhus": 8410,
      "Ġhung": 8411,
      "Ġhtt": 8412,
      "Ġhunt": 8413,
      "Ġhumped": 8414,
      "Ġà¨¦à¨¸à¨¤": 8415,
      "Ġà¨¦à¨°à¨ľ": 8416,
      "Ġà¨¸à¨µ": 8417,
      "Ġà¨¸à¨°à¨µ": 8418,
      "Ġà¨¸à¨µà¨°": 8419,
      "adh": 8420,
      "adur": 8421,
      "aders": 8422,
      "adav": 8423,
      "adles": 8424,
      "adiverse": 8425,
      "adeva": 8426,
      "adryas": 8427,
      "à¤¦à¤ª": 8428,
      "Ġrejected": 8429,
      "Ġrendering": 8430,
      "à¨¨à¨²": 8431,
      "à¨¨à¨¹": 8432,
      "à¨¨à¨ıà¨¸": 8433,
      "ĠMA": 8434,
      "ĠMit": 8435,
      "ĠMing": 8436,
      "ĠMil": 8437,
      "ĠMir": 8438,
      "ĠMig": 8439,
      "ĠMod": 8440,
      "ĠMov": 8441,
      "ĠMap": 8442,
      "ĠMans": 8443,
      "ĠMajor": 8444,
      "ĠMÄģ": 8445,
      "ĠMann": 8446,
      "ĠMathemat": 8447,
      "ĠMark": 8448,
      "ĠMath": 8449,
      "ĠMangrov": 8450,
      "ĠModi": 8451,
      "ĠMinisters": 8452,
      "ĠMurray": 8453,
      "à°Ńà°°": 8454,
      "à°Ńà°¦": 8455,
      "à°Ńà°°à°¤": 8456,
      "Ġà°Ĩà°¯": 8457,
      "Ġà°Ĩà°£": 8458,
      "Ġà°Ĩà°¦à°°": 8459,
      "Ġà°Ĩà°¯à°ķ": 8460,
      "Ġà°Ĩà°ķà°°": 8461,
      "Ġà°Ĩà°ĸà°°": 8462,
      "Ġ220": 8463,
      "Ġ272": 8464,
      "Ġ236": 8465,
      "à¤¹à¤®": 8466,
      "à¤¹à¤¦": 8467,
      "thians": 8468,
      "ulus": 8469,
      "ults": 8470,
      "uluk": 8471,
      "ulgation": 8472,
      "ulnerable": 8473,
      "Ġà¨µà¨°à¨£": 8474,
      "cements": 8475,
      "Ġà°¦à°¸à°°": 8476,
      "Ġà°¬à°¡": 8477,
      "Ġà°¬à°Ł": 8478,
      "Ġà¤Ńà¤¯": 8479,
      "Ġà¤Ńà¤Ĺ": 8480,
      "Ġà¤Ńà¤Łà¤ķ": 8481,
      "olo": 8482,
      "olarly": 8483,
      "olpert": 8484,
      "à¤ªà¤®": 8485,
      "à¤ªà¤·": 8486,
      "à¨²à¨°": 8487,
      "à¨²à¨ķ": 8488,
      "à¨²à¨£": 8489,
      "Ġnut": 8490,
      "Ġnations": 8491,
      "Ġnaval": 8492,
      "Ġnurs": 8493,
      "Ġnortheast": 8494,
      "Ġninth": 8495,
      "ĠCy": 8496,
      "ĠCent": 8497,
      "ĠCher": 8498,
      "ĠCrit": 8499,
      "ĠCup": 8500,
      "ĠCour": 8501,
      "ĠChes": 8502,
      "ĠCey": 8503,
      "ĠCensus": 8504,
      "ĠCoral": 8505,
      "ĠCabinet": 8506,
      "ĠCDW": 8507,
      "ĠCulture": 8508,
      "ĠClement": 8509,
      "ĠCricket": 8510,
      "ĠCountry": 8511,
      "ĠCIA": 8512,
      "Ġ1917": 8513,
      "Ġ1915": 8514,
      "Ġ1910": 8515,
      "Ġ1921": 8516,
      "Ġ1916": 8517,
      "Ġ1925": 8518,
      "Ġ1939": 8519,
      "à¨ķà©ľ": 8520,
      "à¨ķà¨²à¨¦": 8521,
      "evak": 8522,
      "Ġà°ľà°²à°µ": 8523,
      "Ġà°ľà°®à°²": 8524,
      "amed": 8525,
      "amas": 8526,
      "amounts": 8527,
      "à¨¦à¨¨": 8528,
      "ĠPen": 8529,
      "ĠPar": 8530,
      "ĠPle": 8531,
      "ĠPeng": 8532,
      "ĠPind": 8533,
      "ĠPÄģ": 8534,
      "ĠPubl": 8535,
      "ĠPurn": 8536,
      "ĠPax": 8537,
      "ĠPhil": 8538,
      "ĠPainted": 8539,
      "ĠPtol": 8540,
      "ĠPanipat": 8541,
      "ims": 8542,
      "iman": 8543,
      "imum": 8544,
      "imited": 8545,
      "imately": 8546,
      "à¤·à¤°": 8547,
      "à¤·à¤®": 8548,
      "à¤·à¤Ĺ": 8549,
      "à°¥à°²à°¨": 8550,
      "à°¥à°²à°²": 8551,
      "à°¥à°²à°¤": 8552,
      "à¤Ĺà¤¡": 8553,
      "à¤Ĺà¤µà¤¤": 8554,
      "Ġà¨¹à¨®": 8555,
      "Ġà¨¹à¨ľ": 8556,
      "Ġà°Ĺà°Ł": 8557,
      "Ġà¤ħà¤¦": 8558,
      "Ġà¤ħà¤¹à¤°": 8559,
      "à¤ľà¤Ĺ": 8560,
      "à¨¼à©į": 8561,
      "à¨¼à©Į": 8562,
      "istoc": 8563,
      "istics": 8564,
      "Ġris": 8565,
      "Ġriv": 8566,
      "Ġrush": 8567,
      "Ġroad": 8568,
      "Ġradi": 8569,
      "Ġrift": 8570,
      "Ġruins": 8571,
      "asting": 8572,
      "asthan": 8573,
      "astrian": 8574,
      "Ġà¤¨à¤ı": 8575,
      "Ġà¤ľà¤¯": 8576,
      "Ġà¤ľà¤µ": 8577,
      "Ġà°ĩà°¬": 8578,
      "Ġà°ĩà°µà°¨": 8579,
      "Ġà°ĩà°¯à°°": 8580,
      "Ġgig": 8581,
      "Ġgro": 8582,
      "Ġgive": 8583,
      "Ġgold": 8584,
      "Ġgives": 8585,
      "Ġgone": 8586,
      "Ġgiving": 8587,
      "Ġgiant": 8588,
      "Ġgentry": 8589,
      "à¤¶à¤²": 8590,
      "à¤¶à¤¹à¤°": 8591,
      "Ġthorn": 8592,
      "Ġthick": 8593,
      "à¨Ĩà¨ª": 8594,
      "à¨Ĩà¨ķà¨¤": 8595,
      "Ġà¤¬à¤¦": 8596,
      "ows": 8597,
      "utt": 8598,
      "char": 8599,
      "chari": 8600,
      "chief": 8601,
      "charya": 8602,
      "iraj": 8603,
      "iritual": 8604,
      "lete": 8605,
      "gemon": 8606,
      "ĠHigh": 8607,
      "ĠHorm": 8608,
      "ĠHipp": 8609,
      "ĠHundred": 8610,
      "igins": 8611,
      "igarhi": 8612,
      "usara": 8613,
      "idences": 8614,
      "Ġà¨ħà¨ª": 8615,
      "Ġà¨ħà¨Ĺ": 8616,
      "Ġà¨ħà¨Ĺà¨²": 8617,
      "raz": 8618,
      "raft": 8619,
      "rauta": 8620,
      "ĠEmer": 8621,
      "ĠEtym": 8622,
      "à¨®à¨¦": 8623,
      "à¨®à¨¬": 8624,
      "à¨®à¨¯": 8625,
      "Ġà¨ªà©ľ": 8626,
      "Ġà¨ªà¨¤à¨¨": 8627,
      "une": 8628,
      "uni": 8629,
      "unk": 8630,
      "unar": 8631,
      "ĠGar": 8632,
      "ĠGah": 8633,
      "ĠGran": 8634,
      "ĠGob": 8635,
      "ĠGaá¹ĩ": 8636,
      "ĠGangetic": 8637,
      "ĠGroup": 8638,
      "ĠGyre": 8639,
      "ĠGanweri": 8640,
      "Ġà¤¦à¤®à¤¨": 8641,
      "Ġà¤¦à¤¶à¤¹à¤°": 8642,
      "Ġasc": 8643,
      "Ġassets": 8644,
      "Ġbeac": 8645,
      "ema": 8646,
      "emies": 8647,
      "romos": 8648,
      "à¤Łà¤¤": 8649,
      "à¤Łà¤¸": 8650,
      "à°³à°ķ": 8651,
      "à°³à°¶": 8652,
      "à°³à°ªà°²": 8653,
      "Ġà¤Ķà¤ľ": 8654,
      "Ġà¤Ķà¤¸à¤¤": 8655,
      "Ġà¨¨à¨ķ": 8656,
      "Ġà¤°à¤¸": 8657,
      "Ġà¤°à¤ļ": 8658,
      "ersed": 8659,
      "à°ĸà°²à°²": 8660,
      "à¨ľà¨Ł": 8661,
      "ĠDis": 8662,
      "ĠDil": 8663,
      "ĠDiv": 8664,
      "ĠDun": 8665,
      "ĠDep": 8666,
      "ĠDue": 8667,
      "ĠDah": 8668,
      "ĠDanish": 8669,
      "ĠDiction": 8670,
      "ĠDhol": 8671,
      "ĠDjib": 8672,
      "ĠRe": 8673,
      "ĠRod": 8674,
      "ĠRay": 8675,
      "ĠRef": 8676,
      "ĠRivers": 8677,
      "ĠRise": 8678,
      "ĠRana": 8679,
      "ĠRoss": 8680,
      "ĠRoy": 8681,
      "ĠRob": 8682,
      "ĠRani": 8683,
      "ĠRother": 8684,
      "ĠRaz": 8685,
      "ĠRule": 8686,
      "ĠRakh": 8687,
      "ĠRift": 8688,
      "ĠRidd": 8689,
      "ĠRuss": 8690,
      "ĠRao": 8691,
      "Ġà¤¤à¤°": 8692,
      "Ġà¤¤à¤¤": 8693,
      "Ġà¤¤à¤¦": 8694,
      "Ġstep": 8695,
      "Ġstage": 8696,
      "Ġstrat": 8697,
      "Ġstable": 8698,
      "Ġstages": 8699,
      "Ġstory": 8700,
      "Ġstayed": 8701,
      "Ġstead": 8702,
      "Ġforcing": 8703,
      "à°¤à°°à°®": 8704,
      "à°¤à°°à°£à°²": 8705,
      "Ġà°¹à°ķ": 8706,
      "opes": 8707,
      "Ġà¨Ńà¨°": 8708,
      "Ġà¨Ńà¨Ĺà¨¤": 8709,
      "oday": 8710,
      "odiment": 8711,
      "odcast": 8712,
      "Ġconst": 8713,
      "Ġconver": 8714,
      "Ġcondition": 8715,
      "âĢĿ": 8716,
      "Ġsudden": 8717,
      "Ġsuprem": 8718,
      "à¤Ńà¤µà¤¤": 8719,
      "avated": 8720,
      "avery": 8721,
      "avily": 8722,
      "ĠKan": 8723,
      "ĠKon": 8724,
      "ĠKul": 8725,
      "ĠKutch": 8726,
      "ĠKoh": 8727,
      "ĠKanchi": 8728,
      "ĠKathi": 8729,
      "ĠKenya": 8730,
      "ĠOut": 8731,
      "ĠOri": 8732,
      "ĠOrig": 8733,
      "Ġwithout": 8734,
      "Ġonwards": 8735,
      "Ġonline": 8736,
      "Ġà¤ĩà¤ķ": 8737,
      "Ġà¤ĩà¤£": 8738,
      "Ġà¤ĩà¤ľà¤°": 8739,
      "Ġà¤ĩà¤§à¤°": 8740,
      "este": 8741,
      "estine": 8742,
      "estone": 8743,
      "à¤¬à¤¦": 8744,
      "à¤¬à¤Ī": 8745,
      "ayat": 8746,
      "ayun": 8747,
      "heries": 8748,
      "à°¬à°¡à°¤": 8749,
      "ctrine": 8750,
      "à¨£à¨¸": 8751,
      "à¨£à¨¦": 8752,
      "Ġà°Īà°®": 8753,
      "akk": 8754,
      "akers": 8755,
      "akarn": 8756,
      "akening": 8757,
      "aints": 8758,
      "overy": 8759,
      "Ġexha": 8760,
      "Ġexisted": 8761,
      "Ġexacer": 8762,
      "resolved": 8763,
      "à¨Ĺà¨°à¨®": 8764,
      "à¨Ĺà¨ł": 8765,
      "à°°à°ķà°³": 8766,
      "à°°à°ķà°®à°¨": 8767,
      "Ġà¤īà¤¡": 8768,
      "Ġà¤īà¤ªà¤¨": 8769,
      "Ġà¤īà¤§à¤°": 8770,
      "ĠNi": 8771,
      "ĠNear": 8772,
      "ĠNob": 8773,
      "ĠNetwork": 8774,
      "ĠNaz": 8775,
      "ĠNinet": 8776,
      "ĠNaras": 8777,
      "ĠNavy": 8778,
      "ĠNeolithic": 8779,
      "ĠNalanda": 8780,
      "Ġalread": 8781,
      "Ġallied": 8782,
      "Ġalien": 8783,
      "Ġaltern": 8784,
      "Ġant": 8785,
      "Ġantic": 8786,
      "Ġanalys": 8787,
      "Ġanatomically": 8788,
      "ortun": 8789,
      "à¤¼),": 8790,
      "à¤¼à¤¾,": 8791,
      "ety": 8792,
      "eter": 8793,
      "Ġà°¤à°°à°²": 8794,
      "Ġà°¤à°°à°ª": 8795,
      "osa": 8796,
      "osion": 8797,
      "osis": 8798,
      "Ġà¤Ĺà¤¡": 8799,
      "udi": 8800,
      "udies": 8801,
      "uddin": 8802,
      "Ġà¨¤à¨£": 8803,
      "Ġà¨¤à¨¬à¨¦": 8804,
      "Ġà¨¤à¨¤à¨ķ": 8805,
      "Ġver": 8806,
      "Ġval": 8807,
      "Ġvac": 8808,
      "Ġvess": 8809,
      "Ġvice": 8810,
      "Ġvoy": 8811,
      "Ġvital": 8812,
      "Ġviharas": 8813,
      "Ġvulnerable": 8814,
      "Ġcentered": 8815,
      "ajas": 8816,
      "riev": 8817,
      "riend": 8818,
      "ĠWhe": 8819,
      "ĠWall": 8820,
      "ĠWile": 8821,
      "ĠWild": 8822,
      "ĠWHO": 8823,
      "ĠWalk": 8824,
      "ĠWolpert": 8825,
      "Ġà¨®à¨ķ": 8826,
      "Ġà¨®à¨§": 8827,
      "Ġà¨®à¨¤à¨²": 8828,
      "Ġà¨®à¨¤à¨Ń": 8829,
      "Ġà¤¶à¤¬": 8830,
      "Ġà¨¬à¨ľà¨Ł": 8831,
      "Ġà°¯à°ľ": 8832,
      "Ġà°¯à°¶": 8833,
      "aces": 8834,
      "agi": 8835,
      "agana": 8836,
      "umes": 8837,
      "umala": 8838,
      "umdar": 8839,
      "ape": 8840,
      "apped": 8841,
      "Ġkeep": 8842,
      "Ġkho": 8843,
      "Ġkurta": 8844,
      "ĠVis": 8845,
      "ĠVel": 8846,
      "ĠVast": 8847,
      "ĠVid": 8848,
      "ĠVik": 8849,
      "ĠVinc": 8850,
      "ĠVara": 8851,
      "ĠVide": 8852,
      "ĠVÄģ": 8853,
      "ĠVarman": 8854,
      "ĠVishnu": 8855,
      "ĠVietnam": 8856,
      "Ġorigins": 8857,
      "oting": 8858,
      "otted": 8859,
      "otech": 8860,
      "à°°à°®à°¦": 8861,
      "à°°à°®à°ķ": 8862,
      "à°°à°®à°Ł": 8863,
      "à°°à°®à°£à°²": 8864,
      "à°°à°£à°®à°¨": 8865,
      "ĠInter": 8866,
      "hia": 8867,
      "hik": 8868,
      "à°¯à°®à°¨": 8869,
      "à°¯à°®à°¯": 8870,
      "ĠJaf": 8871,
      "ĠJaipur": 8872,
      "illors": 8873,
      "Ġ1944": 8874,
      "angal": 8875,
      "angra": 8876,
      "angana": 8877,
      "Ġà¥ł": 8878,
      "Ġà¥¯à¥": 8879,
      "Ġatop": 8880,
      "Ġcome": 8881,
      "Ġcomes": 8882,
      "Ġcoming": 8883,
      "Ġcomfort": 8884,
      "ĠLar": 8885,
      "ĠLok": 8886,
      "ĠLah": 8887,
      "ĠLeg": 8888,
      "ĠLib": 8889,
      "ĠLiter": 8890,
      "ĠLatin": 8891,
      "ĠLunar": 8892,
      "à¨¬à¨¹": 8893,
      "upa": 8894,
      "upati": 8895,
      "upaksha": 8896,
      "Ġperished": 8897,
      "Ġpercept": 8898,
      "Ġperman": 8899,
      "Ġperform": 8900,
      "term": 8901,
      "Ġà°İà°Ł": 8902,
      "Ġà°İà°²à°Ĺ": 8903,
      "Ġà°İà°¡à°ķ": 8904,
      "ify": 8905,
      "ifically": 8906,
      "iferation": 8907,
      "à¤ĸà¤¤": 8908,
      "à¤ĸà¤¦": 8909,
      "à°¤à°¨à°®": 8910,
      "Ġ185": 8911,
      "Ġ187": 8912,
      "Ġ1850": 8913,
      "Ġ1817": 8914,
      "Ġ1835": 8915,
      "Ġ1833": 8916,
      "Ġ1840": 8917,
      "Ġ1890": 8918,
      "Ġ1848": 8919,
      "Ġ1861": 8920,
      "Ġ1891": 8921,
      "Ġ1854": 8922,
      "Ġ1876": 8923,
      "Ġarg": 8924,
      "Ġargu": 8925,
      "Ġarisen": 8926,
      "Ġproced": 8927,
      "Ġprohib": 8928,
      "ears": 8929,
      "hau": 8930,
      "hawar": 8931,
      "Ġincoming": 8932,
      "Ġincorpor": 8933,
      "Ġà¤ĩà¤¸à¤¨": 8934,
      "à°¯à°µà°¹": 8935,
      "à°¯à°µà°¹à°°": 8936,
      "à¤ıà¤¸à¤ľ": 8937,
      "ĠAsif": 8938,
      "ĠAsians": 8939,
      "ĠAssoci": 8940,
      "à°ĺà°¸": 8941,
      "à°ĺà°¢": 8942,
      "Ġà¤ıà¤¸": 8943,
      "Ġà¨īà¨¹": 8944,
      "Ġà¨īà¨¥": 8945,
      "Ġà¨īà¨¸à¨¦": 8946,
      "Ġunh": 8947,
      "Ġunivers": 8948,
      "Ġunable": 8949,
      "Ġunitary": 8950,
      "Ġunpre": 8951,
      "Ġunexp": 8952,
      "Ġunresolved": 8953,
      "Ġà¤ļà¤¨": 8954,
      "Ġà¤ļà¤Ł": 8955,
      "Ġà¤ļà¤²à¤¨": 8956,
      "ĠChron": 8957,
      "ĠChamp": 8958,
      "ĠChanak": 8959,
      "ĠChhau": 8960,
      "à¥¦à¥¬": 8961,
      "à°°à°ªà°°": 8962,
      "que": 8963,
      "ĠUpp": 8964,
      "ĠUPA": 8965,
      "à¨Ńà¨°": 8966,
      "Ġà¨Ĩà¨Ī": 8967,
      "Ġà¨Ĩà¨ĩà¨Ĩ": 8968,
      "Ġà¨Ĩà¨¯": 8969,
      "oused": 8970,
      "ously": 8971,
      "outi": 8972,
      "Ġà°ıà°Ł": 8973,
      "Ġà°ıà°³": 8974,
      "Ġà°ıà°®à°¯": 8975,
      "Ġ64": 8976,
      "Ġ66": 8977,
      "Ġ67": 8978,
      "Ġ6500": 8979,
      "Ġ655": 8980,
      "à¨Īà¨¸à¨µ": 8981,
      "Ġ53": 8982,
      "Ġsport": 8983,
      "Ġspons": 8984,
      "Ġsports": 8985,
      "Ġspring": 8986,
      "Ġspiritual": 8987,
      "harp": 8988,
      "Ġà°Ĵà°¡": 8989,
      "Ġà°ħà°§à°°": 8990,
      "Ġà°īà°ªà°¸": 8991,
      "Ġà°īà°ªà°ķà°°à°£": 8992,
      "ĠFan": 8993,
      "ĠFam": 8994,
      "ĠFound": 8995,
      "ĠFour": 8996,
      "ĠFree": 8997,
      "rican": 8998,
      "Ġà¤¸à¤®à¤Ĺ": 8999,
      "à°łà°²": 9000,
      "à°ķà°¤à°Ĺ": 9001,
      "à°ķà°¤à°²à°²": 9002,
      "Ġcontact": 9003,
      "Ġcontex": 9004,
      "Ġcontext": 9005,
      "Ġ72": 9006,
      "Ġ76": 9007,
      "Ġ77": 9008,
      "Ġ750": 9009,
      "Ġ772": 9010,
      "efire": 9011,
      "efinit": 9012,
      "à¨ħà¨ķà¨¤": 9013,
      "à¨ħà¨°à¨¬": 9014,
      "erally": 9015,
      "order": 9016,
      "ighat": 9017,
      "ĠMahas": 9018,
      "Ġ175": 9019,
      "Ġ177": 9020,
      "Ġ1750": 9021,
      "Ġ1772": 9022,
      "Ġ1798": 9023,
      "Ġ1748": 9024,
      "Ġ1739": 9025,
      "Ġ1764": 9026,
      "Ġ1793": 9027,
      "Ġ1787": 9028,
      "Ġ1775": 9029,
      "Ġ1741": 9030,
      "Ġplates": 9031,
      "Ġplaces": 9032,
      "Ġsubdiv": 9033,
      "Ġsubstant": 9034,
      "Ġsubsidiary": 9035,
      "1935": 9036,
      "1994": 9037,
      "1996": 9038,
      "1983": 9039,
      "anya": 9040,
      "à°µà°¤à°®": 9041,
      "à°µà°¤à°²à°ķ": 9042,
      "Ġyour": 9043,
      "Ġyoun": 9044,
      "Ġ1572": 9045,
      "Ġ1540": 9046,
      "Ġ1528": 9047,
      "Ġ1591": 9048,
      "ours": 9049,
      "oury": 9050,
      "Ġà°Ĵà°ķà°¸": 9051,
      "Ġ41": 9052,
      "Ġ48": 9053,
      "Ġ49": 9054,
      "Ġ4500": 9055,
      "Ġ413": 9056,
      "Ġ460": 9057,
      "ession": 9058,
      "Ġadj": 9059,
      "Ġà°ķà°²à°¸": 9060,
      "Ġà°ķà°²à°Ĺà°²": 9061,
      "Ġà°ķà°²à°ªà°¬à°¡": 9062,
      "Ġ2017": 9063,
      "à°°à°Ńà°¦": 9064,
      "à¨¤à¨°à¨®": 9065,
      "à¨¤à¨°à¨ª": 9066,
      "à¤¤à¤°à¤¦": 9067,
      "à¤¤à¤°à¤£": 9068,
      "Ġpartially": 9069,
      "Ġmarry": 9070,
      "Ġmarkets": 9071,
      "Ġmarshy": 9072,
      "ella": 9073,
      "elled": 9074,
      "à¨¥à¨°": 9075,
      "Ġindefinit": 9076,
      "Ġcoales": 9077,
      "Ġrelief": 9078,
      "Ġresent": 9079,
      "Ġresisted": 9080,
      "Ġresurg": 9081,
      "Ġresults": 9082,
      "Ġpride": 9083,
      "Ġbetter": 9084,
      "Ġunderlying": 9085,
      "Ġearned": 9086,
      "Ġhere": 9087,
      "Ġheavy": 9088,
      "Ġheidel": 9089,
      "Ġhemisphere": 9090,
      "Ġhegemon": 9091,
      "Ġheavily": 9092,
      "Ġendogamy": 9093,
      "Ġendeav": 9094,
      "aratist": 9095,
      "Ġestuary": 9096,
      "ignated": 9097,
      "Ġcomprising": 9098,
      "Ġcompiled": 9099,
      "à°¯à°¤à°²à°¨": 9100,
      "Ġoverl": 9101,
      "Ġdecided": 9102,
      "Ġdecision": 9103,
      "Ġ2005": 9104,
      "Ġ2006": 9105,
      "Ġ93": 9106,
      "Ġ970": 9107,
      "Ġgrant": 9108,
      "Ġgrass": 9109,
      "Ġgramm": 9110,
      "ĠRajg": 9111,
      "ĠRajiv": 9112,
      "ĠRajaraja": 9113,
      "ĠRajasthan": 9114,
      "ruments": 9115,
      "à¤Ĩà¤°": 9116,
      "à¤Ĩà¤ķ": 9117,
      "à¤Ĩà¤§": 9118,
      "Ġpole": 9119,
      "Ġpolar": 9120,
      "Ġpolities": 9121,
      "Ġpoliticians": 9122,
      "Ġforming": 9123,
      "Ġformations": 9124,
      "Ġformally": 9125,
      "204": 9126,
      "2020": 9127,
      "2018": 9128,
      "2015": 9129,
      "oked": 9130,
      "Ġpeas": 9131,
      "lier": 9132,
      "liest": 9133,
      "ughara": 9134,
      "Ġà¤¤à¤ķà¤¨": 9135,
      "Ġ85": 9136,
      "Ġ87": 9137,
      "Ġ817": 9138,
      "Ġ872": 9139,
      "Ġchap": 9140,
      "Ġchann": 9141,
      "Ġchick": 9142,
      "Ġchanging": 9143,
      "187": 9144,
      "1819": 9145,
      "1839": 9146,
      "1861": 9147,
      "1805": 9148,
      "1885": 9149,
      "à¤°à¤®à¤¶": 9150,
      "Ġ1619": 9151,
      "Ġ1614": 9152,
      "Ġ1659": 9153,
      "à¨ĩà¨ķ": 9154,
      "à¨ĩà¨¦": 9155,
      "Ġworldwide": 9156,
      "à¤µà¤¤à¤®": 9157,
      "à¤µà¤¤à¤¶": 9158,
      "dhyÄģ": 9159,
      "Ġabated": 9160,
      "Ġà°¸à°°à°«à°°": 9161,
      "ĠThough": 9162,
      "Ġreports": 9163,
      "Ġrepuls": 9164,
      "Ġà°ľà°¨à°¸": 9165,
      "Ġà¥§à¥©": 9166,
      "Ġà¥§à¥¬": 9167,
      "Ġà¥§à¥Ń": 9168,
      "Ġafterwards": 9169,
      "Ġevening": 9170,
      "Ġevolving": 9171,
      "Ġ1968": 9172,
      "Ġimple": 9173,
      "Ġimplications": 9174,
      "iph": 9175,
      "iplus": 9176,
      "ensive": 9177,
      "à°¹à°¦à°ªà°¡": 9178,
      "Ġalluv": 9179,
      "à¤ĵà¤¸": 9180,
      "Ġdiss": 9181,
      "Ġdisob": 9182,
      "Ġdisrupted": 9183,
      "Ġdisrupt": 9184,
      "Ġelements": 9185,
      "ardised": 9186,
      "ĠUnlike": 9187,
      "ĠUnmaking": 9188,
      "economic": 9189,
      "hmud": 9190,
      "Ġà°¡à°ľà°¨": 9191,
      "à°ªà°°à°ļà°¬à°¡": 9192,
      "arsh": 9193,
      "Ġ121": 9194,
      "ultaneous": 9195,
      "Ġeconomically": 9196,
      "à°¨à°¸à°°à°¸": 9197,
      "à°¦à°²à°µ": 9198,
      "à°¦à°²à°Ĺ": 9199,
      "à¤¸à¤¨à¤ķ": 9200,
      "ĠStrong": 9201,
      "ĠStarting": 9202,
      "ĠStudies": 9203,
      "ĠStupa": 9204,
      "Ġeastwards": 9205,
      "reasing": 9206,
      "orshi": 9207,
      "Ġclust": 9208,
      "Ġclosely": 9209,
      "Ġclockwise": 9210,
      "Ġà°®à°¤à°¸": 9211,
      "Ġfounding": 9212,
      "Ġfoundation": 9213,
      "ĠAllied": 9214,
      "Ġ1973": 9215,
      "acks": 9216,
[...]
